#include "model.nncu.h"

const unsigned char model1[] __ALIGNED(16) = {
0x4e,0x4e,0x43,0x55,0x01,0x00,0x01,0x00, 0x01,0x0e,0x07,0x00,0x07,0x00,0x00,0x00, // 16
0x02,0x00,0x00,0x00,0x00,0x00,0x00,0x00, 0x18,0x01,0x00,0x00,0x02,0x00,0x00,0x00, // 32
0xe0,0x01,0x00,0x00,0xc8,0x00,0x00,0x00, 0x18,0x01,0x00,0x00,0x00,0x00,0x00,0x00, // 48
0x00,0x00,0x00,0x00,0x00,0x00,0x00,0x00, 0x00,0x00,0x00,0x00,0x00,0x00,0x00,0x00, // 64
0x00,0x00,0x00,0x00,0x00,0x00,0x00,0x00, 0xff,0xff,0xff,0xff,0xff,0xff,0xff,0xff, // 80
0x43,0x4d,0x44,0x00,0x20,0x00,0x80,0x00, 0x50,0x00,0x00,0x00,0x00,0xfe,0x00,0x00, // 96
0x73,0x6d,0x61,0x72,0x74,0x63,0x61,0x72, 0x5f,0x61,0x64,0x5f,0x64,0x65,0x6e,0x73, // 112
0x65,0x5f,0x64,0x72,0x6f,0x70,0x5f,0x30, 0x32,0x35,0x5f,0x61,0x64,0x53,0x69,0x7a, // 128
0x65,0x5f,0x31,0x5f,0x6e,0x6f,0x62,0x6e, 0x2e,0x68,0x35,0x0d,0x0a,0x46,0x72,0x69, // 144
0x20,0x46,0x65,0x62,0x20,0x31,0x39,0x20, 0x31,0x34,0x3a,0x34,0x36,0x3a,0x30,0x34, // 160
0x20,0x32,0x30,0x32,0x31,0x0d,0x0a,0x31, 0x34,0x20,0x62,0x69,0x74,0x73,0x0d,0x0a, // 176
0x6e,0x6e,0x63,0x75,0x20,0x76,0x65,0x72, 0x20,0x31,0x2e,0x30,0x62,0x20,0x32,0x30, // 192
0x32,0x30,0x2e,0x30,0x37,0x2e,0x31,0x34, 0x0d,0x0a,0x00,0x00,0x00,0x00,0x00,0x00, // 208
0x43,0x4d,0x44,0x00,0x20,0x02,0x00,0x00, 0xd0,0x00,0x00,0x00,0x10,0x02,0x00,0x00, // 224
0x00,0x01,0x00,0x02,0x07,0x06,0x06,0x0b, 0x00,0x00,0x00,0x00,0x00,0x00,0x00,0x00, // 240
0x01,0x00,0x07,0x00,0x01,0x00,0x01,0x00, 0x8c,0x00,0x01,0x00,0x00,0x00,0x00,0x00, // 256
0x0c,0x00,0x0c,0xff,0xff,0xff,0xff,0xff, 0x00,0x01,0x01,0x00,0x18,0x01,0x00,0x00, // 272
0x00,0x00,0x03,0x00,0x0e,0x00,0x00,0x00, 0x00,0x00,0x00,0x00,0x00,0x00,0x00,0x00, // 288
0x00,0x00,0x00,0x00,0x00,0x00,0x00,0x00, 0x00,0x00,0x00,0x00,0x00,0x00,0x00,0x00, // 304
0x00,0x00,0x00,0x00,0x00,0x00,0x00,0x00, 0x00,0x00,0x00,0x00,0x00,0x00,0x00,0x00, // 320
0x00,0x00,0x00,0x00,0x00,0x00,0x00,0x00, 0xa8,0x07,0x00,0x00,0x18,0x01,0x00,0x00, // 336
0xb5,0x03,0xa9,0xf6,0xcc,0x00,0xdb,0x01, 0x93,0xf0,0x6f,0x01,0xec,0x05,0x13,0xfd, // 352
0x3e,0xff,0xea,0xfb,0xab,0xf5,0xe1,0x01, 0x97,0xfb,0x6a,0xfc,0x63,0xfb,0x14,0xfb, // 368
0x87,0xf9,0x74,0xee,0x9b,0xfc,0x49,0x02, 0xff,0xff,0x69,0x08,0xef,0x06,0xef,0xfc, // 384
0xf9,0xff,0x14,0x02,0xfa,0xfd,0x5b,0xfd, 0x5c,0x02,0x6f,0x03,0x3e,0x04,0xe8,0x0f, // 400
0x7c,0xfe,0x54,0x01,0x5c,0x00,0x68,0x07, 0xe3,0x03,0xd7,0xff,0xd7,0x03,0xbd,0xff, // 416
0xdb,0xfb,0x77,0x07,0xe6,0x03,0x0d,0xf7, 0x15,0x02,0xe7,0xff,0x21,0xf0,0x80,0x00, // 432
0x25,0x06,0x5d,0x01,0x95,0xf5,0x45,0x00, 0x3a,0x02,0x0e,0xf9,0x50,0x04,0x35,0x01, // 448
0x2d,0x00,0x3a,0xf9,0xfa,0xf4,0x3c,0xf1, 0xf2,0xfd,0x91,0x04,0xf6,0x03,0xe4,0x02, // 464
0xc3,0xfb,0x56,0xf8,0xc5,0xfe,0x0d,0xff, 0x03,0x06,0x09,0x06,0x02,0x03,0xb6,0xfc, // 480
0xa3,0x00,0x41,0xe4,0xa8,0xfb,0x05,0xfd, 0xd7,0x01,0x7e,0x00,0x1a,0x03,0x55,0xfe, // 496
0x0b,0x03,0xcc,0x01,0x12,0xf7,0x21,0xff, 0x9f,0xf9,0x2f,0xf8,0x4e,0xfe,0x96,0x05, // 512
0x23,0xf9,0x6b,0x09,0x70,0x00,0x34,0x08, 0xc9,0xf7,0x18,0x03,0x9c,0xf9,0x5a,0x02, // 528
0x9a,0x04,0xc2,0x06,0x85,0x05,0xec,0xfe, 0xc9,0xfd,0xe3,0x04,0xd3,0xff,0x07,0x06, // 544
0x58,0x04,0x17,0xfd,0x83,0xfd,0x12,0x0d, 0xeb,0xf7,0xa9,0xfc,0x9c,0x05,0xdb,0xff, // 560
0x6b,0xf9,0x45,0x08,0x01,0xfe,0xb3,0x01, 0x31,0x0b,0xdc,0xfe,0x38,0xfd,0xf8,0xf6, // 576
0xe7,0x03,0x6b,0x02,0xf1,0xfc,0xa2,0xfd, 0x40,0xf9,0x28,0xfc,0xb8,0x03,0xa3,0x02, // 592
0x32,0x04,0x61,0xe9,0x37,0xfe,0xff,0xf9, 0x78,0xff,0x07,0xfe,0x39,0xf8,0x66,0xfc, // 608
0xef,0x01,0x2f,0xfe,0x05,0x09,0xcf,0x04, 0x6a,0xf2,0xaa,0x01,0x88,0xfd,0xd2,0x05, // 624
0x01,0xf8,0xb9,0x09,0x6d,0xff,0x36,0xfa, 0x47,0xfb,0x92,0xfd,0x52,0x01,0x23,0xfd, // 640
0xdf,0x0a,0x77,0xff,0x51,0x01,0xe5,0xfd, 0x67,0x0b,0xb8,0xfd,0x8f,0xfc,0xc1,0x08, // 656
0x91,0xfd,0xb1,0xf7,0x83,0x03,0x6a,0x03, 0x4a,0xfa,0xa7,0xfc,0xf3,0xf7,0x2f,0xff, // 672
0x13,0xfe,0xcf,0xff,0x92,0x00,0xe7,0x03, 0x7a,0xfc,0x80,0x08,0x89,0x03,0xe8,0x01, // 688
0x86,0x07,0x2e,0xff,0x69,0x04,0x26,0x08, 0x99,0x01,0xc3,0xfd,0xe0,0xfc,0x6a,0xf7, // 704
0x3e,0xff,0xfa,0xff,0xb0,0xf9,0xc2,0x05, 0xad,0x00,0x94,0xf7,0x92,0xfb,0x97,0xfe, // 720
0x83,0x04,0xcd,0xfa,0xcf,0x0a,0x06,0xff, 0xc8,0x08,0x12,0xf9,0x97,0x04,0x56,0xf5, // 736
0xf9,0xfe,0xe2,0xfc,0x97,0x02,0x58,0x09, 0xf6,0x00,0xa3,0x04,0x03,0xf6,0x38,0xff, // 752
0x29,0xf9,0x56,0x02,0x10,0xf8,0xf7,0x09, 0xf5,0x01,0x29,0x05,0x22,0xfd,0xa6,0xf7, // 768
0x58,0xfd,0xae,0x00,0xa3,0x06,0xd0,0xfe, 0x8b,0x05,0x78,0x00,0x28,0x03,0xc0,0x00, // 784
0x1f,0x00,0xf1,0xfb,0xb9,0xf9,0xb2,0xf3, 0x89,0x01,0x61,0xfd,0x34,0x02,0x44,0x01, // 800
0x4d,0x01,0xf2,0x0b,0x78,0x13,0x04,0x03, 0x93,0xfe,0x96,0xfb,0x39,0xfe,0x0a,0x06, // 816
0x9b,0x08,0x6e,0x0b,0x89,0x01,0x97,0xfb, 0x78,0xfa,0xfb,0xfd,0x5e,0x04,0xcb,0x09, // 832
0x14,0xfc,0xa6,0x02,0x46,0xf9,0xc9,0xfa, 0x8c,0xf6,0x71,0xfe,0xc0,0xfe,0xa2,0xfc, // 848
0x8c,0xfd,0xef,0x00,0x9d,0xf8,0x83,0x01, 0x08,0xf8,0x40,0x01,0x05,0x06,0xac,0x02, // 864
0xbb,0x00,0x32,0x01,0xa9,0xfe,0x99,0xfb, 0xae,0x09,0x89,0xfc,0x87,0xfc,0x33,0x08, // 880
0xdf,0xff,0xb0,0xfc,0xcb,0x09,0x38,0x00, 0x05,0xfc,0x54,0x0d,0x04,0xfd,0x4d,0xfb, // 896
0x0e,0xfd,0x55,0xf7,0xfb,0x02,0x3f,0x08, 0x08,0x03,0xb1,0xff,0x5a,0x08,0x71,0xfb, // 912
0x21,0xfa,0xf8,0xf9,0x28,0x0c,0xea,0x00, 0x6c,0x08,0x42,0xfc,0x39,0xf4,0xc7,0xfe, // 928
0x48,0x05,0xcd,0xfe,0xc2,0xf8,0x29,0x06, 0x84,0x06,0x2a,0xff,0x70,0x01,0x44,0x04, // 944
0xbc,0xfb,0x56,0x03,0xc3,0xf6,0x2b,0xff, 0x05,0x00,0xe9,0xf4,0x0f,0xfe,0x5c,0x0a, // 960
0xc4,0x00,0xb7,0x05,0x02,0x05,0xa0,0x03, 0x76,0xf9,0x42,0x02,0x80,0xfb,0xf7,0xfd, // 976
0xfa,0x08,0x7a,0x02,0x1d,0x04,0xc8,0x08, 0xbb,0x00,0xd4,0xfc,0xa3,0x02,0x9d,0xf5, // 992
0x8a,0x00,0xf6,0xfc,0x02,0x03,0xda,0x0b, 0x26,0x10,0x44,0xff,0xd7,0x00,0x67,0xfd, // 1008
0xc5,0x00,0xa2,0xfc,0x47,0x01,0xc9,0xfa, 0x2d,0x02,0xb4,0xf8,0xda,0xfe,0xbf,0x05, // 1024
0xb5,0xf8,0xd4,0x04,0x88,0xf9,0x5c,0x04, 0xe9,0xf8,0x2b,0x02,0x32,0x02,0x7a,0x07, // 1040
0xb9,0xff,0x60,0x00,0x77,0x0a,0x01,0x00, 0x57,0xfb,0xde,0x08,0x26,0xf5,0x31,0x02, // 1056
0x17,0xfb,0xbd,0x02,0x84,0x06,0xa8,0x04, 0xd9,0xfb,0x6c,0xf6,0x06,0x01,0x2d,0x02, // 1072
0xc8,0xf9,0xbe,0x06,0x8c,0x03,0xc1,0x02, 0x8d,0x0a,0xf3,0xfd,0x21,0xfd,0x61,0x06, // 1088
0x64,0xf8,0x60,0xfa,0x4b,0xfc,0x9f,0xfc, 0x26,0xf2,0xc5,0xea,0x09,0xfc,0xa5,0x03, // 1104
0x45,0x03,0x06,0x03,0x4b,0xf8,0x43,0x03, 0x03,0xf9,0x63,0xfd,0xf1,0xfa,0x14,0x03, // 1120
0x2f,0xf8,0x0e,0xf9,0x22,0x02,0x27,0x02, 0x95,0xfa,0x3c,0x08,0x54,0x00,0x39,0xff, // 1136
0x8e,0xfd,0x9b,0x00,0x60,0x03,0x7f,0xfc, 0x38,0x08,0x32,0x04,0x04,0xfe,0xd7,0xfa, // 1152
0xd0,0xf7,0xa3,0xec,0xea,0xfc,0xc4,0x01, 0x84,0x03,0xb8,0xfe,0x68,0x09,0x2c,0x01, // 1168
0x72,0xfc,0x8a,0x07,0x5b,0xfc,0xd0,0x00, 0x91,0xfb,0xe0,0xfb,0xa0,0x01,0x4c,0xf7, // 1184
0x65,0xff,0xcd,0xfc,0x18,0xfb,0xa2,0x04, 0x9e,0xfd,0x4e,0x02,0xfe,0xe6,0x68,0xfb, // 1200
0x89,0xfc,0xf2,0x02,0xb1,0xf9,0x8c,0xfb, 0xd9,0xfe,0x07,0xf9,0xd0,0xfb,0xbc,0x06, // 1216
0x5d,0x06,0xb5,0x01,0x35,0xfe,0xfd,0xf7, 0x88,0xf8,0xd5,0x03,0x0e,0xfa,0xa8,0x00, // 1232
0x5b,0x03,0x85,0xfe,0xfc,0x00,0xfa,0xfb, 0x3a,0x03,0x00,0xf7,0xe0,0xfe,0x87,0x0e, // 1248
0x80,0xf7,0x6b,0xff,0xd4,0xfb,0x06,0x04, 0x6d,0x02,0xbf,0x03,0x4f,0xfe,0xd0,0xf5, // 1264
0x4f,0x03,0xb7,0x02,0x2a,0x05,0x41,0xfe, 0xa2,0x05,0x77,0x08,0x0a,0x04,0x73,0x04, // 1280
0xc7,0xf4,0x9a,0xff,0x57,0xf8,0x2d,0x01, 0x9d,0x00,0xfb,0xff,0x2f,0x04,0x84,0x07, // 1296
0x38,0xfd,0x66,0x05,0x97,0x02,0x6e,0x00, 0xed,0x00,0xed,0xfe,0x6f,0x03,0xf9,0xfd, // 1312
0xc2,0x07,0x87,0x02,0xd7,0xfd,0xa0,0x05, 0xd6,0x09,0x91,0xfc,0x85,0x00,0x11,0xf9, // 1328
0xaf,0xfa,0xef,0x04,0xee,0x03,0x7e,0x01, 0x7d,0xff,0xf4,0x03,0xf5,0xf8,0x49,0xf8, // 1344
0x4f,0xf8,0xea,0xfe,0x77,0x03,0x6b,0x02, 0xe2,0xf8,0x40,0x08,0x1f,0x06,0xc3,0xf7, // 1360
0x24,0xfd,0xc8,0x00,0xdb,0xf4,0x6b,0xfd, 0x0c,0xfe,0x62,0xfe,0xce,0x00,0xc8,0xfe, // 1376
0xcc,0x01,0x07,0xfc,0xb6,0x02,0x83,0xf7, 0x9e,0xfe,0x20,0x08,0x5f,0x07,0x5e,0xfd, // 1392
0x51,0xff,0xf2,0x04,0xda,0xfb,0x59,0xfd, 0xb3,0xfb,0x02,0x00,0xa8,0xf6,0x28,0x08, // 1408
0xfb,0xfe,0x13,0x01,0x4d,0xf7,0xef,0xff, 0xd2,0xfc,0x22,0xfd,0x7d,0xfc,0xd4,0x01, // 1424
0x8c,0xfa,0xa3,0xfb,0x12,0x05,0xa8,0xff, 0x4f,0x01,0x3b,0xfb,0x1b,0x04,0x5f,0xf6, // 1440
0x42,0xff,0x50,0x06,0x04,0xfb,0x66,0x04, 0x13,0xf8,0xba,0x06,0xdc,0xf6,0x14,0xff, // 1456
0x1d,0xfd,0xbc,0x02,0x63,0x08,0x73,0x03, 0x82,0x00,0x4e,0xfc,0x55,0xfa,0x46,0x05, // 1472
0x3a,0xff,0x25,0x03,0x6d,0xee,0x05,0xfa, 0x0a,0xfd,0x0c,0x04,0x3c,0x02,0xb9,0x02, // 1488
0x5b,0xf7,0xed,0x02,0x15,0x01,0x00,0xf9, 0xb3,0xff,0xa6,0xfb,0xf8,0x08,0x33,0xff, // 1504
0xb7,0x01,0x52,0x0d,0x37,0xff,0xaf,0xfc, 0x52,0x04,0xbf,0x04,0xbb,0x05,0x74,0x14, // 1520
0x8b,0x02,0xca,0x00,0x36,0xff,0x71,0x00, 0x1e,0x06,0xb9,0x03,0x69,0xed,0xb9,0xfb, // 1536
0x8f,0xfa,0xbe,0xfd,0x6b,0xfb,0x34,0x09, 0xf0,0x00,0x4a,0xfd,0xf2,0x0c,0x86,0xfe, // 1552
0xa2,0xfb,0xe1,0xfd,0x71,0x09,0x92,0x00, 0xb0,0x00,0x81,0x0a,0xa6,0xff,0x92,0xf9, // 1568
0x2d,0x02,0x12,0xf9,0x66,0xf6,0xa7,0x0c, 0x19,0x0b,0xea,0x05,0x87,0xfc,0xcd,0x03, // 1584
0x3c,0x00,0x7f,0x02,0x22,0x0d,0xf3,0x00, 0xe3,0x05,0x15,0xfe,0xf5,0xf4,0xe1,0x0a, // 1600
0xa9,0x01,0x2e,0xfe,0x56,0xfd,0x09,0xfb, 0x44,0xfa,0xb0,0x00,0x19,0x01,0x52,0x00, // 1616
0x1d,0xfc,0xc1,0x04,0xeb,0xf7,0x86,0xfb, 0xd6,0x01,0xb2,0x01,0xde,0x05,0x12,0x0c, // 1632
0x62,0xfc,0xf2,0x03,0x0e,0x01,0xe5,0xfa, 0x4d,0x09,0xa6,0xfe,0xbc,0xff,0x75,0x09, // 1648
0x31,0xfe,0x95,0xfd,0x3d,0x02,0xca,0xf5, 0xd7,0x00,0x87,0x00,0x89,0xf9,0x6c,0x03, // 1664
0x0e,0xff,0x56,0x02,0x7f,0xfb,0x69,0xfe, 0xef,0xfd,0xeb,0xfd,0xd2,0x09,0xe5,0x01, // 1680
0x6f,0x06,0x4a,0x07,0xda,0xff,0x13,0x02, 0x93,0x02,0xf5,0xf8,0x26,0x04,0x5c,0x02, // 1696
0xeb,0x02,0x14,0x09,0x58,0xf8,0x5e,0x02, 0xea,0xf3,0x04,0x03,0x37,0xf9,0xca,0xf7, // 1712
0x2d,0x03,0xc4,0x00,0x16,0xfb,0xf9,0x02, 0x27,0x04,0x98,0xff,0xb9,0xf6,0xba,0x03, // 1728
0x75,0xfe,0x51,0xfd,0x1f,0xfe,0x2b,0x05, 0x7e,0xfd,0x7d,0x02,0x1b,0x06,0xe6,0x0b, // 1744
0x87,0xfd,0xa5,0x05,0x45,0xfe,0x16,0x02, 0x7c,0xf7,0x65,0x00,0x0c,0xfc,0x47,0xfb, // 1760
0x56,0xfe,0xc0,0x01,0x54,0x09,0x5e,0x01, 0xd0,0x03,0x7f,0xf6,0x95,0x00,0x67,0xfa, // 1776
0x22,0x00,0xe5,0xf9,0x71,0xf7,0x81,0x00, 0x30,0x00,0x8c,0xfc,0xb1,0x08,0x68,0xfe, // 1792
0x26,0x06,0xa7,0x06,0x3d,0x04,0x9c,0xf4, 0x90,0x00,0x79,0xfb,0x8c,0xfc,0x51,0xfe, // 1808
0x2d,0x0b,0xeb,0x00,0xb1,0xf9,0x19,0xfe, 0x72,0xfd,0x10,0xfb,0x35,0xfc,0x4a,0xfd, // 1824
0x2b,0x02,0x0f,0xfe,0x5f,0xfc,0xb5,0x09, 0xaa,0x00,0xd1,0xfa,0xd4,0xfc,0x05,0xff, // 1840
0xc3,0xee,0x95,0xfd,0x13,0x06,0xfd,0xfd, 0xed,0x00,0xf9,0x03,0x68,0x06,0x7d,0x11, // 1856
0xcc,0xfe,0xab,0x01,0xae,0x00,0xcd,0x02, 0x21,0x09,0x2d,0xff,0x6d,0xf5,0x45,0xff, // 1872
0x67,0xfe,0x32,0xf8,0x0c,0xfd,0x47,0xf6, 0x39,0xff,0x8b,0x04,0x1e,0xfb,0x94,0x08, // 1888
0x69,0x03,0xdf,0xff,0xc2,0x02,0x99,0xf5, 0x56,0x01,0x50,0x02,0x23,0xf8,0xfa,0x02, // 1904
0x6e,0x05,0x7d,0xf7,0x34,0xf8,0xcb,0x03, 0x6c,0x06,0x76,0x05,0xab,0xf9,0x0a,0x06, // 1920
0xfe,0x02,0x3f,0x02,0x6b,0x12,0xed,0x06, 0x8a,0xfd,0x7a,0x00,0xff,0x02,0x9c,0xfa, // 1936
0x37,0xf6,0x1a,0xf8,0x77,0xff,0x3d,0x05, 0x21,0x05,0xad,0x02,0x11,0x03,0x95,0xfd, // 1952
0xcc,0x02,0x96,0x00,0x1e,0x06,0xdb,0x00, 0xae,0xfa,0xbc,0x03,0x64,0x02,0x93,0x04, // 1968
0x01,0xfb,0x17,0x06,0x20,0x05,0xe4,0x0a, 0xcc,0xfd,0xd3,0x06,0x94,0xf7,0x60,0x06, // 1984
0x7c,0xf4,0x44,0x03,0xae,0x03,0x68,0x09, 0x68,0x00,0x53,0xfb,0x4e,0x06,0x28,0xf9, // 2000
0x06,0xfa,0xad,0x05,0xd3,0x04,0xed,0x07, 0xbb,0xf2,0x4d,0xfb,0xe8,0xf8,0xa1,0x02, // 2016
0xfb,0xf8,0x56,0x08,0x90,0xfd,0x2f,0x04, 0xd1,0x0a,0xfe,0x01,0x5f,0xfa,0xd3,0xfd, // 2032
0xe2,0xf4,0x79,0x02,0x67,0x03,0x64,0xf8, 0xb9,0x05,0x07,0x08,0x59,0xf8,0xb5,0xfb, // 2048
0x3f,0xfc,0x63,0x05,0xba,0xfc,0xec,0x0a, 0xd9,0xfd,0x74,0xfa,0xe8,0x00,0xa1,0x02, // 2064
0x19,0x03,0x3c,0xfb,0x8c,0x07,0xb8,0x04, 0x55,0x01,0x3b,0x08,0x75,0xff,0xa8,0x04, // 2080
0x2d,0x06,0x20,0xff,0x1b,0x00,0x71,0x08, 0xcd,0x03,0x29,0x01,0x09,0x01,0x86,0x00, // 2096
0x97,0xf8,0xa5,0x05,0x4b,0xf8,0xcc,0xfd, 0x23,0x00,0xb7,0x03,0x9d,0xf9,0x03,0x0a, // 2112
0x69,0x03,0xaa,0x07,0x58,0x04,0x8a,0x02, 0xba,0x11,0xc5,0x06,0x02,0xfd,0xdc,0xfb, // 2128
0x05,0xf6,0xc9,0xfe,0x50,0xfc,0x81,0xfd, 0x1e,0xfb,0x6c,0x0a,0x0f,0x00,0x0b,0x00, // 2144
0x01,0xfb,0x5d,0xff,0xb2,0xfc,0xd5,0x02, 0xe9,0xfa,0x01,0xfd,0x2b,0xfc,0x62,0xf7, // 2160
0x6a,0x03,0xbd,0x04,0x6c,0xf6,0xa6,0x05, 0xb2,0x09,0xf0,0xff,0xa1,0xf9,0xd8,0xf7, // 2176
0x9c,0xf2,0x95,0xfa,0x5e,0x04,0x77,0x04, 0x01,0xfb,0xe5,0xfe,0xcc,0x0c,0x7b,0xfc, // 2192
0x6a,0xfd,0x78,0x03,0x9f,0xfc,0x5c,0x01, 0x52,0xfd,0x94,0x03,0x0c,0xfa,0x0b,0x04, // 2208
0x5f,0xf7,0x11,0xff,0x1a,0xfa,0xd9,0x0c, 0x06,0x01,0x79,0xfb,0x56,0xfd,0xc9,0xfc, // 2224
0x95,0xfa,0x46,0x09,0x69,0xfa,0xc3,0x03, 0x55,0xfa,0xa0,0x02,0xe1,0x02,0xd1,0x08, // 2240
0x25,0xfb,0x04,0x09,0xcf,0xfe,0xa6,0xff, 0x5b,0x0e,0x4a,0xfe,0x31,0xfb,0xb2,0x02, // 2256
0xb4,0xf6,0x63,0x02,0xf7,0x01,0xe4,0xf3, 0x21,0x03,0x2c,0x04,0x3a,0x06,0x65,0x02, // 2272
0x88,0x05,0x40,0xee,0x90,0xfa,0x50,0xfb, 0x77,0xff,0x80,0x07,0xf7,0x05,0x96,0xf9, // 2288
0x41,0xff,0xe5,0x07,0xcf,0xf8,0xe2,0xf6, 0x49,0xfa,0x65,0xef,0x33,0xf6,0xb1,0x0f, // 2304
0x70,0x0b,0x07,0x0d,0xd3,0xf9,0xfc,0xf8, 0xeb,0xfd,0x56,0x07,0xbf,0xfc,0x9c,0xf8, // 2320
0x1c,0xf8,0x6f,0x0a,0xdd,0x10,0x19,0xff, 0xc3,0x02,0xe5,0xee,0xd7,0xfe,0x7d,0x02, // 2336
0x75,0x01,0xa1,0x02,0x1a,0x00,0x91,0xf0, 0xbb,0x0e,0x78,0x12,0xef,0xf4,0x2b,0xff, // 2352
0x57,0xfb,0xc8,0x05,0x50,0xf8,0x27,0x14, 0x23,0xf7,0xae,0x01,0xfe,0xfd,0xd9,0xfa, // 2368
0x0e,0xed,0x6b,0xf9,0x9f,0x00,0x63,0x05, 0x09,0xf6,0xf5,0xf8,0xb6,0x03,0x8d,0xf3, // 2384
0xf2,0xfa,0x36,0x06,0xa0,0x03,0x32,0x03, 0x28,0xee,0x1a,0xf3,0x5c,0x0e,0x18,0x07, // 2400
0x4e,0xf8,0x21,0x07,0x9b,0xfb,0x90,0xef, 0x35,0xf8,0x2d,0x0d,0x97,0xf9,0xa3,0x08, // 2416
0x82,0xeb,0xdd,0xff,0x47,0x02,0x4c,0xf7, 0x1b,0xf2,0x12,0x08,0x12,0xf3,0x9c,0x07, // 2432
0x87,0x0d,0x74,0x11,0x65,0xfa,0xaf,0xfa, 0x28,0x0a,0x30,0xee,0x12,0xef,0x4b,0x0d, // 2448
0xf9,0xf0,0x2b,0xec,0x37,0xf4,0x5e,0xf1, 0x2b,0xfa,0x4a,0x04,0xf7,0xf9,0x55,0x07, // 2464
0x00,0x0d,0x53,0xff,0x5d,0x07,0x8a,0x0c, 0x39,0xfa,0x0f,0x0c,0x65,0xf9,0x4e,0xf2, // 2480
0x50,0x0b,0xfc,0x03,0x33,0xf9,0x8b,0x08, 0x1c,0x0c,0xe4,0xfa,0xfa,0xf1,0xfe,0xef, // 2496
0xc1,0x09,0x06,0xf0,0x28,0x06,0x4c,0xf7, 0xdb,0x0b,0xfa,0x07,0x38,0x05,0x37,0xfc, // 2512
0x38,0x0a,0x3c,0x09,0xc5,0xfa,0x32,0xff, 0x9d,0xf9,0x50,0x08,0x6d,0x03,0x22,0x13, // 2528
0x7b,0x10,0x08,0xfc,0xf1,0x06,0xf1,0x08, 0x41,0x05,0x20,0xf9,0xff,0xfd,0xe0,0x0d, // 2544
0xbc,0x11,0xf8,0x07,0xaa,0x06,0x26,0x08, 0xac,0x01,0xd6,0xeb,0x31,0xfd,0x02,0xfc, // 2560
0x30,0xf9,0xe4,0xef,0x92,0x04,0x25,0x10, 0x41,0x05,0xcd,0xfb,0x27,0x05,0x4a,0xfc, // 2576
0x43,0x4d,0x44,0x00,0x20,0x03,0x80,0x00, 0x10,0x0a,0x00,0x00,0x10,0x0a,0x00,0x00, // 2592
0x01,0x01,0x00,0x02,0x0c,0x00,0x00,0x00, 0x00,0x00,0x00,0x00,0x00,0x00,0x00,0x00, // 2608
0x01,0x00,0x8c,0x00,0x01,0x00,0x01,0x00, 0x8c,0x00,0x01,0x00,0x00,0x00,0x00,0x00, // 2624
0x0d,0x00,0xff,0xff,0xff,0xff,0xff,0xff, 0x00,0x00,0x00,0x00,0x00,0x00,0x00,0x00, // 2640
0x00,0x00,0x00,0x00,0x00,0x00,0x00,0x00, 0x00,0x00,0x00,0x00,0x00,0x00,0x00,0x00, // 2656
0x00,0x00,0x00,0x00,0x00,0x00,0x00,0x00, 0x00,0x00,0x00,0x00,0x00,0x00,0x00,0x00, // 2672
0x00,0x00,0x00,0x00,0x00,0x00,0x00,0x00, 0x00,0x00,0x00,0x00,0x00,0x00,0x00,0x00, // 2688
0x00,0x00,0x00,0x00,0x00,0x00,0x00,0x00, 0x00,0x00,0x00,0x00,0x00,0x00,0x00,0x00, // 2704
0x43,0x4d,0x44,0x00,0x20,0x05,0x00,0x00, 0x90,0x0a,0x00,0x00,0x10,0x02,0x00,0x00, // 2720
0x01,0x00,0x00,0x02,0x0d,0x0a,0x0b,0x09, 0x00,0x00,0x00,0x00,0x00,0x00,0x00,0x00, // 2736
0x01,0x00,0x8c,0x00,0x01,0x00,0x01,0x00, 0x64,0x00,0x01,0x00,0x00,0x00,0x00,0x00, // 2752
0x0c,0x00,0x0b,0xff,0xff,0xff,0xff,0xff, 0x00,0x00,0x01,0x00,0xc8,0x00,0x00,0x00, // 2768
0x00,0x01,0x02,0x00,0x18,0x01,0x00,0x00, 0x00,0x00,0x00,0x00,0x00,0x00,0x00,0x00, // 2784
0x00,0x00,0x00,0x00,0x00,0x00,0x00,0x00, 0x00,0x00,0x00,0x00,0x00,0x00,0x00,0x00, // 2800
0x00,0x00,0x00,0x00,0x00,0x00,0x00,0x00, 0x00,0x00,0x00,0x00,0x00,0x00,0x00,0x00, // 2816
0x00,0x00,0x00,0x00,0x00,0x00,0x00,0x00, 0x60,0x6d,0x00,0x00,0xc8,0x00,0x00,0x00, // 2832
0x28,0x01,0xa6,0xff,0xdd,0xff,0x23,0x01, 0x55,0x00,0x84,0x00,0x11,0x01,0x3d,0x00, // 2848
0xd4,0xff,0xf1,0xff,0x3b,0x00,0x47,0xff, 0x24,0x00,0x9a,0x00,0xad,0xff,0xe1,0xff, // 2864
0xea,0xfe,0xf6,0xff,0x7f,0x00,0x81,0xff, 0xb9,0x00,0x75,0xff,0xfd,0xff,0x41,0x00, // 2880
0x0d,0x00,0x5f,0xff,0xf3,0xff,0xd8,0xff, 0x7e,0x00,0x71,0x03,0x9e,0xff,0xf2,0xff, // 2896
0xe0,0xff,0x1e,0x00,0x13,0x00,0x62,0x00, 0x6f,0xff,0x3d,0xff,0xc8,0xff,0x07,0xff, // 2912
0x4e,0xfb,0x40,0xfd,0x36,0x00,0xe6,0xff, 0xfb,0xfa,0x0d,0x00,0x8f,0xff,0x07,0x00, // 2928
0x7b,0xff,0x1b,0x00,0x8a,0xff,0xc8,0x00, 0x80,0xff,0x00,0x00,0xaa,0xff,0x65,0x00, // 2944
0xce,0x00,0x78,0x00,0xfc,0xff,0xd2,0xff, 0xc6,0xff,0x4c,0x00,0x14,0x00,0x21,0x00, // 2960
0xd5,0xff,0x13,0x00,0x15,0xfc,0xfe,0x03, 0x69,0x01,0x98,0x00,0x22,0x00,0x30,0x00, // 2976
0xc8,0x00,0x10,0x00,0x67,0xff,0x66,0x00, 0x8e,0xfe,0x45,0xff,0x4c,0xff,0xcd,0xff, // 2992
0x74,0x00,0x64,0x01,0x34,0x00,0x01,0xff, 0x05,0x00,0x5f,0x03,0x90,0xff,0x0e,0x00, // 3008
0x91,0xf5,0x7c,0xff,0xe0,0x00,0xd2,0xff, 0x54,0x00,0xa8,0xff,0xca,0x00,0x65,0x00, // 3024
0x0e,0x00,0xa6,0x00,0x01,0x00,0xca,0xff, 0x44,0x00,0xdb,0xff,0x72,0x02,0xe3,0x00, // 3040
0x7a,0x06,0x82,0x05,0xb3,0x00,0x03,0x00, 0xb8,0xff,0xf7,0x05,0xdb,0xff,0x68,0x00, // 3056
0x73,0xfc,0x09,0x00,0xf1,0xff,0x18,0x00, 0xea,0x00,0xf4,0xff,0xf9,0x00,0x8e,0x0b, // 3072
0x69,0xff,0x11,0x00,0xae,0xff,0xb7,0x00, 0x51,0xff,0x2c,0x00,0xba,0x00,0x8c,0x00, // 3088
0x59,0xff,0xee,0xff,0x3f,0x00,0xe5,0xff, 0x51,0x00,0x06,0x00,0x04,0x03,0x56,0x00, // 3104
0x3a,0xff,0x30,0x01,0x9e,0x07,0xba,0xfe, 0x07,0x00,0xa2,0x00,0xf6,0xff,0xf6,0xff, // 3120
0x12,0x00,0xf0,0xfe,0xd7,0xff,0x18,0x00, 0xa5,0xff,0x55,0x00,0x21,0x00,0xf6,0x00, // 3136
0x7f,0x00,0x9c,0xff,0xbb,0xff,0x2c,0xf8, 0x07,0x00,0xfe,0x00,0xf4,0xff,0x5e,0x00, // 3152
0xa7,0xff,0x51,0xff,0x12,0xfa,0x9a,0x00, 0x32,0x00,0x9f,0xff,0x5c,0x00,0xc5,0xff, // 3168
0xe0,0xff,0xb6,0xff,0x9e,0x01,0xdf,0xff, 0x3d,0x00,0x3e,0x00,0x80,0x00,0xc3,0xff, // 3184
0x5f,0x01,0x02,0x00,0xcc,0xfc,0xd8,0xff, 0xe1,0xff,0x63,0x00,0x02,0x00,0x50,0x00, // 3200
0x24,0x00,0x71,0xfc,0x4e,0xff,0x20,0x00, 0x13,0x00,0x09,0x00,0x62,0xff,0xa2,0xff, // 3216
0x41,0x00,0x98,0xff,0xe3,0xff,0x18,0x00, 0x77,0x00,0xc6,0xff,0xf7,0xff,0x2e,0x00, // 3232
0xd5,0x00,0x08,0x00,0x7e,0xff,0xd6,0xff, 0xfc,0xff,0x0c,0xff,0xe1,0xff,0x03,0x00, // 3248
0x0d,0x00,0xd3,0xff,0xe7,0xff,0xad,0xff, 0xaa,0xff,0x9f,0x00,0x23,0x00,0xc9,0xff, // 3264
0xd0,0x00,0x5c,0x00,0x42,0x00,0x3d,0x00, 0xb8,0x00,0xcb,0xff,0x2d,0x01,0x3c,0x00, // 3280
0xed,0xff,0x27,0x00,0xe5,0xff,0xe8,0x00, 0x2b,0x00,0x43,0x00,0x74,0xff,0x02,0x00, // 3296
0xec,0xff,0xf8,0xff,0xf0,0xff,0x2e,0xfe, 0x52,0xff,0x1d,0x00,0xcf,0xff,0xb2,0xff, // 3312
0xe2,0xff,0x78,0x00,0xf3,0xff,0xcb,0xff, 0x24,0x00,0xcc,0xff,0xa3,0xfe,0xe5,0xff, // 3328
0xbd,0xff,0x3f,0x00,0x4b,0x00,0x70,0x03, 0x63,0x00,0x13,0x00,0x51,0xff,0x37,0x00, // 3344
0xe9,0xff,0x72,0x00,0x96,0xff,0x76,0xff, 0x21,0x00,0x72,0x00,0x76,0x00,0xa8,0xff, // 3360
0x22,0x00,0x4a,0xff,0xd6,0xff,0xdd,0xff, 0xd6,0xff,0xe9,0xff,0x1e,0x00,0x9d,0xff, // 3376
0x9a,0xfb,0x81,0x00,0x19,0x00,0x1f,0xff, 0x16,0x00,0xfe,0xff,0xf9,0xff,0xb4,0xff, // 3392
0xf6,0xff,0x29,0x00,0xab,0xff,0x82,0x06, 0x25,0x00,0x32,0x01,0x46,0x00,0xfa,0xff, // 3408
0x28,0x00,0x5a,0x00,0xb8,0x00,0x81,0xff, 0xe0,0xfd,0x72,0x00,0x90,0x01,0xf9,0xff, // 3424
0xd5,0xff,0x48,0xff,0xdc,0x00,0x63,0xff, 0xd2,0xfd,0x90,0xfe,0x9f,0xff,0xba,0xff, // 3440
0xbf,0x00,0x58,0x01,0x66,0xfe,0xf7,0xfe, 0x4e,0x00,0xc3,0x01,0x79,0xff,0xf3,0x01, // 3456
0x46,0x00,0x11,0x00,0xfc,0xff,0x45,0x00, 0xdf,0xfd,0x18,0x00,0x9b,0xff,0x02,0x00, // 3472
0x5e,0xff,0x73,0xff,0x79,0xff,0x55,0xff, 0x0e,0x00,0x2c,0x00,0x3d,0x01,0xd6,0xff, // 3488
0x6a,0xfe,0x50,0xff,0x60,0x01,0x49,0x00, 0xc7,0xfd,0x8a,0x02,0xb5,0xff,0x72,0xff, // 3504
0x03,0xfe,0xa0,0xff,0xdc,0xff,0x44,0x00, 0x6e,0xfe,0x4b,0x00,0xae,0xff,0x44,0x00, // 3520
0xc7,0xff,0xa8,0x00,0x3f,0xff,0xba,0x01, 0xac,0xff,0x3c,0x01,0x0c,0x00,0xa2,0x00, // 3536
0x32,0xff,0x86,0xff,0x39,0xfe,0xb4,0x06, 0x6d,0xff,0x5d,0xfe,0xf4,0xff,0xd8,0xff, // 3552
0x16,0x00,0xbb,0x00,0x3a,0x00,0x0a,0x00, 0x24,0x00,0x1d,0x00,0x43,0x00,0xd7,0x00, // 3568
0x19,0xff,0x6d,0x00,0x39,0x00,0xfd,0xff, 0xb1,0xff,0xf8,0xff,0x57,0x00,0x6a,0x00, // 3584
0xb5,0x01,0x21,0x00,0x27,0xf9,0xb9,0xfd, 0x9f,0xff,0xae,0xfe,0x56,0x01,0x5d,0xfe, // 3600
0x6f,0x01,0x5e,0x00,0x7e,0x00,0xeb,0xff, 0x0d,0x00,0x4d,0x00,0xbf,0xfe,0x10,0x00, // 3616
0x36,0xff,0x0a,0x00,0xd3,0xff,0xe4,0x01, 0x91,0x00,0xe4,0x00,0x94,0x01,0x93,0x01, // 3632
0x50,0x00,0x22,0xfe,0x99,0xff,0xcc,0xff, 0x16,0x01,0x14,0x02,0x45,0x00,0x51,0x00, // 3648
0x0d,0xff,0x98,0xfe,0x69,0xfe,0xdd,0xff, 0xe2,0xff,0xc0,0xfe,0x8c,0xff,0x6f,0x00, // 3664
0x0d,0x00,0xf5,0xff,0x3d,0x00,0xa0,0x00, 0x9b,0xff,0x0f,0xff,0x3d,0xfe,0x89,0x00, // 3680
0xfc,0x00,0xfb,0x00,0x0f,0x00,0x92,0xff, 0x47,0xff,0x24,0x00,0xa7,0xfe,0xf6,0x01, // 3696
0xac,0xfe,0x91,0xff,0x7b,0x00,0x65,0xff, 0xd7,0xff,0x83,0xff,0x03,0xfd,0x63,0xff, // 3712
0x60,0xfe,0x1e,0xfe,0xd8,0xff,0x61,0xff, 0xc7,0xff,0x45,0x01,0xe7,0xfe,0x8f,0xfe, // 3728
0xa4,0x00,0x10,0x00,0x4c,0x01,0xc3,0xff, 0x25,0x00,0x1c,0x00,0x67,0x00,0xb2,0x00, // 3744
0xb7,0xfd,0x78,0x02,0xb7,0xfe,0x4f,0x00, 0x6b,0x01,0xf7,0x01,0x83,0xfd,0xde,0xff, // 3760
0x83,0x01,0x76,0xff,0x0b,0x01,0x64,0x00, 0xf5,0x00,0xec,0x00,0x94,0x00,0xce,0xfe, // 3776
0x2e,0xff,0xfa,0xff,0x54,0xff,0xa7,0x00, 0xdb,0xfe,0x90,0x00,0xc0,0xff,0x4c,0x00, // 3792
0x2a,0xff,0xfb,0xfd,0x4d,0xfe,0xeb,0xff, 0x93,0x00,0xdf,0xff,0xcd,0x00,0x7b,0x00, // 3808
0x38,0x00,0xfe,0xfe,0xbe,0xff,0x8f,0x00, 0x74,0xff,0x4d,0xfe,0x25,0x00,0xb4,0x01, // 3824
0x52,0x02,0x31,0x01,0x19,0x01,0x84,0x00, 0x68,0x00,0x1e,0xfd,0x8a,0x00,0x63,0x00, // 3840
0xa9,0x00,0x5e,0xfe,0x07,0x00,0xee,0x00, 0xb3,0x00,0xa8,0x00,0xda,0xfd,0x25,0x00, // 3856
0x5c,0x00,0x11,0x00,0x5e,0x00,0x08,0xff, 0xe3,0x01,0x7d,0x00,0x97,0xfe,0x4a,0x00, // 3872
0x3e,0x00,0x75,0xff,0xfb,0xff,0xe8,0xfe, 0xbd,0xff,0x59,0xfe,0x57,0xfe,0x93,0xfa, // 3888
0x09,0x01,0x01,0xff,0x56,0xff,0x59,0x00, 0x9b,0x02,0x68,0x02,0x88,0xff,0x1e,0xff, // 3904
0x77,0xfe,0x46,0x01,0x09,0x01,0xdd,0xff, 0xfd,0xff,0xa3,0xfe,0x3c,0xff,0xd5,0xfe, // 3920
0x35,0x02,0x00,0x03,0x71,0xff,0x09,0x02, 0xbc,0xfc,0x2c,0x01,0x6f,0xff,0xe8,0xfe, // 3936
0xe9,0xfe,0x98,0x01,0xdd,0xfd,0xce,0xff, 0xe1,0xff,0x00,0x00,0x69,0xff,0xa3,0x00, // 3952
0x37,0x00,0xce,0x00,0x49,0x04,0x0e,0x00, 0x14,0xfe,0x05,0xfd,0x5a,0x00,0x50,0x00, // 3968
0x20,0x02,0x2b,0x00,0xaa,0x00,0x47,0xff, 0x9c,0x00,0xfa,0xff,0x5f,0x00,0x59,0x00, // 3984
0x71,0xff,0x28,0x00,0x8e,0x00,0x1b,0x02, 0xb0,0x01,0x21,0x02,0x66,0x00,0xdb,0xff, // 4000
0x0d,0x01,0xd8,0xff,0xfe,0x00,0x22,0x01, 0x19,0xff,0xe4,0xfe,0xe5,0xfe,0x4d,0x00, // 4016
0x4b,0x01,0xa3,0xfe,0xd0,0xfd,0xaa,0xfe, 0xb0,0x01,0x59,0x00,0x78,0x00,0xcb,0xff, // 4032
0x3e,0xff,0x90,0xff,0xa4,0x02,0xae,0xff, 0x0b,0xff,0x7a,0x00,0x91,0xfe,0xd5,0xfe, // 4048
0x46,0xff,0xc2,0xfe,0x9d,0xff,0x40,0x00, 0x38,0x00,0x16,0x00,0x2d,0x03,0x36,0xff, // 4064
0xff,0x00,0x43,0x00,0xb0,0x02,0xa8,0xff, 0x00,0x00,0xfe,0x00,0xb8,0x03,0x82,0x00, // 4080
0x0e,0xff,0x56,0x00,0x90,0xff,0x12,0xff, 0x52,0xff,0x51,0x00,0xa4,0xff,0x26,0xff, // 4096
0x96,0x00,0x96,0x02,0xbe,0xfe,0xfd,0xfe, 0xe2,0xff,0x6f,0xff,0x25,0xff,0x99,0xfe, // 4112
0x9e,0xff,0x23,0x01,0x5c,0xff,0x0d,0x00, 0x92,0xfd,0x17,0x00,0xaf,0xff,0xb8,0xff, // 4128
0xfa,0xff,0x7e,0xfe,0xf3,0xff,0xc4,0xff, 0x8b,0xfe,0xdc,0xff,0x01,0x00,0xfc,0x00, // 4144
0xc8,0xfe,0xa8,0xff,0x0f,0x01,0x3e,0xff, 0x59,0xff,0x9f,0xff,0x78,0x00,0xa1,0x01, // 4160
0xcf,0xfe,0xa0,0x00,0x4d,0x01,0xa1,0x02, 0xa3,0xfe,0x5e,0x00,0x6c,0x00,0x22,0xff, // 4176
0x95,0x00,0xaf,0xfc,0xf4,0x01,0x55,0x00, 0x9f,0x00,0x31,0xff,0x62,0xff,0x16,0xff, // 4192
0x4a,0x00,0x61,0xff,0x40,0x01,0xec,0x00, 0xe2,0xff,0x8a,0xfb,0x5f,0x00,0x81,0xfa, // 4208
0xe7,0x03,0xc9,0xff,0x5b,0x00,0x02,0x05, 0x3e,0x01,0x87,0xff,0x93,0x00,0x2e,0xff, // 4224
0x1b,0x00,0x25,0x00,0x60,0x00,0xc9,0xff, 0x64,0x01,0xb1,0x01,0x74,0x00,0x78,0xfe, // 4240
0xc4,0xff,0x6a,0xff,0x87,0x00,0x75,0x01, 0xd2,0xff,0xdf,0xff,0x27,0x00,0x39,0x02, // 4256
0x2b,0x01,0x50,0xff,0x7b,0xfe,0x33,0xff, 0x67,0xff,0xa5,0x00,0xf4,0xfe,0xde,0xff, // 4272
0x74,0xff,0x74,0xff,0xc6,0xff,0xf7,0x00, 0x51,0xff,0x38,0xff,0xea,0x00,0x5d,0xff, // 4288
0xd7,0x00,0x12,0x00,0x9b,0x00,0x8e,0xff, 0x32,0x00,0x1c,0x00,0x3a,0x00,0xf4,0xff, // 4304
0x64,0x00,0xa6,0x02,0x96,0xff,0xbf,0xfe, 0xca,0x01,0x07,0x01,0x30,0xff,0x55,0x00, // 4320
0xa0,0x02,0x03,0xff,0xaf,0xff,0xca,0xff, 0x96,0x00,0x04,0x00,0xe9,0xfe,0x7f,0xff, // 4336
0x2e,0x01,0xc2,0xff,0x86,0xff,0x2d,0x00, 0xb3,0x00,0x0d,0xff,0xc1,0xff,0x1c,0xff, // 4352
0x0f,0x01,0x60,0x00,0xa1,0xff,0xc4,0x00, 0x09,0x01,0xb8,0x00,0x5b,0x02,0x08,0x00, // 4368
0x0e,0xff,0x2c,0xff,0xda,0xff,0x9b,0x00, 0xf7,0xfe,0xf2,0x00,0x73,0x00,0x19,0xff, // 4384
0x98,0x03,0xce,0x01,0xdb,0x00,0x53,0x00, 0x11,0x00,0xea,0xff,0xf8,0x00,0xbf,0xfe, // 4400
0x3b,0x00,0x38,0xff,0x78,0xff,0x6d,0xfe, 0x78,0x01,0x4d,0xff,0xae,0xff,0x05,0x01, // 4416
0x44,0xff,0x3f,0xff,0x62,0x01,0xa7,0xfe, 0x89,0xff,0xeb,0xff,0xad,0x01,0x40,0x01, // 4432
0x93,0xff,0xb9,0x00,0x29,0x00,0xcf,0xff, 0xdd,0xfe,0x03,0xfd,0x31,0xfe,0xee,0xff, // 4448
0x73,0xff,0x07,0xfe,0x1c,0x01,0xe0,0x00, 0x68,0x03,0x3d,0x00,0xec,0xff,0xfe,0xfe, // 4464
0xb8,0xfe,0xc4,0xff,0xfa,0xfd,0xec,0xfe, 0xa4,0xfe,0xee,0xff,0x3e,0x00,0xb3,0xfe, // 4480
0xbf,0xff,0x8b,0xff,0x14,0xff,0xd8,0xff, 0x91,0xff,0xea,0x00,0x79,0x00,0x15,0x00, // 4496
0xbf,0xff,0xf1,0x00,0xfc,0xfb,0xb2,0xfe, 0x1f,0xff,0x64,0x01,0x5d,0xff,0xf4,0x00, // 4512
0x2b,0x00,0xa6,0xfa,0x7a,0xfd,0x8b,0x00, 0xd2,0x04,0x56,0x06,0x2c,0x00,0x43,0x00, // 4528
0xfd,0xfd,0xe7,0x00,0x76,0xff,0x6f,0x00, 0xdb,0xfe,0x33,0x02,0x3a,0x04,0xf2,0xff, // 4544
0xf9,0xff,0x01,0xfa,0x58,0xff,0xce,0xff, 0x4e,0xfe,0xb0,0xfe,0x46,0x00,0x5c,0xfb, // 4560
0x71,0x01,0x31,0x02,0x5d,0xff,0x22,0xfe, 0x7f,0x00,0x3c,0x00,0x37,0xfe,0x9c,0x01, // 4576
0xea,0xfc,0x9b,0x01,0xd5,0x01,0x36,0xff, 0x8a,0xf6,0x4b,0x00,0x31,0x00,0x98,0xff, // 4592
0xe4,0xff,0xf1,0xff,0xaf,0xfc,0xd9,0xfd, 0xa4,0x00,0xc4,0x00,0x27,0x01,0xc0,0x01, // 4608
0xa8,0xff,0xca,0xff,0x33,0x01,0x41,0x02, 0x4b,0xff,0xb9,0xff,0x16,0xfe,0x6f,0xff, // 4624
0xdc,0xfd,0x55,0x01,0xff,0xfd,0xe0,0xff, 0x0e,0xfc,0xa3,0xff,0xbd,0xfd,0x09,0xfe, // 4640
0x0f,0xff,0x5e,0x03,0xb0,0xff,0x29,0x00, 0x1d,0x02,0x8b,0x01,0x42,0x00,0x20,0x00, // 4656
0xba,0xff,0xe1,0xf5,0xe1,0xfe,0xdc,0x00, 0x19,0xff,0x61,0xfe,0xcd,0xff,0xd6,0xff, // 4672
0xf0,0xff,0xe3,0xff,0x57,0xff,0xb9,0xff, 0x54,0x03,0x78,0xff,0xa0,0xff,0x7c,0x00, // 4688
0x01,0x00,0xa2,0x03,0xd9,0xfd,0xee,0xfd, 0x6d,0x03,0x2b,0x00,0x04,0x00,0x94,0x00, // 4704
0x4c,0x04,0xf0,0xfe,0x7e,0xff,0x99,0xff, 0x52,0x02,0x8d,0xff,0xca,0xff,0x96,0xfd, // 4720
0x8e,0xff,0x66,0xff,0x74,0xff,0x39,0xff, 0x07,0x04,0xf7,0xff,0x0a,0x01,0x08,0x00, // 4736
0x60,0x00,0xd1,0x00,0xa5,0xfe,0x82,0x01, 0xaf,0x00,0xaf,0x00,0xee,0xff,0x95,0xff, // 4752
0x6c,0xff,0xe0,0xff,0x93,0xfd,0xa2,0x00, 0x2c,0x02,0x88,0x05,0x25,0xff,0x4c,0x02, // 4768
0x1f,0xfe,0x29,0xff,0xe4,0x00,0x15,0xfe, 0x5e,0xff,0x5f,0xff,0x10,0xff,0x2f,0x04, // 4784
0xca,0xff,0x16,0x00,0x9f,0xff,0x16,0x00, 0x28,0x00,0xc1,0x00,0x3a,0x03,0x85,0x00, // 4800
0xf1,0xfd,0x2d,0xfe,0xfe,0xff,0x3e,0x00, 0x1c,0x04,0x50,0x02,0xf2,0xff,0x04,0xfe, // 4816
0xfd,0x00,0x3d,0x02,0xa1,0x01,0x21,0x00, 0x13,0x00,0xef,0xfe,0x99,0x00,0xc1,0x01, // 4832
0xd2,0x01,0x60,0x02,0x5c,0x00,0x0b,0x00, 0x65,0x00,0x3a,0x00,0x6e,0x01,0x8c,0x01, // 4848
0x3c,0xff,0x46,0xff,0xa2,0xfb,0xb7,0x00, 0xfe,0x00,0x0b,0xfe,0x93,0xfa,0x90,0xfd, // 4864
0x77,0x01,0x44,0xff,0x8f,0x00,0x1f,0x00, 0x77,0xff,0xfe,0xff,0xea,0x02,0xa8,0xff, // 4880
0x92,0xff,0x09,0x01,0x94,0xfe,0x87,0xfe, 0x2a,0xff,0x01,0xfe,0x58,0xff,0xe8,0x01, // 4896
0xcb,0x00,0x5a,0xff,0x96,0x02,0x13,0xff, 0x31,0x02,0xa4,0x00,0xcc,0x01,0xc8,0xff, // 4912
0xce,0xff,0x7c,0xff,0x13,0x07,0xab,0xff, 0x63,0x00,0x14,0x01,0x4f,0xff,0x25,0xff, // 4928
0x06,0x00,0xb4,0x00,0x0a,0xfe,0x20,0xfe, 0x92,0x00,0x5d,0x02,0x4c,0xff,0x55,0xff, // 4944
0x0e,0xff,0x9a,0xff,0x49,0xff,0x84,0xfe, 0x1f,0xfe,0x5b,0x00,0x2c,0xff,0x23,0x00, // 4960
0xf0,0xfd,0x19,0x00,0x08,0x00,0x78,0xff, 0xa8,0xff,0x74,0xff,0x2c,0xff,0xbc,0xfe, // 4976
0x67,0xff,0xdc,0xff,0xd7,0xff,0x57,0x02, 0x05,0xfd,0xef,0xfe,0x37,0x00,0x3c,0xff, // 4992
0xbb,0xfe,0x79,0xff,0x63,0xff,0x02,0x02, 0xbb,0xff,0x81,0x00,0x90,0x02,0x83,0x01, // 5008
0xe3,0xfe,0x9b,0x00,0x71,0x01,0xa2,0xff, 0xf0,0xff,0x32,0xfe,0x52,0x03,0x26,0x01, // 5024
0x00,0x01,0x9c,0xff,0x61,0xff,0x69,0xff, 0x34,0x00,0xf2,0x00,0xc0,0x01,0xeb,0x00, // 5040
0x6a,0xff,0x42,0xfc,0x31,0x01,0x76,0xfb, 0x96,0x05,0x7d,0xff,0x94,0x00,0x91,0x04, // 5056
0x07,0x00,0x25,0xff,0x0a,0x00,0xb9,0x01, 0x98,0xff,0xf7,0xff,0x44,0xff,0xab,0xfe, // 5072
0x88,0xff,0x6d,0xff,0x8b,0xff,0x3f,0xff, 0xa5,0x00,0xf5,0xff,0x68,0xff,0x38,0xff, // 5088
0x31,0x00,0x45,0xff,0x1a,0xfe,0x7f,0x00, 0x63,0xff,0xb1,0x00,0x5a,0xfe,0xd8,0xff, // 5104
0x94,0x01,0x3e,0x01,0xbb,0xfe,0x08,0x00, 0xa4,0x00,0xed,0xff,0xf4,0xff,0x13,0x01, // 5120
0x85,0xff,0x25,0xff,0x40,0x00,0x0a,0x01, 0xca,0xff,0xdb,0xfd,0x6c,0x00,0xd5,0xff, // 5136
0xa8,0xff,0xcc,0xff,0x5d,0x00,0xd6,0x00, 0x2e,0x01,0x46,0xff,0x2d,0x00,0x7a,0x00, // 5152
0x58,0x00,0x05,0x01,0x14,0x01,0x6c,0xff, 0x43,0x00,0xd2,0xff,0xaf,0x00,0xca,0xff, // 5168
0xb8,0xff,0x05,0x00,0x39,0xff,0xf3,0xff, 0x60,0x00,0x03,0x00,0x58,0x00,0x2a,0x00, // 5184
0xa2,0xff,0x04,0x00,0x3f,0x00,0x76,0x00, 0x98,0x00,0x65,0xfe,0x29,0x00,0x32,0x00, // 5200
0xe5,0xff,0x83,0xff,0x73,0x00,0xc6,0xfe, 0x36,0x00,0x71,0x00,0xd6,0x00,0xff,0x00, // 5216
0x76,0x00,0xd4,0xff,0xf9,0xff,0x9e,0xff, 0x8d,0x00,0xc5,0xff,0xc6,0xfe,0xa8,0xff, // 5232
0x7d,0x00,0x93,0xfe,0xe7,0xff,0x28,0x01, 0x1b,0x00,0x00,0x00,0x1e,0x01,0x15,0x00, // 5248
0x49,0x00,0xe4,0xff,0xf9,0xff,0x3d,0x00, 0x84,0xff,0x6b,0x01,0xd2,0xfe,0xeb,0xff, // 5264
0x5b,0x00,0xbd,0xff,0xbf,0x00,0x50,0x00, 0x19,0x00,0xdc,0xff,0xa3,0xfe,0x8b,0xff, // 5280
0xe8,0xfe,0x3d,0x00,0x93,0xff,0x1d,0xff, 0xe6,0xff,0x23,0x00,0x65,0x00,0x40,0x00, // 5296
0xeb,0xff,0xba,0x00,0xef,0xfe,0xed,0xff, 0x37,0x00,0x71,0xff,0x64,0xff,0xb9,0xfe, // 5312
0xe1,0x00,0xf3,0xff,0x1e,0x01,0xd4,0xff, 0xef,0xff,0xeb,0xff,0x4f,0x01,0x76,0x00, // 5328
0x44,0x00,0xeb,0xff,0xda,0x00,0xee,0xff, 0x24,0x00,0x7a,0x00,0x21,0x00,0x6f,0x00, // 5344
0x8d,0x01,0x64,0xff,0xf0,0xfe,0x53,0xff, 0x02,0xff,0x3c,0x00,0x54,0x00,0x82,0x01, // 5360
0x6b,0x00,0xae,0x02,0x8e,0xff,0x10,0xff, 0x19,0xff,0x05,0xfe,0x2d,0xff,0x1d,0x00, // 5376
0x34,0xfc,0x93,0xfd,0x58,0xff,0xc8,0xff, 0xe6,0xff,0x11,0x03,0x88,0x00,0x48,0xfc, // 5392
0x26,0x00,0xf1,0xfd,0xeb,0xff,0xc3,0x01, 0x72,0xff,0x46,0x00,0x97,0xfe,0x64,0xfb, // 5408
0xa1,0xff,0x80,0x00,0xda,0x02,0x3d,0x00, 0xd1,0xff,0x57,0x00,0xb8,0x00,0xdf,0x01, // 5424
0xc5,0x00,0x7d,0xff,0xaa,0xff,0x3c,0x00, 0x9c,0xfe,0x8e,0xfd,0x55,0xff,0xcd,0x00, // 5440
0x21,0xfd,0xe0,0xff,0x9e,0x06,0x0b,0x00, 0x8a,0xff,0x16,0xff,0xc3,0xff,0xbd,0xfc, // 5456
0xac,0xfd,0x3a,0x03,0xb4,0xff,0xfe,0xff, 0x52,0xfc,0x22,0xfe,0xe3,0xff,0xd6,0x00, // 5472
0x85,0xff,0xbc,0xff,0x69,0xfe,0x4f,0x00, 0x56,0x00,0x6b,0xfc,0x07,0xfe,0x4d,0x01, // 5488
0x10,0x00,0x0b,0xff,0xb7,0x01,0x97,0x01, 0xb6,0xfe,0x7a,0x00,0x9c,0x00,0xfa,0x01, // 5504
0x67,0xff,0xbc,0xff,0x55,0x00,0x54,0xff, 0x0a,0x01,0x54,0x00,0x07,0x00,0x82,0x00, // 5520
0x41,0x00,0x35,0x01,0x5d,0x00,0x51,0x00, 0x93,0xfe,0x1e,0xff,0x2e,0x05,0x26,0x00, // 5536
0x6a,0x00,0xd2,0x00,0x48,0xff,0x66,0xff, 0xd5,0x02,0x4a,0x03,0xdc,0xfd,0x7c,0xfe, // 5552
0x1b,0x00,0x91,0xff,0x3e,0x00,0x19,0xfd, 0xdf,0x00,0x4c,0x02,0x3e,0xff,0x50,0xff, // 5568
0xde,0xff,0x3c,0x01,0x19,0xfb,0x2d,0x00, 0x11,0xfd,0x8f,0x00,0xf2,0xfe,0x37,0x00, // 5584
0xa2,0x00,0x19,0x01,0x93,0x03,0x18,0x01, 0xa3,0x00,0x21,0xfe,0xb8,0xfb,0xd1,0xff, // 5600
0x20,0x00,0xcf,0x02,0x9a,0xfd,0xfc,0xff, 0xf8,0xfd,0x85,0xfe,0xac,0xfd,0xa9,0xff, // 5616
0xd1,0xff,0xa5,0xff,0x1f,0x02,0xed,0xfd, 0x1c,0x00,0x76,0xff,0x19,0x00,0x5e,0x03, // 5632
0x96,0x00,0xa6,0xff,0x8d,0x00,0x5d,0x00, 0x7e,0x00,0xc5,0x01,0x32,0x00,0xa5,0x00, // 5648
0x95,0x02,0x83,0x04,0x56,0x01,0xf0,0xff, 0xe7,0xff,0x0a,0x02,0xfd,0x00,0x6b,0xff, // 5664
0xbe,0xff,0x1e,0xfe,0x75,0x00,0xc4,0x00, 0xec,0xfe,0x5c,0x00,0xc5,0xff,0x18,0xff, // 5680
0x4d,0x00,0x5a,0x00,0x98,0x00,0xae,0xff, 0xef,0x00,0x80,0x00,0xe5,0xfd,0xea,0xff, // 5696
0x71,0x00,0x9a,0xfe,0xc9,0xfb,0xcc,0xfd, 0x88,0xfd,0xcc,0x00,0x0f,0x00,0x75,0xff, // 5712
0x6e,0x00,0xf2,0xff,0x60,0xfe,0x89,0xff, 0x09,0x01,0x38,0x00,0xe5,0xff,0xc3,0xfd, // 5728
0x19,0x00,0xf3,0xff,0xe9,0xff,0xaf,0x01, 0xe3,0x00,0xb2,0xfe,0x49,0x01,0x91,0x00, // 5744
0x7a,0xff,0x11,0x00,0x13,0x02,0xd6,0xff, 0x46,0xff,0xa7,0x00,0x10,0x00,0x36,0x00, // 5760
0xe8,0xff,0x1c,0x03,0x4f,0x00,0x99,0x00, 0x82,0x00,0xb7,0x00,0x06,0xfe,0xd7,0xfd, // 5776
0x51,0xff,0x0d,0xff,0xbc,0xff,0x36,0x00, 0x22,0xff,0xa6,0xff,0x71,0xff,0x7e,0x00, // 5792
0x35,0xfc,0xcc,0x00,0x2e,0xff,0xef,0xff, 0x3b,0xff,0x71,0xff,0xce,0xff,0x14,0x00, // 5808
0x1b,0x00,0xbc,0xff,0x1b,0xfb,0x08,0xff, 0xa3,0xff,0x8e,0xff,0x71,0x00,0xc1,0x00, // 5824
0xa9,0x00,0x50,0x00,0x25,0x00,0x48,0x00, 0x17,0x00,0x5a,0x00,0x24,0x01,0xd9,0xfe, // 5840
0x01,0x00,0x8d,0xfe,0x9f,0xff,0x2f,0x00, 0xe6,0xfe,0x4d,0xff,0x7a,0x01,0xb4,0xff, // 5856
0x53,0x01,0x19,0x00,0x17,0x05,0xc4,0x00, 0x43,0xff,0x5e,0x01,0x7d,0xff,0xd3,0xff, // 5872
0xdf,0xff,0xec,0x00,0x46,0xff,0x0a,0x00, 0x18,0x00,0x1d,0x01,0x0f,0x00,0xb0,0xff, // 5888
0xe8,0xfe,0x16,0x00,0xf1,0x00,0x8b,0x02, 0x6f,0xff,0xe7,0xff,0x88,0xfe,0xbb,0x02, // 5904
0xa7,0xff,0xc7,0x00,0xa2,0xff,0x47,0x00, 0x2a,0x00,0xe2,0xff,0x7d,0x00,0xf2,0xff, // 5920
0xec,0x00,0xf0,0xfe,0xdb,0xff,0xa0,0x00, 0xfa,0xff,0x19,0xfa,0xaa,0x00,0x21,0x00, // 5936
0xd4,0xff,0x29,0x00,0x7c,0xfd,0x40,0x00, 0x18,0x00,0xd8,0x00,0x25,0x00,0x3e,0xfd, // 5952
0xe6,0xfe,0x3a,0xff,0x08,0x00,0x50,0x00, 0xab,0xfe,0x10,0xfe,0x90,0x00,0x49,0x00, // 5968
0xf6,0x01,0x8d,0x00,0x94,0xff,0x06,0xfe, 0x74,0xff,0x29,0x00,0x58,0x01,0xae,0x05, // 5984
0x1d,0x02,0x74,0x00,0x8d,0x00,0xce,0xff, 0x0b,0x01,0xc7,0x00,0x0f,0xfd,0xb0,0x01, // 6000
0x9a,0x00,0x4d,0x00,0x87,0xff,0x94,0x00, 0x78,0x01,0xaf,0x01,0x45,0xfe,0x48,0x00, // 6016
0xe0,0xff,0xd2,0xff,0x2a,0x00,0xb3,0x02, 0xd3,0xff,0x48,0xff,0x22,0x00,0xbd,0xff, // 6032
0x07,0x04,0xde,0xff,0xf5,0xfc,0x7e,0xff, 0x2c,0x01,0xca,0xff,0xaa,0x00,0xfa,0xff, // 6048
0x73,0x00,0xae,0xfe,0x0a,0x05,0x1f,0x04, 0xa2,0xfe,0x4b,0x01,0x68,0x01,0xbd,0xff, // 6064
0x52,0x00,0x42,0x02,0xd7,0xff,0x03,0x02, 0xef,0x03,0x5d,0xff,0xb4,0xff,0xb3,0xff, // 6080
0x32,0xff,0xac,0xff,0x1c,0x00,0xef,0xfd, 0xd4,0xfe,0xe2,0x00,0x53,0xff,0xaa,0x00, // 6096
0xb3,0x00,0xdc,0xff,0x87,0x00,0x6f,0x00, 0xb9,0xff,0x73,0x00,0x8c,0x00,0x24,0x01, // 6112
0xa1,0x00,0x2b,0x03,0xad,0x00,0xf1,0xff, 0x06,0x00,0x66,0xff,0x97,0xff,0x10,0x00, // 6128
0xb5,0xff,0x9d,0xff,0xcb,0xff,0x95,0xff, 0xc9,0x00,0x1c,0x00,0x21,0xfd,0x80,0xfd, // 6144
0x5d,0xfd,0xc6,0x01,0x4b,0x00,0x0d,0x01, 0x1f,0xff,0xfb,0xff,0x54,0x00,0x99,0xfe, // 6160
0xa1,0xfe,0xee,0xff,0x64,0xff,0x12,0x00, 0x98,0xfd,0xc2,0x01,0x2b,0x00,0xfe,0xff, // 6176
0x27,0x00,0xae,0x01,0x6b,0xff,0x3a,0xff, 0xa8,0xff,0x80,0x00,0x2e,0x01,0x22,0x01, // 6192
0xf5,0xfc,0x50,0x00,0xdc,0xff,0x0d,0x00, 0xe9,0xff,0x72,0xff,0xc9,0xfc,0x48,0xfd, // 6208
0x14,0x00,0x2f,0x00,0x1e,0x00,0x89,0xff, 0xa7,0x00,0x42,0x00,0x4a,0x00,0x0e,0x00, // 6224
0xb9,0x01,0x1e,0xff,0x28,0x01,0x2c,0x00, 0xe7,0xff,0x42,0x00,0xc5,0xff,0x30,0x00, // 6240
0x6e,0xff,0xda,0x00,0x57,0xff,0xca,0x00, 0x33,0xff,0xf9,0xfe,0x28,0xff,0x45,0xff, // 6256
0x32,0x00,0x09,0x00,0xeb,0xff,0x0a,0x00, 0x98,0xff,0x80,0xff,0xba,0xff,0x20,0x03, // 6272
0x2d,0xff,0xeb,0xfe,0x6f,0xff,0x6a,0x00, 0xaa,0xfd,0xc5,0xff,0x28,0xff,0x51,0x00, // 6288
0xa1,0x00,0xc0,0x00,0x4c,0x01,0xe2,0xff, 0x82,0xff,0xbd,0xff,0x2d,0x00,0xfa,0xff, // 6304
0xf8,0xff,0x33,0x00,0x09,0x00,0xa9,0x03, 0x1d,0x00,0xf0,0xff,0x03,0x00,0x06,0x00, // 6320
0x0a,0x00,0xb3,0xff,0x65,0xff,0x91,0xff, 0x07,0x00,0x4a,0x00,0xcf,0xff,0xbc,0xff, // 6336
0xf5,0xff,0x66,0x00,0xa1,0x00,0x88,0xff, 0x32,0xff,0xe9,0xff,0x3f,0x00,0xf1,0xff, // 6352
0xf9,0xff,0x92,0x00,0xd4,0xff,0xd2,0x02, 0x19,0x00,0x3a,0x01,0x59,0x02,0x23,0x01, // 6368
0x00,0x00,0xc3,0xff,0x9c,0xff,0x79,0x00, 0x9e,0xff,0xe8,0x03,0x17,0xfc,0xa4,0x00, // 6384
0xb8,0xff,0x6c,0xff,0xa7,0xff,0x0c,0x00, 0x22,0x00,0x75,0x00,0xb9,0xff,0x4a,0x00, // 6400
0x3e,0x01,0x33,0x01,0x88,0x00,0x1d,0x00, 0xe1,0xff,0x00,0x01,0xd3,0x00,0xe8,0xff, // 6416
0xb8,0xff,0x1c,0x00,0x1c,0x00,0xb2,0xff, 0x59,0xff,0x0f,0x00,0xfb,0xff,0x85,0x00, // 6432
0x23,0x02,0xd2,0xff,0xa3,0x00,0x52,0xff, 0x1b,0x01,0x63,0xff,0x28,0x00,0x2f,0x00, // 6448
0xe1,0xff,0x8a,0x00,0x78,0xff,0xfe,0xff, 0xfd,0xff,0xf2,0xff,0xa3,0x01,0xc8,0x00, // 6464
0xb9,0x02,0x17,0xfd,0x01,0x01,0x2b,0x00, 0x31,0x00,0x2c,0x00,0xc1,0xff,0xf6,0xff, // 6480
0x2f,0x00,0x7e,0x03,0x45,0x00,0x97,0x00, 0x0b,0x01,0xd4,0x01,0x25,0x00,0x1e,0x00, // 6496
0xdc,0xfe,0xff,0xff,0x78,0x00,0x03,0xfd, 0xc8,0xff,0xfb,0xff,0x78,0xff,0x45,0x00, // 6512
0xe0,0xff,0x93,0xff,0x6e,0xfe,0xab,0xff, 0x09,0x00,0x79,0x00,0xe9,0xfe,0x30,0xff, // 6528
0x0a,0x00,0x10,0x00,0xb5,0x00,0x24,0x00, 0x2b,0x00,0xaf,0xfe,0x28,0xfe,0x60,0xfe, // 6544
0x3a,0xfe,0xbe,0x00,0xca,0xfe,0xbd,0xff, 0xf5,0xff,0xa3,0x00,0x7b,0xff,0x0a,0x00, // 6560
0x24,0x00,0x02,0xff,0xfd,0x00,0x12,0xff, 0xed,0xff,0x4b,0x00,0x72,0x00,0xd6,0xff, // 6576
0xac,0xff,0x90,0x00,0x16,0x02,0x09,0x00, 0xe0,0xfd,0x5c,0x00,0xfb,0xff,0x92,0xff, // 6592
0x07,0xff,0xb0,0xff,0x32,0x00,0xcf,0xff, 0xe4,0xff,0xe1,0xff,0x16,0x00,0x01,0x00, // 6608
0x5b,0x00,0x23,0x00,0x98,0xff,0x0b,0xff, 0xf7,0xff,0xde,0xff,0xe9,0xff,0xe5,0xff, // 6624
0xb0,0xff,0x42,0x00,0xaf,0xff,0x0f,0x00, 0xb0,0xfd,0xe9,0xff,0x7b,0x00,0xbb,0xff, // 6640
0x3d,0x00,0xff,0xff,0xd7,0xff,0xdf,0xff, 0xf3,0xff,0x39,0x00,0xc0,0xff,0xe3,0xff, // 6656
0xef,0xff,0xe5,0xff,0x40,0x00,0x80,0xff, 0xda,0x01,0x04,0x00,0x28,0x00,0xf4,0xff, // 6672
0x12,0x00,0xfb,0xff,0xf1,0xff,0xd9,0xfd, 0x1f,0x00,0xc6,0xff,0xb8,0xff,0x34,0xff, // 6688
0xd0,0xff,0xf0,0xff,0x43,0xff,0xf5,0x00, 0x65,0x00,0x59,0x00,0x53,0x02,0x30,0x00, // 6704
0x6c,0x00,0x3d,0x00,0x64,0x00,0xb1,0xff, 0xd3,0xff,0xbe,0xff,0x1e,0xff,0x70,0x00, // 6720
0x4c,0x00,0x8e,0x01,0xc2,0xff,0x1a,0x00, 0x9a,0xff,0x32,0x00,0x0f,0x00,0x25,0x00, // 6736
0x29,0xfc,0xb2,0xff,0x45,0xff,0x2c,0x00, 0xc2,0xff,0x4b,0x00,0xec,0xff,0x61,0x00, // 6752
0x4c,0x00,0x68,0xff,0x35,0x00,0x66,0xff, 0x27,0x00,0x6c,0x00,0x61,0x00,0xdd,0xff, // 6768
0xa3,0x00,0xec,0xfe,0xac,0xff,0x3c,0xff, 0xe9,0xff,0xfb,0x00,0xd4,0xff,0x90,0x00, // 6784
0x19,0x00,0x22,0x01,0x0c,0x00,0xfe,0xff, 0xdd,0xff,0xab,0xff,0x8c,0x00,0xdf,0xff, // 6800
0xf6,0xff,0x7f,0xff,0x1c,0x00,0x72,0x00, 0xb4,0xff,0x31,0x00,0x83,0xff,0x7b,0x00, // 6816
0xf4,0xfe,0x04,0xff,0x05,0x00,0xe8,0x00, 0x3e,0xff,0xc0,0xff,0xa1,0x01,0xc4,0xff, // 6832
0x82,0x00,0xd3,0xff,0xcd,0x00,0x51,0x00, 0x3a,0x00,0x1a,0x01,0x6c,0x00,0x36,0x00, // 6848
0xbc,0xff,0xf2,0xff,0xcf,0xff,0x5e,0x01, 0x2e,0x00,0x63,0xff,0xb0,0x00,0xf0,0xff, // 6864
0x2d,0x00,0x6a,0x00,0x50,0x00,0xfd,0xff, 0xec,0xff,0x26,0x00,0x90,0x00,0x58,0xfc, // 6880
0x88,0xff,0xc8,0xff,0x69,0x00,0xf0,0xff, 0xcd,0x01,0xea,0xff,0xa4,0x00,0x19,0x00, // 6896
0x1c,0x01,0xbb,0xff,0x83,0xff,0x7f,0xff, 0x3a,0xfe,0xa7,0xfe,0x87,0xff,0x3b,0xff, // 6912
0xc2,0x00,0x6b,0x00,0x7f,0xfb,0xac,0xff, 0xc2,0xff,0x1b,0x00,0x66,0xff,0x0a,0x00, // 6928
0xa7,0xff,0xca,0x00,0xa1,0x01,0x00,0x00, 0xec,0x01,0xbb,0xff,0x57,0x00,0x55,0x00, // 6944
0xea,0x00,0x2f,0x00,0x92,0x00,0x50,0x00, 0x45,0x01,0x22,0x00,0x53,0x00,0xa9,0xff, // 6960
0xea,0xff,0x42,0xff,0x63,0x01,0x16,0x00, 0x02,0x00,0x74,0xff,0xf5,0xff,0x2e,0xfe, // 6976
0x7c,0xfe,0x05,0x00,0x25,0x00,0xae,0xff, 0x4e,0x01,0x08,0x00,0xf6,0xff,0x2c,0x00, // 6992
0xf0,0xff,0x96,0x00,0xbc,0xfe,0x20,0x01, 0x43,0x00,0x70,0x00,0xa9,0x00,0x4b,0xff, // 7008
0x16,0x00,0x34,0xff,0x8f,0x00,0x80,0x00, 0x49,0x02,0xd8,0xff,0x67,0x00,0x96,0x00, // 7024
0xbf,0xff,0x8a,0x00,0x17,0x00,0xed,0xfe, 0xdf,0xff,0xca,0xff,0xb5,0xff,0x5b,0xff, // 7040
0x18,0x00,0x7d,0x05,0x38,0x00,0x8f,0xff, 0xed,0x00,0xcc,0x03,0xa5,0xfe,0xa7,0x00, // 7056
0xc4,0xff,0xf8,0x00,0x52,0x00,0x1f,0xff, 0xc7,0xff,0xf2,0xff,0xf3,0xfd,0x42,0x01, // 7072
0x6e,0x00,0xe6,0xff,0xfc,0xfe,0xf2,0xff, 0xce,0xff,0x74,0x00,0x12,0xff,0xa0,0x00, // 7088
0x48,0x00,0xfb,0xff,0x5e,0xff,0xb4,0x00, 0x60,0x00,0xb7,0xfe,0xcf,0xfd,0x43,0xfc, // 7104
0xe1,0xfb,0xd7,0xff,0xe8,0xfe,0x56,0x00, 0x27,0x01,0x01,0x00,0x08,0x00,0x30,0x00, // 7120
0xd1,0x00,0x4c,0xff,0xa5,0xff,0x6c,0xff, 0xbc,0xff,0x23,0x00,0x26,0x00,0x16,0x01, // 7136
0x8d,0x00,0x44,0xff,0x62,0x01,0xae,0xff, 0x47,0xfe,0x0f,0x00,0x4f,0x00,0xbd,0xff, // 7152
0xbf,0xfe,0x73,0xfe,0xe1,0x00,0xe1,0x00, 0xe3,0xff,0x13,0x00,0x7e,0x00,0x46,0xff, // 7168
0xf8,0xff,0x89,0xff,0x6e,0xfc,0x03,0xfd, 0x21,0x01,0xf0,0xfe,0x8e,0xff,0x24,0x00, // 7184
0xe1,0xff,0x59,0xff,0x45,0x00,0x03,0xff, 0xac,0xfb,0x01,0xff,0x59,0x01,0x0b,0x00, // 7200
0x95,0x00,0x38,0xfe,0xbf,0xff,0xaa,0xff, 0x3f,0x00,0xab,0xff,0x3a,0xfe,0xf8,0xff, // 7216
0x9b,0xff,0xcc,0xff,0x5a,0x00,0x1d,0x00, 0xbf,0x02,0xfa,0xfe,0x7c,0x00,0x32,0x00, // 7232
0x12,0x00,0x18,0x00,0x8e,0xff,0x09,0xfe, 0x73,0xff,0x11,0xff,0xae,0xff,0xd4,0xfe, // 7248
0x69,0x00,0xb5,0xfe,0x11,0x00,0xa2,0x00, 0x4b,0x00,0x5e,0x02,0xdb,0x02,0xb2,0xff, // 7264
0x51,0x00,0xab,0xff,0x08,0xff,0x1e,0x00, 0x01,0xff,0x4f,0x01,0xdc,0x00,0x3e,0x00, // 7280
0x1a,0x01,0x59,0x01,0x79,0x00,0xc7,0xff, 0x45,0x00,0x4a,0x00,0x05,0x02,0xc3,0x01, // 7296
0x22,0xfd,0xc3,0xff,0x5e,0xff,0x31,0x01, 0xf7,0xff,0xf8,0xff,0xc7,0xff,0x14,0xfe, // 7312
0x18,0x00,0xca,0x00,0xc2,0x01,0xf8,0xf6, 0x7c,0xff,0x43,0xfb,0x48,0x00,0xa7,0x00, // 7328
0x6e,0x00,0x53,0x00,0x7f,0x00,0x33,0xff, 0x0e,0x01,0xa6,0xff,0x7e,0xfd,0x65,0x00, // 7344
0x33,0x00,0xe8,0x01,0x97,0xff,0x52,0x00, 0xda,0x00,0x4f,0x00,0x97,0x00,0xe0,0x00, // 7360
0xe2,0xfd,0x52,0xfb,0x15,0x05,0xf4,0x00, 0xf5,0x00,0xae,0xfe,0xeb,0xff,0x84,0xfa, // 7376
0x4e,0x00,0x22,0xff,0x62,0xff,0x53,0x00, 0x72,0x05,0xcd,0x00,0x74,0x00,0x48,0xff, // 7392
0xe8,0x00,0x16,0x00,0xe6,0x00,0x14,0x02, 0xbe,0x00,0x79,0x00,0x91,0xfe,0xd0,0xff, // 7408
0x7d,0x03,0x57,0x01,0x4c,0xfb,0x57,0x00, 0xe0,0x03,0xe8,0xfc,0x19,0x01,0x4c,0x03, // 7424
0x73,0x03,0x94,0xfe,0x90,0x01,0xcf,0xff, 0x60,0x04,0x2c,0x00,0xc3,0x00,0x92,0xff, // 7440
0xb0,0x01,0x0a,0xff,0x66,0x01,0x64,0xfe, 0x17,0x00,0x5c,0xfc,0x38,0x00,0x30,0x00, // 7456
0x05,0x00,0xd2,0x02,0xeb,0x03,0x7a,0xf8, 0x5b,0x00,0x61,0x03,0x16,0x02,0xa0,0x01, // 7472
0xa7,0x00,0x21,0x00,0xd4,0xff,0x7f,0xff, 0xa8,0xfe,0x54,0xff,0xa1,0xff,0x0c,0xfc, // 7488
0x41,0x00,0x98,0xff,0x34,0xff,0xc5,0x01, 0xe9,0xff,0xf7,0xff,0x42,0x00,0xa3,0x00, // 7504
0x85,0xfa,0xab,0x00,0x47,0x0a,0xf0,0x04, 0x6e,0xff,0xd5,0x02,0x49,0xff,0x41,0x03, // 7520
0x5e,0xfe,0xe4,0xfe,0xcd,0x00,0x03,0x01, 0xf3,0xfe,0xe9,0xfe,0xf5,0x01,0x18,0x00, // 7536
0xcd,0x00,0x01,0xfe,0x78,0x00,0x7a,0xfb, 0x6e,0xfd,0x25,0x00,0x2d,0xfd,0xed,0xfe, // 7552
0x39,0xff,0x2b,0x04,0xa3,0x00,0xaa,0xfe, 0x2b,0xfb,0x12,0xfd,0x51,0x00,0xde,0xfd, // 7568
0xa2,0x01,0x6b,0x03,0x47,0x03,0xb9,0x01, 0x7a,0x00,0xe5,0x02,0x7e,0xff,0x84,0xfe, // 7584
0x39,0x00,0x62,0x00,0x7b,0xff,0x48,0xfe, 0xeb,0xff,0xb3,0x01,0xb3,0x00,0x02,0x01, // 7600
0x4f,0xff,0x40,0xfe,0xad,0xff,0x3b,0x00, 0x6d,0x00,0x2d,0x00,0xb5,0xff,0x1f,0x00, // 7616
0xe2,0xfe,0xab,0xfb,0x53,0xff,0xa4,0xfe, 0x4b,0x00,0x54,0x01,0x7b,0xff,0x9a,0xff, // 7632
0xe4,0x00,0x3d,0x00,0x5f,0xff,0x97,0x00, 0x6b,0xff,0x01,0x00,0x5f,0xfe,0x44,0x00, // 7648
0xc3,0xff,0xf2,0xff,0xdf,0x02,0xb9,0x00, 0x68,0x00,0xba,0xfe,0x73,0xff,0x47,0x00, // 7664
0x96,0x03,0x72,0xff,0x1d,0xff,0x16,0x00, 0x5a,0xff,0xa0,0x01,0xc8,0xfe,0x7c,0xff, // 7680
0x4c,0x00,0x0b,0xfe,0xa5,0x01,0xca,0xfe, 0x16,0x00,0xcc,0xfe,0xab,0x00,0x31,0xfb, // 7696
0xa8,0xfb,0x82,0x05,0x65,0x01,0x5a,0xff, 0x9e,0xfd,0xdd,0xfd,0x6a,0x00,0x94,0xff, // 7712
0xfb,0xff,0x64,0xff,0xcc,0xff,0xa5,0x00, 0x89,0xff,0x88,0xfe,0xe9,0xff,0xc4,0xff, // 7728
0x1d,0xff,0x89,0xff,0xf3,0xff,0xfd,0x00, 0x04,0xff,0xdb,0xff,0x57,0x00,0x0e,0x02, // 7744
0xad,0x03,0xec,0x00,0x50,0xff,0xe6,0xff, 0x51,0xff,0x4d,0xff,0x6b,0x01,0xf5,0xff, // 7760
0x3f,0xff,0x7e,0xff,0xf2,0xff,0xd3,0x00, 0x9b,0x00,0x38,0xff,0x9b,0x03,0x2a,0x01, // 7776
0x13,0xff,0xb2,0xff,0x04,0x00,0xad,0xfe, 0x4d,0x01,0x73,0xfe,0xb5,0xfd,0x0d,0xfe, // 7792
0xa0,0xff,0x74,0xff,0xc5,0xff,0x2d,0xfe, 0x0b,0x00,0x6a,0x00,0xd0,0xfe,0x74,0xff, // 7808
0x52,0xff,0xb0,0xff,0x33,0xfe,0x92,0x00, 0x70,0x01,0x21,0x00,0x02,0x01,0xa6,0x00, // 7824
0x3a,0xff,0xe2,0xfe,0x93,0x01,0x06,0x00, 0xcb,0xff,0xc2,0xf9,0xf7,0x00,0xf6,0xfe, // 7840
0x67,0x00,0x74,0xfe,0x25,0xff,0xfc,0xff, 0x87,0x00,0xbd,0xff,0xaa,0xfa,0xd5,0xff, // 7856
0xe1,0xfe,0xa4,0xff,0x2f,0x02,0x74,0xfb, 0x11,0x00,0x3e,0x00,0xfc,0xff,0x67,0x04, // 7872
0xea,0xf9,0xb5,0x00,0x54,0x00,0xe9,0xff, 0x1e,0x00,0x0d,0xff,0x18,0xfa,0x97,0xfd, // 7888
0x1f,0x00,0xf8,0xff,0x5a,0x00,0x7b,0x00, 0x09,0x00,0x00,0x00,0xad,0xfe,0xf6,0xff, // 7904
0x59,0x05,0x64,0x01,0x90,0xff,0xe7,0xff, 0x8f,0x00,0x64,0x00,0x1c,0x00,0xee,0x00, // 7920
0x3d,0x00,0x80,0x00,0x7b,0x00,0xae,0x00, 0x8a,0xff,0x9b,0xfe,0xd3,0x00,0xe5,0xff, // 7936
0x77,0x00,0xfa,0xff,0x85,0xff,0xfe,0xff, 0x6f,0x01,0x9d,0xff,0x26,0x00,0xa1,0x05, // 7952
0x4d,0xff,0x93,0x00,0x11,0x00,0x3b,0x00, 0xbb,0xff,0x18,0x00,0x35,0x00,0x15,0x00, // 7968
0xd4,0xff,0x2a,0xff,0xd7,0x00,0x43,0xff, 0xa3,0x00,0xc0,0xff,0x11,0x00,0x5b,0xff, // 7984
0x36,0x00,0xb8,0xff,0x90,0x00,0x23,0x01, 0xe5,0x00,0xfb,0xff,0xec,0xff,0xee,0xff, // 8000
0x81,0xff,0xd1,0xff,0x49,0xff,0x83,0xff, 0x3a,0x00,0x84,0x00,0xff,0xff,0x3b,0x00, // 8016
0xb7,0xff,0x78,0x00,0xb7,0xff,0xc2,0xff, 0xb7,0x00,0xa3,0x00,0x10,0x00,0x09,0x00, // 8032
0xff,0xff,0xfe,0xff,0x04,0x00,0x81,0x04, 0x88,0xff,0x7a,0xff,0xc7,0x05,0xe4,0x00, // 8048
0xd6,0x00,0xdd,0xff,0x2e,0x00,0x73,0x00, 0x99,0xff,0x9f,0x02,0xfe,0xfd,0x4f,0xff, // 8064
0xe2,0xff,0xc1,0xff,0x2e,0x00,0x34,0xff, 0xe1,0xff,0x87,0xff,0xe2,0xfe,0x38,0x00, // 8080
0xee,0xff,0xea,0xff,0xee,0xff,0x34,0x00, 0x24,0xff,0x37,0x01,0xc9,0xff,0x11,0x00, // 8096
0x27,0x01,0x2b,0x00,0x16,0x00,0x2f,0x00, 0x3a,0xff,0x72,0xff,0x04,0x00,0xb5,0xfe, // 8112
0x3b,0x03,0xd8,0xff,0xaa,0x00,0x0e,0x00, 0x89,0xff,0xa2,0xfe,0x17,0x00,0xcd,0xff, // 8128
0x85,0x00,0x1b,0x00,0x86,0xff,0x42,0x00, 0xff,0xff,0xfb,0xff,0xb3,0xff,0x74,0xff, // 8144
0x44,0x06,0x8c,0xfb,0x00,0x00,0x06,0x00, 0x2b,0xf8,0xbd,0xff,0xee,0xff,0xcf,0xff, // 8160
0xcd,0xff,0x8d,0x01,0x64,0xf8,0x46,0xfc, 0x25,0x00,0x7c,0x00,0x4a,0x00,0xec,0xff, // 8176
0x47,0xff,0xc1,0x00,0x9d,0x01,0xc1,0xff, 0x46,0x05,0xc2,0xfd,0x25,0x00,0x3a,0x00, // 8192
0x87,0x00,0xa2,0x00,0x22,0x00,0x01,0x00, 0x59,0x01,0x60,0x02,0xa2,0xfe,0x55,0x00, // 8208
0xc7,0xfe,0xc1,0xfe,0x8b,0xfe,0x98,0x01, 0x43,0x00,0x47,0x00,0xe5,0xff,0xea,0xff, // 8224
0xc9,0xfd,0x2d,0x00,0xae,0xff,0x77,0x06, 0xe8,0x00,0x73,0xff,0x74,0x00,0x90,0xff, // 8240
0xad,0x00,0xd2,0x00,0xdc,0xff,0x51,0x00, 0x82,0xfe,0x81,0xff,0x48,0x02,0x45,0x00, // 8256
0x4b,0xff,0xbc,0xff,0xe8,0xff,0xfe,0xfd, 0xfa,0xfe,0xe2,0x00,0x02,0x00,0x6d,0x03, // 8272
0xe9,0xfd,0xee,0xff,0x4e,0x00,0x26,0x00, 0xfe,0xfe,0x4b,0x01,0xb9,0x00,0x67,0xff, // 8288
0xc6,0xff,0xb5,0x00,0x03,0x00,0xcc,0xff, 0x51,0x00,0x15,0x00,0xe5,0xfe,0x0c,0x00, // 8304
0x9a,0xfe,0xb8,0xfe,0x0e,0xff,0x57,0xff, 0x56,0x00,0x03,0x00,0x3b,0x00,0x53,0x07, // 8320
0xbb,0xff,0x88,0xfe,0x00,0x08,0x82,0x03, 0xee,0x01,0x68,0x00,0xdc,0xfe,0xb4,0xfe, // 8336
0xee,0xff,0x4c,0x03,0xfc,0xfa,0x34,0x00, 0xf1,0x00,0x8e,0xff,0x30,0x00,0x9c,0xff, // 8352
0xf4,0xff,0xda,0xfd,0xc8,0xfe,0xaa,0xff, 0xdc,0xfe,0x54,0xff,0x02,0x00,0x2e,0x00, // 8368
0xf8,0xff,0x26,0xff,0x24,0x00,0x09,0x00, 0x51,0xff,0x20,0x00,0x31,0x00,0x7e,0x00, // 8384
0xb4,0x01,0xb3,0xff,0xa8,0xff,0xb5,0xfe, 0xc8,0x05,0x51,0xff,0x48,0x00,0xf3,0x00, // 8400
0x9a,0x02,0x8a,0x00,0x1a,0x00,0xc6,0xff, 0xb7,0x00,0x9c,0xfe,0xc8,0xfe,0x0f,0x00, // 8416
0x1b,0x00,0x7a,0xff,0xd7,0xff,0xcf,0x00, 0x0e,0x07,0xd2,0xfa,0x76,0xfe,0x4d,0xff, // 8432
0x57,0x00,0x5d,0xff,0x3a,0x00,0x6a,0x02, 0x3d,0x00,0xd8,0x01,0x30,0x00,0x38,0x00, // 8448
0x25,0x00,0x6f,0x00,0x6c,0xff,0x28,0xff, 0x79,0x00,0xef,0x00,0x3b,0x05,0xff,0xff, // 8464
0xb1,0xff,0xce,0xfc,0xe9,0xfe,0x32,0x00, 0x25,0xff,0xa5,0x00,0x0d,0x00,0x67,0xfe, // 8480
0xb1,0x07,0xab,0x00,0xa0,0xff,0xa5,0x00, 0x4a,0x00,0x61,0x00,0xef,0xfe,0xe6,0x03, // 8496
0x20,0x00,0x01,0x00,0xbb,0xff,0xa2,0xff, 0xbb,0xfa,0x03,0x00,0xbf,0xff,0x4d,0xff, // 8512
0xb2,0x00,0x60,0x00,0x69,0x00,0xa9,0xf9, 0x08,0x01,0xe1,0x00,0x37,0xff,0xc4,0xff, // 8528
0x35,0xfb,0x4f,0xfe,0xf4,0xff,0x77,0x00, 0xef,0xff,0x98,0xff,0xcd,0xff,0x45,0xff, // 8544
0xd3,0xff,0x88,0x05,0xc8,0xff,0x94,0xff, 0xf8,0xfa,0x59,0xff,0x98,0x00,0x2a,0x00, // 8560
0x4b,0xf9,0xa2,0x01,0x62,0xff,0x1d,0x01, 0x87,0x00,0xfc,0x08,0x8d,0xff,0x85,0xff, // 8576
0x01,0x03,0x7b,0xff,0x19,0xf7,0x2c,0x01, 0x70,0xfe,0x74,0xf9,0x16,0xfb,0x65,0xfd, // 8592
0x81,0xff,0xfb,0xff,0xe3,0xff,0xa6,0xff, 0x2a,0x00,0x3b,0xff,0xd6,0xff,0xd7,0xff, // 8608
0xda,0xff,0xd9,0xff,0x11,0xfe,0xd8,0xf9, 0x54,0x00,0x27,0xff,0x3e,0x00,0xd5,0x00, // 8624
0x1f,0x00,0x03,0xfe,0xb7,0xfe,0x2a,0xfe, 0x6d,0x00,0x51,0xff,0xe8,0x00,0xec,0xff, // 8640
0xc4,0x00,0x35,0xff,0xef,0x00,0x05,0xff, 0x12,0x00,0x9f,0xff,0xd7,0xff,0xa2,0x00, // 8656
0x10,0x00,0x92,0x00,0x11,0x00,0x1e,0x06, 0xfc,0x03,0x32,0x00,0xad,0x00,0x0f,0x00, // 8672
0x50,0xff,0x94,0xff,0xde,0x00,0x42,0x06, 0x79,0x00,0x43,0xff,0xdf,0x01,0x7d,0x00, // 8688
0x07,0x00,0x2f,0xfb,0x5c,0x00,0x67,0x00, 0x63,0xff,0x48,0xf9,0x13,0xff,0xab,0x01, // 8704
0x73,0xff,0x2d,0x00,0xf0,0xff,0xb5,0xfe, 0x3a,0x01,0x87,0xfe,0xbf,0xfb,0xd8,0xff, // 8720
0xc3,0x01,0xf4,0xfe,0x30,0x00,0x03,0x01, 0xaf,0xfc,0x8b,0xfc,0xaf,0xfe,0x76,0x00, // 8736
0x66,0x01,0x3d,0xff,0x78,0xff,0x53,0x00, 0x8b,0xff,0xd5,0xff,0x8f,0xfe,0x45,0xff, // 8752
0xdd,0xff,0x3c,0x00,0xe0,0xff,0x7c,0xff, 0x14,0x00,0xfe,0xfe,0xa1,0x00,0xf2,0x00, // 8768
0xa1,0x00,0xb1,0xfe,0x00,0x00,0x04,0x00, 0xab,0xff,0x0b,0x06,0x51,0x05,0x08,0x02, // 8784
0x21,0x00,0xff,0x00,0x9b,0xff,0x12,0xff, 0x10,0x01,0x1f,0x01,0x0d,0xff,0xe5,0xff, // 8800
0x53,0x01,0xce,0xff,0x16,0xfe,0x3e,0x02, 0xbf,0x00,0xac,0x00,0x19,0xfe,0xf2,0xff, // 8816
0x02,0x02,0x79,0xff,0xb2,0xf8,0x7a,0x00, 0xbe,0x00,0x12,0x00,0x3b,0xfc,0xb2,0xfd, // 8832
0xc0,0xff,0x1a,0xff,0x5b,0xfb,0xe4,0xff, 0xd8,0xff,0xe0,0xff,0xa9,0x00,0x23,0xff, // 8848
0xed,0xff,0x2d,0x00,0x24,0x01,0x54,0x02, 0x3f,0x00,0x72,0xfe,0xfe,0xff,0x99,0xff, // 8864
0x1e,0x00,0xf5,0xff,0x1e,0x00,0x89,0x00, 0xe4,0x02,0x22,0xff,0x1f,0x00,0x87,0xff, // 8880
0x36,0x02,0x0b,0xff,0xe9,0xfe,0x4d,0xfe, 0x28,0x00,0x5c,0x00,0x96,0xfe,0x52,0x00, // 8896
0x13,0x00,0x16,0xff,0x3e,0x01,0x20,0xff, 0x31,0xff,0xd2,0xff,0xad,0x00,0xf2,0xff, // 8912
0x8a,0x00,0xef,0x00,0x1c,0x00,0x92,0x01, 0x25,0xff,0x33,0xff,0xa1,0xff,0x41,0xff, // 8928
0x94,0x01,0x3d,0xff,0x0c,0x01,0xb4,0xff, 0xbc,0x00,0x08,0x01,0xe4,0xfb,0xed,0xff, // 8944
0x0b,0x00,0x13,0x00,0xe6,0xff,0x77,0xff, 0x08,0xff,0x25,0x01,0x7b,0x00,0xa4,0xff, // 8960
0x91,0xff,0xac,0xff,0x6e,0x00,0x35,0x03, 0xc6,0xff,0xdf,0xff,0xa9,0x01,0xb3,0xfb, // 8976
0x9d,0x00,0x27,0x00,0xab,0xfe,0xb0,0xff, 0x00,0x00,0xd0,0x00,0xc6,0xff,0x9b,0xff, // 8992
0xb9,0xff,0x0c,0x02,0x43,0x00,0x90,0xfc, 0xf9,0xfe,0xd7,0x01,0x05,0x00,0x26,0x00, // 9008
0x3b,0x00,0x90,0x00,0x0e,0x00,0x90,0x01, 0x13,0x00,0x20,0x00,0xdb,0xfe,0x15,0xff, // 9024
0xf3,0xff,0x10,0x01,0xb3,0xff,0x24,0x01, 0xd7,0xfe,0xb1,0xff,0x8b,0xff,0x61,0x02, // 9040
0x9d,0xfe,0x2d,0x00,0xc8,0x00,0xa1,0xff, 0xf8,0xff,0x0a,0x01,0x9e,0x00,0x1c,0xff, // 9056
0x9e,0x00,0xe9,0xff,0xab,0xff,0x0a,0xff, 0xe1,0xfd,0x97,0x00,0x04,0xff,0x47,0x00, // 9072
0x0f,0x06,0x42,0x00,0x15,0x00,0x98,0x01, 0x3d,0x05,0x0e,0xff,0x7c,0x00,0xb9,0xff, // 9088
0xb2,0x01,0xe4,0x01,0x96,0xff,0xcd,0xff, 0x1f,0x01,0xac,0xfe,0x07,0x00,0xb9,0x00, // 9104
0x04,0x00,0x52,0xff,0x5f,0x00,0x04,0x00, 0xeb,0xff,0xb2,0x00,0x95,0x00,0xfc,0x00, // 9120
0xb8,0x01,0xb0,0x00,0x80,0x0a,0x83,0x00, 0x39,0xfd,0x5e,0xff,0x9a,0xfe,0x35,0xff, // 9136
0x84,0xff,0x6a,0x00,0x1e,0x01,0xe1,0xfd, 0xf8,0xff,0x7f,0x01,0x5d,0x01,0x42,0x01, // 9152
0x79,0xff,0x59,0x00,0xa3,0x01,0x1c,0x00, 0xa1,0xff,0x4d,0xfe,0x33,0x00,0xc7,0xff, // 9168
0xdc,0x00,0xd7,0xfe,0x7b,0xfd,0xb2,0x00, 0x06,0xff,0xf8,0xff,0xf2,0xff,0x08,0xfe, // 9184
0xf1,0x00,0xa4,0x00,0x3b,0x03,0xd8,0x01, 0x82,0xfe,0x13,0x00,0x64,0xff,0x6a,0x00, // 9200
0x8d,0xfe,0x5a,0xf8,0x5d,0xfe,0x10,0x00, 0x51,0xff,0x48,0xfb,0x0d,0x02,0x91,0x00, // 9216
0x11,0x03,0x0c,0x00,0x96,0x00,0xe3,0xfd, 0x11,0xff,0x11,0x01,0xb5,0xfc,0x9f,0xff, // 9232
0xf6,0xff,0x7c,0x02,0x3f,0xfe,0xf4,0xfe, 0x36,0x00,0xa9,0x00,0x57,0xff,0x94,0xff, // 9248
0x85,0xff,0x89,0x01,0x4d,0x02,0x78,0x00, 0x65,0xff,0x48,0x01,0xae,0xfb,0x1c,0x01, // 9264
0xda,0xff,0x5d,0xff,0xe1,0xff,0x5b,0xfe, 0x11,0x00,0x17,0x02,0xa6,0x00,0xa2,0x00, // 9280
0xce,0xfe,0x6f,0x00,0x02,0x00,0xa1,0xff, 0x37,0x00,0x6c,0x01,0xaf,0xff,0x5f,0x02, // 9296
0xc8,0xff,0xaa,0xff,0x27,0x00,0x26,0xfe, 0xf2,0xff,0x28,0x00,0xa3,0xff,0x02,0x01, // 9312
0x00,0x00,0x56,0xff,0xa3,0xfe,0x75,0xff, 0x73,0xff,0xf7,0xff,0xa5,0xff,0x0d,0x00, // 9328
0x40,0xff,0xc6,0xff,0xad,0x00,0x6c,0xff, 0x55,0x02,0x0f,0xff,0xc6,0xff,0x06,0xff, // 9344
0xde,0xfe,0x6e,0x00,0x02,0xfd,0x72,0x00, 0xaa,0xff,0xb3,0x00,0x81,0xfe,0xaf,0x00, // 9360
0x3a,0x00,0xbb,0xfe,0x99,0x00,0x32,0xfe, 0x4c,0x01,0x9c,0x00,0xd4,0xff,0x9c,0xff, // 9376
0x47,0x00,0x02,0x00,0x0f,0x00,0xb9,0xff, 0x2e,0xff,0x85,0xff,0xc3,0x00,0x27,0x00, // 9392
0xd5,0xff,0x0e,0x00,0x4d,0xff,0x6f,0x04, 0x75,0x00,0x49,0x01,0x64,0xff,0x70,0xff, // 9408
0x1b,0xfd,0x5f,0xff,0x5a,0xfe,0xbd,0xff, 0xaa,0xff,0xfe,0xff,0x34,0x00,0x5b,0x01, // 9424
0xc0,0x01,0xc1,0x00,0x03,0x01,0x52,0x00, 0xb9,0xfe,0x75,0xff,0x7d,0x06,0x28,0x00, // 9440
0xe4,0xfe,0x25,0xff,0xde,0xff,0x35,0x00, 0xfe,0x00,0x54,0xfe,0x86,0xfe,0xe9,0xff, // 9456
0x46,0xfe,0x31,0x00,0x0a,0x00,0x4e,0xfe, 0xbd,0xff,0x49,0xff,0xba,0xfe,0xb4,0xff, // 9472
0xd7,0xfd,0xa6,0x00,0x08,0xff,0x13,0xff, 0x7a,0xff,0x02,0x00,0xdc,0xfc,0xda,0xfe, // 9488
0xac,0xfe,0x44,0x00,0x12,0x00,0x20,0x02, 0x97,0x01,0x2e,0x00,0xf8,0x00,0xd8,0xff, // 9504
0x27,0xff,0x3c,0x00,0x70,0xff,0xd0,0xfe, 0x16,0x00,0x9f,0xff,0x00,0x00,0xd2,0xff, // 9520
0x6a,0x00,0xe8,0x01,0xac,0xff,0xeb,0x00, 0x22,0xff,0xda,0x00,0x6f,0xff,0xa4,0x00, // 9536
0x5e,0xfd,0x1a,0x00,0x61,0xff,0x0d,0x00, 0xae,0xff,0x70,0x00,0x58,0xff,0x27,0x01, // 9552
0xfb,0xfe,0xa3,0xff,0x71,0xff,0xad,0xff, 0x02,0x00,0xcf,0x00,0xcb,0xfe,0x30,0xfd, // 9568
0x5d,0xff,0x2d,0x00,0xa0,0xff,0x9a,0x00, 0x59,0xff,0x99,0x00,0x86,0x00,0x8e,0xff, // 9584
0xd3,0x01,0xce,0xff,0x19,0x00,0x5c,0x00, 0x48,0x00,0xd8,0xff,0xaa,0xff,0xae,0xff, // 9600
0x54,0x00,0x71,0x00,0x63,0x00,0xd0,0xff, 0x36,0xff,0x67,0xff,0x00,0x01,0x92,0x00, // 9616
0xcf,0xff,0xef,0xff,0xcf,0xff,0xa6,0xff, 0x2b,0xff,0x91,0xff,0xb6,0xff,0x8f,0x01, // 9632
0x7e,0xff,0x7c,0xfe,0x68,0x00,0x6d,0xff, 0x91,0xfe,0x50,0xff,0x2a,0x00,0x55,0x00, // 9648
0x6b,0xff,0xa8,0xff,0xe3,0xff,0xeb,0xff, 0x53,0x00,0x0b,0x00,0xf6,0xff,0x8e,0xff, // 9664
0xc2,0xff,0x8a,0x00,0x18,0x00,0x93,0x03, 0x6b,0xff,0xe7,0xff,0x21,0x00,0x43,0x00, // 9680
0xa7,0xff,0xa8,0xff,0x3b,0xff,0x33,0x01, 0x07,0x00,0x32,0x00,0x60,0xff,0x81,0xff, // 9696
0xaf,0x00,0xdb,0xff,0xb1,0xff,0xe1,0xff, 0x5c,0xff,0x83,0xff,0x6d,0xff,0xba,0xff, // 9712
0x25,0x00,0x78,0x00,0x76,0x00,0xe0,0x01, 0x64,0x00,0x56,0x00,0x5f,0x02,0x65,0x00, // 9728
0xd8,0xfe,0xfb,0xff,0xa6,0xff,0x37,0xff, 0xca,0xff,0xa6,0x02,0xdf,0xfb,0xfa,0xff, // 9744
0x87,0x00,0x9f,0xff,0xdf,0xff,0x7b,0x00, 0x06,0x00,0x3c,0xff,0xd7,0xff,0xe8,0xff, // 9760
0xc2,0x00,0xaa,0x00,0xc1,0xff,0x5b,0xff, 0x6c,0x00,0x20,0x00,0x08,0x00,0x67,0x00, // 9776
0xb9,0xfe,0x88,0x00,0x67,0x00,0x0c,0x00, 0x8b,0x00,0x95,0xff,0xab,0xff,0xdc,0x00, // 9792
0xab,0x01,0x50,0x00,0x06,0x00,0x90,0x00, 0x0a,0x00,0x4b,0x00,0x19,0x00,0x2b,0x00, // 9808
0x85,0xff,0xd3,0xff,0x34,0x00,0xd8,0xff, 0x8b,0xff,0xcb,0xff,0x0c,0x01,0x85,0x00, // 9824
0xb9,0x01,0x6d,0xfe,0x56,0x00,0x95,0xff, 0x18,0x00,0xef,0xff,0x64,0xff,0x53,0xff, // 9840
0x53,0x00,0x4e,0xfe,0x82,0xff,0x66,0x00, 0xfa,0xff,0xce,0x01,0xb5,0xff,0x13,0x01, // 9856
0x59,0x01,0x3b,0xfe,0x8e,0xff,0x38,0xfc, 0xcb,0xff,0x46,0x00,0xeb,0xff,0xf1,0x00, // 9872
0x70,0x00,0xd4,0x00,0xa2,0xfe,0x0a,0x00, 0x2d,0x00,0xc0,0x00,0x22,0x00,0xcd,0x00, // 9888
0x23,0xff,0xe3,0xff,0x7b,0x01,0x9e,0xff, 0xf1,0xff,0x85,0x00,0x55,0x00,0xb7,0xfe, // 9904
0x76,0x00,0x60,0x00,0x9a,0xfd,0x93,0x00, 0x01,0x00,0x3c,0x00,0xde,0xff,0x99,0xff, // 9920
0xac,0xff,0x29,0xfe,0xd7,0xfe,0x7c,0x00, 0xf0,0xff,0xdd,0xff,0x23,0x01,0xb6,0xfe, // 9936
0xfd,0xff,0x0e,0x00,0x59,0x00,0x40,0xff, 0x19,0x01,0x29,0x00,0x32,0xff,0x91,0x00, // 9952
0x9c,0xff,0xe5,0xff,0x19,0x00,0xa8,0xff, 0xd0,0xff,0xd2,0xfe,0x35,0x00,0x83,0xff, // 9968
0xe8,0xff,0x12,0x00,0x80,0xfe,0x5e,0xff, 0x2a,0x00,0x22,0x00,0xa3,0xff,0xee,0xff, // 9984
0x50,0x01,0x52,0x00,0x86,0xff,0xea,0xff, 0x1a,0x00,0xfd,0xff,0x93,0x00,0x38,0x00, // 10000
0x8a,0x00,0x6e,0xff,0x5a,0x00,0xff,0x00, 0x8e,0x00,0xf1,0xff,0x5f,0x00,0xf3,0xff, // 10016
0x14,0x00,0x7d,0x00,0x00,0x00,0x52,0xff, 0xd7,0xfe,0x34,0xff,0x74,0x00,0xf8,0xff, // 10032
0x27,0x00,0xff,0xfe,0xdf,0xff,0x1b,0x01, 0xb9,0xff,0x9d,0xff,0x6e,0xff,0xdc,0xff, // 10048
0x45,0x00,0x15,0x00,0xa7,0x00,0xa2,0x01, 0x14,0x01,0x9b,0x00,0x6c,0x00,0xd8,0xff, // 10064
0x2d,0x00,0x87,0xff,0x35,0xff,0xfd,0xff, 0xfb,0xff,0xd6,0xff,0x1a,0x01,0x79,0x00, // 10080
0xdf,0x00,0x50,0xfe,0xad,0x00,0xe7,0x00, 0x15,0x00,0xfe,0xff,0xec,0xff,0x2f,0xff, // 10096
0x72,0xfc,0x9b,0xff,0x87,0xff,0x3c,0xff, 0x73,0x00,0xfd,0xff,0xc6,0xff,0x83,0xff, // 10112
0xb3,0xff,0x6e,0x00,0xc3,0xff,0x59,0xfd, 0xba,0xff,0x4a,0x01,0x24,0x00,0xba,0xff, // 10128
0xec,0xff,0x4f,0x00,0x03,0x00,0xc6,0xff, 0xe3,0xfe,0x02,0x01,0xe8,0xfe,0x6e,0x00, // 10144
0x27,0x00,0x33,0x02,0xd3,0x00,0x9b,0x00, 0x6f,0xff,0x88,0xff,0xda,0xff,0xf4,0x01, // 10160
0x98,0xfc,0xd8,0xfe,0x87,0x00,0x79,0xff, 0x2c,0x00,0xc3,0xff,0x7a,0xff,0xe3,0xfa, // 10176
0x37,0x00,0xed,0xff,0xd4,0xff,0xd8,0xff, 0x06,0x00,0x85,0xfe,0x3d,0x00,0x5c,0x00, // 10192
0x13,0x00,0xdd,0xfe,0x40,0x00,0xc3,0x04, 0x22,0xff,0xc8,0xff,0x62,0x00,0xbd,0xff, // 10208
0xa0,0x02,0x37,0x02,0x92,0xff,0xa5,0x00, 0x08,0x00,0x04,0x00,0x71,0x00,0x9a,0x01, // 10224
0x6f,0xff,0x9e,0xfd,0x4a,0x00,0x8c,0x01, 0x4b,0x03,0x64,0x00,0x57,0x00,0x3a,0x00, // 10240
0x2a,0x03,0x58,0x00,0xb4,0x00,0x54,0xff, 0x74,0xff,0xa6,0xfb,0x34,0x00,0x06,0x00, // 10256
0xee,0xfe,0x2b,0x00,0x44,0x04,0xa5,0xfe, 0x91,0xfe,0x6b,0x03,0xe1,0x02,0x18,0x02, // 10272
0xd1,0xff,0xfa,0x00,0x2b,0x00,0xc7,0xff, 0xd1,0xff,0x49,0x01,0x7a,0x00,0xa6,0xfe, // 10288
0x25,0x00,0x05,0xff,0x5d,0x01,0xfd,0x00, 0xb6,0xff,0xaa,0x00,0x7f,0xff,0x9f,0x00, // 10304
0xd5,0xff,0xa3,0x00,0xed,0x01,0x95,0x02, 0x44,0xff,0x79,0x01,0x72,0xff,0x7e,0xff, // 10320
0x69,0xff,0x85,0x00,0x23,0x00,0x84,0x00, 0x94,0xff,0xfd,0xff,0x66,0xff,0x57,0x00, // 10336
0x22,0xfe,0x35,0x00,0x24,0x00,0x3d,0xfb, 0xc8,0xfc,0xeb,0x00,0x32,0xff,0xb0,0xff, // 10352
0xde,0xff,0x9e,0x00,0x25,0x00,0x83,0xfe, 0xaa,0xfe,0x91,0xff,0xd6,0xfe,0xda,0xff, // 10368
0x5e,0x00,0x3c,0x02,0x1e,0x00,0x01,0x00, 0x21,0x00,0x2d,0x04,0x73,0x01,0x8d,0x01, // 10384
0xcf,0xff,0x97,0xff,0x26,0x00,0x43,0x00, 0x30,0xff,0x4c,0x00,0x7a,0x00,0xf6,0x01, // 10400
0xe9,0xff,0x74,0x00,0x90,0xff,0x33,0xfe, 0xd5,0xff,0x3c,0xff,0x22,0x01,0x28,0xff, // 10416
0xf9,0xfd,0x16,0x01,0x8c,0x00,0x29,0x00, 0x81,0x00,0x6e,0x00,0xe9,0x02,0x36,0xff, // 10432
0x74,0xfe,0xe9,0xfe,0x17,0x00,0x15,0x01, 0xce,0xff,0xd7,0xff,0x23,0xff,0x2e,0xfd, // 10448
0x54,0x00,0x15,0x02,0x97,0xff,0xa4,0x00, 0xcd,0xff,0xe3,0xff,0x04,0x00,0x3d,0x00, // 10464
0x57,0xff,0xc6,0xfd,0x58,0x00,0x96,0x01, 0x0d,0xfc,0xac,0xf4,0x41,0x00,0x15,0x01, // 10480
0x3e,0xf7,0x81,0x00,0x9c,0x01,0x12,0x00, 0x53,0xff,0xa4,0xff,0x09,0x00,0x3b,0xff, // 10496
0x9d,0xfe,0x11,0x02,0x19,0x00,0x32,0xff, 0x07,0xff,0x39,0xff,0x45,0x00,0xa1,0x02, // 10512
0x4e,0xff,0xb7,0x01,0x26,0x00,0xb2,0xff, 0xde,0xff,0xfa,0x00,0x92,0xfc,0xa3,0x05, // 10528
0x89,0x00,0x6e,0x00,0xa0,0xff,0x24,0x00, 0x1f,0x00,0x03,0x00,0x5a,0x00,0x5e,0x02, // 10544
0x77,0xfc,0x0e,0xff,0xdb,0x00,0xdb,0xff, 0xc1,0xff,0x99,0x02,0xd3,0xff,0x93,0x00, // 10560
0xb6,0xff,0xb2,0x02,0xcf,0x00,0xa0,0x00, 0x90,0xfd,0xa8,0xff,0x49,0x02,0x58,0x00, // 10576
0xb6,0xff,0x30,0x01,0xc8,0xfe,0x63,0x00, 0x02,0x00,0x7a,0x01,0xb2,0xfe,0x6c,0xff, // 10592
0x71,0xff,0x97,0xff,0xca,0x01,0xbb,0xfe, 0x71,0x03,0xa8,0x05,0xff,0xff,0xe3,0x00, // 10608
0x6c,0x00,0x76,0x05,0x74,0xfc,0xd6,0xff, 0xa8,0xfa,0x57,0xff,0x14,0x00,0xab,0x00, // 10624
0xea,0x00,0xe2,0x00,0x12,0x02,0xa8,0x05, 0x4f,0x00,0x16,0xfe,0xe5,0xfd,0x21,0x00, // 10640
0x23,0x00,0xe8,0x01,0xbd,0xfe,0x95,0xff, 0x7c,0xff,0x2f,0xff,0xb0,0xfd,0x1f,0x00, // 10656
0x4c,0x00,0x73,0xff,0x42,0x04,0xd2,0x01, 0x30,0x00,0xbe,0xfe,0x41,0x02,0x19,0x01, // 10672
0x32,0x00,0x50,0xfe,0x3b,0xff,0xdd,0xfe, 0x87,0x00,0x5b,0xff,0x8d,0x00,0x8f,0x00, // 10688
0x43,0x00,0xe5,0x01,0x3f,0xff,0xe0,0xfe, 0xb4,0x03,0xf0,0x02,0x6e,0x02,0x54,0x00, // 10704
0x44,0xff,0xc3,0xfa,0xe7,0xfe,0x50,0x03, 0x1b,0x00,0xd9,0x02,0xc8,0x00,0x6c,0xfb, // 10720
0x8d,0x01,0xd2,0x00,0x95,0x01,0xa4,0x04, 0xa9,0x00,0x57,0xff,0xc1,0xfc,0xf6,0xff, // 10736
0x29,0x00,0x43,0x00,0xba,0xfe,0x69,0xfd, 0x81,0xfe,0x36,0x00,0x6e,0x00,0x79,0xff, // 10752
0xc9,0x01,0xac,0x02,0xdc,0xff,0xd9,0xfd, 0xda,0x02,0xa5,0x00,0x50,0xfa,0x01,0x00, // 10768
0x5c,0x00,0xf9,0x00,0x22,0x00,0x9b,0x03, 0xc2,0x02,0xe3,0xfc,0xef,0xff,0x8b,0xff, // 10784
0x96,0x02,0xed,0x02,0xbf,0xff,0x3a,0xff, 0x3b,0xfe,0x69,0xff,0x15,0x01,0xbe,0xff, // 10800
0x46,0xff,0xab,0x04,0x52,0x01,0x10,0xfe, 0xa5,0x00,0xaf,0x00,0x38,0xfd,0x36,0xfe, // 10816
0x3a,0x01,0xc9,0xfd,0x51,0xff,0xe8,0xfe, 0x17,0xff,0x11,0x00,0xf3,0xfe,0x8e,0xff, // 10832
0x79,0xfe,0xd2,0xfe,0x99,0xff,0x54,0xff, 0x09,0x01,0x89,0xfe,0x54,0xff,0xea,0xfe, // 10848
0x03,0x02,0x53,0x01,0xa8,0xf9,0xd6,0xfd, 0xd6,0x00,0x73,0xff,0x76,0x00,0x35,0x01, // 10864
0x13,0xfe,0x7b,0xfa,0x5b,0x01,0x2e,0x00, 0x17,0x00,0x86,0x00,0x50,0xff,0xa6,0x02, // 10880
0xc8,0xfe,0x8d,0xfd,0x56,0x00,0x3e,0x00, 0x18,0x00,0xad,0xfe,0xfc,0x04,0xc1,0xff, // 10896
0x17,0x03,0x6c,0x00,0x92,0x01,0x27,0x01, 0x17,0xff,0x96,0xfe,0xdc,0xfb,0x02,0xfe, // 10912
0x61,0xff,0xbe,0x02,0x89,0x05,0xa3,0xff, 0xdc,0xff,0x9b,0xfd,0x04,0x03,0xf5,0x00, // 10928
0x21,0x01,0xa2,0x00,0x96,0x03,0x55,0x00, 0x4a,0x00,0xbc,0xfe,0xb8,0xfd,0x7d,0x02, // 10944
0xab,0xff,0x87,0x00,0x1c,0xff,0xbd,0xfd, 0x1e,0x01,0x70,0xfe,0x51,0xfe,0xd0,0xfe, // 10960
0x46,0x01,0x55,0xfe,0x86,0x00,0x1f,0x02, 0x6c,0xff,0x84,0xff,0xa5,0xfb,0xde,0x00, // 10976
0xc9,0x02,0xf9,0xfc,0xe4,0xff,0x94,0xff, 0x60,0xff,0x84,0xff,0x23,0xfa,0x38,0x00, // 10992
0x6a,0x02,0x8e,0x01,0xe5,0xff,0x03,0xff, 0xd1,0x01,0x96,0x00,0xad,0x00,0x70,0x03, // 11008
0xf1,0xfe,0xdd,0xfc,0x1a,0x02,0x19,0x01, 0x9c,0xff,0xf8,0x00,0x85,0x00,0xe8,0xff, // 11024
0xe4,0x00,0x1f,0x02,0xb9,0xff,0xcb,0xfe, 0xe8,0x01,0x15,0x09,0x40,0x00,0xbb,0xfe, // 11040
0xe5,0x03,0x89,0xff,0x24,0xfe,0x8c,0x00, 0x53,0xff,0x93,0xff,0xd4,0xff,0x10,0xfe, // 11056
0xa8,0x00,0x9c,0xfe,0xca,0xfe,0x49,0xff, 0xdc,0x01,0x87,0x01,0x6f,0xfe,0x28,0xfe, // 11072
0x75,0xff,0x1d,0xfa,0x07,0xff,0xb1,0xff, 0x80,0xfe,0x23,0xfd,0x04,0x01,0x68,0xfc, // 11088
0x13,0x00,0x00,0x01,0xcf,0xff,0xbc,0xff, 0xee,0x01,0xcd,0xfd,0xa4,0xfe,0xfd,0xfd, // 11104
0xd5,0x04,0x8e,0xff,0xf4,0xfd,0x25,0xff, 0xc8,0x00,0x18,0xfc,0x60,0x00,0x48,0xff, // 11120
0x21,0x01,0x56,0xfd,0x6e,0xff,0xc6,0x00, 0xfd,0x00,0x5a,0x01,0xf2,0xff,0x95,0xfe, // 11136
0x26,0x01,0xa1,0xff,0x2a,0x01,0x98,0xff, 0x18,0xff,0x66,0xfd,0xc7,0x00,0x8c,0xff, // 11152
0x07,0x01,0x05,0x00,0x3b,0xff,0x97,0x01, 0x6c,0xff,0xd3,0xfd,0x82,0xff,0x41,0xfe, // 11168
0x3c,0x01,0x0d,0xfe,0x08,0x01,0x4f,0x00, 0x71,0x03,0xd4,0x01,0x18,0xff,0x3c,0x00, // 11184
0x68,0x00,0x49,0xfe,0x63,0xff,0x4c,0xfd, 0xf5,0xff,0xdf,0x00,0x49,0x03,0x91,0x00, // 11200
0x10,0x01,0xe8,0xfd,0xa3,0x02,0x7e,0x01, 0xf9,0x00,0x7e,0xff,0xd0,0x01,0xd0,0xfe, // 11216
0x1e,0x00,0x9e,0xfe,0x00,0xfe,0x27,0xfd, 0x68,0xff,0xce,0x00,0x81,0xfd,0x67,0xff, // 11232
0x98,0xff,0x28,0x00,0xe4,0xff,0x29,0x00, 0x09,0x00,0x2c,0xfe,0x26,0xff,0x74,0x00, // 11248
0x69,0xff,0xde,0xff,0x83,0xfd,0x86,0x00, 0xc6,0x00,0x49,0xff,0x37,0x00,0x0a,0x00, // 11264
0xee,0x00,0xc8,0xfe,0xfa,0xfc,0x36,0x00, 0xd7,0x00,0x0e,0x01,0x23,0x00,0xb1,0xfd, // 11280
0x27,0x00,0x9b,0x00,0x86,0x00,0x31,0x01, 0x00,0xfe,0x9e,0xf9,0xde,0xff,0xd9,0x00, // 11296
0xa0,0xff,0x00,0x00,0x35,0x00,0xcb,0xff, 0xfb,0x01,0x35,0x00,0xfe,0xff,0x7c,0x00, // 11312
0x9d,0xff,0x70,0x09,0x99,0xfe,0x87,0xfd, 0xa4,0x01,0x16,0x00,0x04,0xff,0x23,0x00, // 11328
0xab,0xff,0x3d,0xff,0x94,0x01,0x3b,0xff, 0xee,0xff,0xec,0xff,0xf7,0xff,0x00,0xff, // 11344
0x0d,0x00,0x5c,0xff,0xd8,0xff,0x82,0xfe, 0xde,0xff,0x5c,0xfd,0xb2,0xfe,0xb5,0xff, // 11360
0xff,0xfe,0xa1,0xff,0xbd,0x00,0x63,0xf9, 0x6a,0xff,0x99,0x00,0xfd,0xff,0xd5,0x00, // 11376
0x2f,0xfe,0xfb,0xfe,0x3f,0xff,0x21,0x00, 0xb3,0x03,0x97,0x00,0x06,0xff,0xa3,0xff, // 11392
0xad,0x00,0x05,0xfc,0xc1,0xff,0xab,0x00, 0x6a,0x00,0x28,0xfe,0x22,0x00,0x6b,0x01, // 11408
0xe6,0x02,0xd7,0x00,0x86,0xff,0x34,0x00, 0x6a,0x00,0x5f,0x01,0x61,0x01,0x66,0xff, // 11424
0x0b,0xff,0x95,0xfc,0xb7,0xff,0xe5,0xfe, 0x41,0x00,0x68,0xff,0xd0,0xfc,0xfa,0x00, // 11440
0x4a,0xfe,0xdc,0xfe,0x71,0x00,0x0e,0xff, 0xb5,0xff,0xb4,0xff,0x45,0x01,0xcb,0xff, // 11456
0xa0,0x03,0x11,0x01,0xd5,0xff,0x1c,0x01, 0x31,0xff,0x6f,0xfe,0x4d,0xff,0x8c,0xf9, // 11472
0x21,0x02,0x83,0xff,0x27,0x02,0x14,0xff, 0xd0,0x00,0x3c,0xfd,0x71,0x00,0x28,0x01, // 11488
0x0a,0x01,0x57,0x00,0x42,0xff,0xcd,0xff, 0x52,0x00,0xe7,0xfe,0x51,0xff,0xa3,0xfe, // 11504
0x30,0x01,0x40,0xff,0x5f,0xfd,0x6f,0x02, 0xbc,0x01,0x94,0xff,0xd8,0xff,0x16,0xfe, // 11520
0x83,0x00,0xfe,0x00,0x6a,0x01,0x26,0x02, 0x05,0x00,0xd2,0xff,0xba,0xff,0x87,0x00, // 11536
0xc9,0x03,0xff,0x00,0xb5,0x00,0xed,0xff, 0x63,0xff,0xa8,0xfe,0x85,0xff,0x7f,0x00, // 11552
0x4e,0x01,0x92,0x01,0x36,0x00,0xa7,0xfe, 0xf1,0x00,0xa6,0xff,0x8c,0x01,0xaa,0x02, // 11568
0x55,0x00,0xc6,0xfe,0x95,0xff,0xa3,0xff, 0xa0,0xff,0x69,0x00,0x72,0x00,0xae,0xff, // 11584
0xfb,0xff,0xcf,0x02,0x15,0x00,0x2e,0xfd, 0xb9,0x03,0x03,0x05,0x75,0x00,0x42,0xff, // 11600
0x05,0x06,0xbc,0xff,0xde,0xfb,0x53,0x00, 0x99,0xff,0x26,0x00,0x67,0xff,0x8f,0x00, // 11616
0x59,0x02,0x86,0xfc,0xb4,0xff,0xad,0xff, 0x2a,0x03,0x19,0x02,0xc3,0xff,0x8f,0xfd, // 11632
0x98,0xff,0xc0,0xff,0xd7,0xff,0x88,0xff, 0x86,0xff,0xc2,0x00,0x49,0x03,0xf2,0xfc, // 11648
0x79,0x00,0x3e,0x00,0xb1,0xff,0xf2,0xff, 0x5d,0x01,0x95,0xff,0x1f,0xff,0x6c,0xfd, // 11664
0xcb,0x01,0x62,0xff,0xf5,0xfe,0xde,0xff, 0xd9,0xff,0x86,0xff,0xe2,0xff,0xb3,0xfe, // 11680
0x81,0x00,0xdf,0xfe,0xec,0xfe,0x51,0xff, 0xdc,0x00,0x9d,0x00,0xf1,0xfa,0x03,0xff, // 11696
0xdb,0x00,0xa7,0xfd,0x95,0x01,0x56,0xff, 0x8f,0xff,0x14,0xff,0x8f,0x02,0x12,0x01, // 11712
0x09,0x01,0x78,0x00,0xbc,0xfe,0xe3,0x01, 0xb8,0xfc,0x2c,0xfb,0x19,0x00,0x63,0x00, // 11728
0x6b,0x00,0x9c,0xfc,0x85,0x04,0x0e,0x00, 0x43,0x04,0xe0,0xff,0xb4,0xff,0x25,0x00, // 11744
0x58,0x00,0x94,0xff,0xcb,0xfb,0x20,0xfd, 0x6d,0xff,0x45,0x03,0xc4,0x02,0x9d,0x00, // 11760
0xf0,0xff,0x5c,0xff,0x03,0x02,0x17,0x00, 0x0d,0x01,0xe1,0xff,0x54,0x05,0xc6,0xff, // 11776
0xb2,0xff,0x00,0x00,0x52,0xfa,0x45,0x00, 0x7a,0xfe,0x56,0x02,0x38,0xff,0x9a,0xfd, // 11792
0xd0,0xff,0x89,0x00,0x95,0xff,0xf2,0xff, 0x0f,0x00,0xec,0xff,0x41,0x00,0xf0,0xff, // 11808
0xb6,0xff,0x70,0xfe,0xd8,0xff,0x3f,0x00, 0x6e,0x00,0x23,0xff,0x44,0xfd,0xeb,0xff, // 11824
0x32,0x00,0xa3,0x01,0x5c,0x00,0x3e,0xff, 0x1d,0x00,0xc4,0xfe,0x51,0x00,0x4c,0x01, // 11840
0xd3,0xfb,0xd7,0xff,0xc5,0xff,0x18,0xff, 0xeb,0xfe,0x9c,0xff,0x38,0x01,0x00,0xff, // 11856
0xa9,0xff,0x10,0x00,0xe5,0x00,0x60,0x01, 0x9c,0x01,0x5b,0x00,0x0a,0x00,0xae,0xff, // 11872
0xb2,0xff,0x40,0x00,0x58,0xff,0xa3,0x03, 0x8b,0xff,0x10,0x00,0x5e,0x00,0x71,0x00, // 11888
0x59,0x02,0x5c,0x00,0xc3,0xff,0x68,0xff, 0x1b,0x00,0x1a,0x00,0x70,0xff,0x10,0x00, // 11904
0x40,0xff,0x8c,0xfd,0xc2,0xff,0x8d,0xff, 0x0a,0x01,0xea,0xff,0x03,0x00,0x60,0x00, // 11920
0x5c,0x02,0xc5,0xfe,0x89,0xff,0x4b,0xff, 0x55,0xff,0xc7,0xfa,0xf6,0x00,0xf6,0x00, // 11936
0xd8,0xfb,0x9f,0x00,0x62,0x03,0x21,0xff, 0xba,0x00,0x5d,0x02,0xb0,0x02,0xe6,0x00, // 11952
0x0d,0x01,0x03,0x00,0x0d,0x00,0x05,0x00, 0x4a,0x00,0x22,0x00,0x3c,0x00,0x31,0x00, // 11968
0xf2,0xff,0xdf,0xff,0x8c,0x00,0xbf,0x02, 0xf4,0xff,0x91,0xff,0xfd,0xff,0x0a,0x00, // 11984
0x16,0x00,0x72,0x00,0xd7,0xff,0x74,0x00, 0x5b,0x00,0x2a,0x00,0xff,0xff,0x8e,0xff, // 12000
0x96,0xff,0x65,0x00,0x73,0xff,0x6e,0xff, 0xa3,0x00,0x4b,0x00,0xa7,0xff,0xad,0xff, // 12016
0x37,0x00,0xaf,0xff,0xbf,0xff,0x1d,0xfd, 0xd3,0xff,0xe3,0xff,0xf4,0xff,0xeb,0xff, // 12032
0x3b,0x00,0xa5,0xff,0x24,0xff,0x8e,0xfd, 0x62,0x00,0x32,0x00,0x75,0xfd,0x51,0x00, // 12048
0x99,0xff,0x3a,0x02,0x74,0x00,0x3c,0xff, 0x0e,0x00,0x5e,0x02,0x72,0x00,0xf2,0xfe, // 12064
0xee,0xff,0xfc,0xff,0x1a,0x00,0x93,0x01, 0x64,0x00,0x46,0x00,0x59,0x00,0x27,0xff, // 12080
0x64,0xff,0x6b,0xff,0x46,0x00,0xc1,0xff, 0x28,0x00,0x12,0x00,0x5e,0x00,0x00,0x00, // 12096
0xa9,0x00,0xe4,0xff,0x5a,0xff,0xdc,0xff, 0xa0,0xff,0x8c,0x00,0x9d,0x00,0xff,0xff, // 12112
0x68,0x01,0x87,0x00,0xf0,0xff,0x35,0x01, 0xfc,0x00,0xa0,0xff,0x67,0x00,0xfa,0x00, // 12128
0xfc,0xff,0xeb,0x00,0x0a,0x00,0xf3,0xff, 0x1a,0x00,0x91,0xff,0xe3,0xff,0x9a,0x00, // 12144
0x37,0x00,0xa6,0xff,0xe0,0xff,0xc4,0xff, 0xfd,0xfe,0x96,0xff,0x9a,0x01,0xe6,0xff, // 12160
0x83,0xff,0xd0,0xff,0xaf,0xff,0xe5,0xff, 0x79,0xff,0x91,0xff,0x39,0xff,0x9e,0xff, // 12176
0x61,0x00,0xcd,0xff,0x3e,0x00,0x16,0x00, 0x12,0x00,0x83,0x00,0x1a,0x00,0x01,0x00, // 12192
0x60,0x00,0x4e,0x00,0xfe,0xff,0x10,0x00, 0x97,0xff,0x52,0xff,0x2e,0xff,0x2c,0x01, // 12208
0xaa,0xff,0xbd,0xff,0x4b,0x00,0x88,0x00, 0x9f,0x01,0xb0,0x00,0xbc,0x00,0xf0,0xfe, // 12224
0xb5,0xff,0xc6,0xff,0x83,0xff,0xad,0xff, 0x8a,0x00,0xa3,0x01,0xc9,0xff,0xd7,0xff, // 12240
0xf0,0xff,0x91,0x00,0x97,0xff,0x9e,0xff, 0x6d,0xfd,0xfc,0xff,0xad,0x00,0xfd,0xff, // 12256
0xcb,0xff,0xa3,0xff,0x1c,0x00,0xad,0xff, 0x2a,0xff,0xc4,0xff,0xfe,0x00,0x59,0x00, // 12272
0x49,0x00,0x30,0x00,0x03,0x01,0x36,0x00, 0x92,0x01,0x16,0x01,0x07,0x00,0x3a,0x00, // 12288
0xaf,0xff,0xe4,0x00,0x7d,0x00,0x3b,0x00, 0x7e,0xff,0x48,0xff,0xaf,0xff,0x33,0xff, // 12304
0x8b,0x00,0x0b,0xff,0xb4,0xff,0x74,0x02, 0x56,0xff,0x83,0x00,0xa9,0x00,0xbc,0x00, // 12320
0x2a,0x00,0xd5,0xff,0x91,0x01,0xe1,0xff, 0xa5,0x00,0xeb,0xff,0xd5,0x00,0x8b,0x00, // 12336
0xbd,0xff,0xbe,0xff,0x8d,0x00,0x21,0x00, 0xdd,0xff,0x4a,0x00,0xe7,0x02,0x64,0xfe, // 12352
0x61,0x00,0x81,0xff,0x9a,0xfe,0x95,0xff, 0x1b,0x00,0xd4,0x00,0xb3,0xff,0x12,0x00, // 12368
0x5d,0xff,0x31,0xff,0x1e,0xf6,0xbc,0x00, 0x0b,0x00,0xcb,0xfc,0x07,0xff,0x9b,0xff, // 12384
0x43,0x00,0x66,0x01,0x86,0xfa,0x30,0x00, 0x07,0x01,0x2a,0x00,0x21,0x00,0xcf,0xff, // 12400
0xcd,0xff,0x18,0x01,0xa3,0xff,0x73,0x00, 0xe9,0xfd,0xc2,0xfc,0x5d,0x02,0x72,0x00, // 12416
0x68,0xff,0xd8,0x00,0x2e,0x01,0x7d,0x00, 0x09,0x01,0x69,0x00,0x09,0x00,0x0a,0x00, // 12432
0x74,0x01,0x28,0x05,0x0d,0x00,0x68,0xff, 0xfb,0x01,0x06,0xff,0x62,0xff,0x8e,0x01, // 12448
0x1a,0x00,0x70,0xff,0x64,0x00,0xd2,0xfd, 0xdf,0xff,0xbd,0x00,0x7e,0xfe,0x5d,0xff, // 12464
0x1f,0x00,0x7c,0x00,0x35,0xfe,0x8a,0xff, 0xa9,0xfe,0x7f,0xf6,0xd2,0xfe,0x1c,0xff, // 12480
0xdf,0xff,0x9c,0xfd,0xee,0x00,0x7c,0xfc, 0x23,0x00,0x8d,0xff,0x56,0x00,0x9f,0x00, // 12496
0x36,0x00,0xc7,0xfd,0x91,0xff,0x36,0x00, 0xdd,0x02,0xc5,0xff,0x28,0xff,0x24,0xff, // 12512
0xb6,0x00,0x93,0xfa,0x49,0x00,0x54,0x00, 0x27,0x01,0x9d,0xfd,0xc1,0x00,0xfc,0xff, // 12528
0xf0,0x00,0x37,0x00,0x61,0x01,0x0e,0x00, 0xb5,0x00,0x72,0x00,0x25,0x00,0xaa,0xfe, // 12544
0x4e,0x00,0xf9,0xfd,0x21,0x00,0x9c,0xff, 0xb3,0x00,0x13,0x00,0xce,0xfd,0xd4,0xff, // 12560
0x48,0xfe,0xcc,0xfe,0xc7,0xff,0x1a,0xfe, 0xad,0x01,0x66,0xfd,0x1e,0x00,0xbe,0xff, // 12576
0x91,0x01,0x79,0x02,0xb1,0xfe,0x84,0xff, 0x64,0x00,0x35,0xfe,0xf9,0xff,0xae,0xfc, // 12592
0x2e,0x00,0x65,0xff,0x5e,0x01,0x60,0x00, 0x79,0x01,0xf4,0xfe,0xec,0x00,0x8d,0x02, // 12608
0x58,0x00,0x03,0x00,0x4c,0x00,0x64,0xfe, 0xbb,0xff,0x36,0xff,0xa2,0xff,0x30,0xfc, // 12624
0xe0,0xff,0xdc,0xff,0x95,0xfd,0x14,0x00, 0x28,0x00,0xf1,0xfe,0xbd,0x00,0xe6,0xff, // 12640
0x52,0x01,0x8d,0x02,0xe6,0xff,0x3f,0x00, 0x2b,0x01,0x9c,0x00,0x22,0x00,0xe5,0xfe, // 12656
0x57,0x00,0x6b,0x01,0x80,0x00,0xd8,0x09, 0xe0,0xff,0x4a,0xfe,0x09,0x00,0xf4,0xff, // 12672
0xe6,0xff,0x6a,0x00,0x77,0x0c,0x43,0xff, 0x21,0x00,0x81,0x01,0xa8,0xff,0x41,0xff, // 12688
0xd2,0xff,0x07,0x00,0xf8,0xfc,0x2e,0x00, 0xb3,0xfe,0x79,0xff,0x29,0xff,0x87,0xff, // 12704
0xe1,0xfc,0xec,0xff,0xfc,0x0b,0xe2,0xff, 0xf4,0xff,0x2b,0x00,0x87,0xff,0x0f,0x00, // 12720
0x34,0x00,0xa6,0x07,0xfd,0xff,0xd6,0xff, 0x1d,0x00,0xc6,0xff,0xc1,0x00,0x6f,0x01, // 12736
0x3f,0x00,0xef,0xff,0x74,0x01,0xdd,0xff, 0xa6,0xff,0xec,0xff,0x57,0x00,0x47,0x00, // 12752
0x30,0xff,0xf0,0xff,0xea,0xff,0x9c,0xfe, 0xae,0xff,0x3b,0x01,0x14,0x00,0xef,0xff, // 12768
0xe7,0x00,0x07,0x00,0xdd,0xff,0xe4,0xff, 0x69,0xff,0xa9,0xfe,0x4c,0x00,0xd4,0xff, // 12784
0x2f,0xff,0x61,0x00,0x10,0x00,0xf2,0xff, 0x0e,0x00,0xd8,0xff,0x6e,0xfb,0x2a,0x00, // 12800
0x54,0xff,0xf6,0xff,0xe6,0xff,0x69,0x00, 0xf7,0xff,0xf8,0x00,0xe4,0xff,0xbc,0xff, // 12816
0x99,0x01,0x26,0x00,0x4a,0x00,0x58,0x03, 0xd2,0x00,0xee,0xff,0xdc,0xff,0xee,0xff, // 12832
0xc4,0x00,0x7a,0xff,0xe8,0xff,0xe1,0xff, 0x02,0x00,0xfe,0xff,0x9a,0x01,0x53,0x00, // 12848
0xdf,0xff,0x3d,0x00,0xca,0xff,0x04,0xf7, 0xca,0xff,0xb6,0xff,0x96,0x01,0x2a,0x00, // 12864
0x69,0x00,0xd3,0xff,0xda,0xff,0xe7,0xff, 0xf6,0xff,0xec,0xff,0xe0,0xff,0x38,0x00, // 12880
0xc6,0x00,0x2c,0x00,0xbe,0xff,0x3a,0xff, 0x4d,0x00,0x00,0x00,0x2c,0x00,0x2d,0x01, // 12896
0x11,0x03,0x1e,0x00,0x05,0x00,0x97,0x01, 0x2f,0x00,0x04,0x00,0x20,0x00,0x92,0x00, // 12912
0xae,0xfb,0xf8,0x00,0x8e,0x00,0xc1,0xff, 0xbf,0xff,0x7a,0xff,0xe3,0xfb,0x31,0xf9, // 12928
0x55,0x00,0x44,0x00,0x16,0x00,0xe9,0xff, 0x67,0xfe,0x55,0xff,0xff,0xfe,0xc3,0xff, // 12944
0xd8,0x02,0x1a,0x03,0xbe,0x00,0x26,0x00, 0x76,0x00,0x40,0xff,0xd0,0xff,0xbc,0x01, // 12960
0x38,0xff,0xe5,0xff,0xb2,0xff,0xb6,0xff, 0x27,0xff,0xae,0x00,0x34,0x01,0x7b,0xff, // 12976
0x3e,0x00,0x09,0x00,0xea,0xff,0x33,0x00, 0xee,0x00,0x65,0xfe,0x0f,0x00,0xc6,0x05, // 12992
0xea,0xfd,0xb8,0xfc,0xde,0xff,0xe1,0x00, 0xe7,0xfc,0x57,0xff,0x29,0x02,0xdf,0xff, // 13008
0x2e,0x00,0xc8,0xff,0x4e,0x00,0xf1,0xfe, 0xba,0xfe,0x61,0x01,0x0c,0x00,0x89,0xff, // 13024
0xba,0xfe,0xce,0xfe,0x34,0x00,0x03,0x06, 0x32,0x00,0xe8,0xff,0x11,0x00,0x48,0x00, // 13040
0x2d,0x00,0xce,0xfe,0xb0,0xfd,0xcc,0x01, 0xcd,0xff,0x77,0xff,0x9e,0xff,0xf8,0xff, // 13056
0x31,0xff,0x34,0x00,0x40,0x01,0x83,0x00, 0x67,0x00,0xa4,0x00,0x43,0x00,0xaf,0x00, // 13072
0x22,0x00,0x19,0x00,0x40,0x00,0xdf,0x02, 0xcc,0xff,0xcb,0x01,0x0d,0x04,0xd1,0x00, // 13088
0x65,0xfe,0x80,0xff,0x62,0x03,0xe8,0x00, 0xa0,0xff,0x61,0x06,0x55,0xf9,0xf3,0xff, // 13104
0x0d,0x01,0x1a,0x00,0xb7,0xff,0x1c,0x00, 0x3d,0x00,0x32,0x00,0x90,0xff,0xc3,0xfe, // 13120
0xcd,0x01,0xd1,0x02,0x78,0x00,0xfd,0xff, 0xcb,0xff,0x7a,0x02,0x98,0xfe,0xff,0xff, // 13136
0x29,0xfe,0x05,0x00,0x37,0x00,0x96,0xff, 0x79,0xff,0x64,0xff,0xdd,0x01,0x4a,0x02, // 13152
0x78,0x02,0x9a,0xfe,0x4e,0xff,0x99,0xff, 0x32,0x00,0x94,0x00,0x2b,0xff,0xde,0xff, // 13168
0x0d,0x00,0x6c,0x00,0x76,0xfd,0x59,0x00, 0x1f,0x00,0xc3,0x00,0xeb,0x03,0x42,0xff, // 13184
0xd2,0x03,0x23,0xfa,0x71,0x01,0x61,0x01, 0xa2,0xff,0x15,0xfd,0xb3,0xfd,0xb1,0x00, // 13200
0x2c,0x02,0x9c,0x07,0xbc,0xff,0x85,0xff, 0x78,0xff,0xde,0x00,0x30,0xff,0xf5,0xff, // 13216
0x6e,0xfe,0x00,0x01,0x16,0x04,0x74,0x00, 0xe1,0xff,0x57,0xfb,0x85,0xff,0x18,0x00, // 13232
0x37,0xfd,0x63,0xfe,0x29,0x00,0x93,0xfd, 0x75,0x02,0x32,0x05,0xa9,0xfd,0xa1,0xfd, // 13248
0x02,0x00,0x88,0x00,0x82,0xff,0x5a,0x01, 0x01,0xff,0x2a,0x01,0x1e,0x00,0x42,0xff, // 13264
0xce,0xef,0x78,0x00,0x02,0x00,0x37,0x00, 0x8a,0x00,0xb0,0xff,0xca,0xfe,0xf6,0xfe, // 13280
0x48,0x00,0x83,0xff,0x6c,0x01,0x98,0x00, 0x75,0xff,0x9d,0x00,0xd7,0x03,0xb1,0x00, // 13296
0x08,0xff,0x3c,0x01,0xca,0xfe,0xa8,0xfe, 0x1c,0xfe,0xfe,0x02,0xc8,0xfe,0x39,0x00, // 13312
0x7e,0xf9,0xd0,0xfe,0x88,0xff,0xd4,0xff, 0xfa,0xff,0x1e,0x02,0x9f,0x00,0x93,0x00, // 13328
0x50,0x01,0x02,0x02,0x59,0xff,0xfb,0xff, 0xeb,0x00,0xb1,0xf8,0xfd,0xfe,0x5f,0x01, // 13344
0xec,0xfd,0x1c,0xfd,0x3e,0x00,0xc5,0x00, 0xbc,0xfe,0xd8,0xff,0xc0,0xff,0xad,0x00, // 13360
0x1e,0x02,0xc4,0xfe,0x81,0x00,0xb0,0x01, 0x67,0x00,0x07,0x02,0xe4,0xfd,0x62,0xfd, // 13376
0xfb,0x00,0xae,0xff,0x8c,0xff,0x2c,0x00, 0xce,0x03,0xf0,0x00,0x2a,0xff,0xd7,0xff, // 13392
0xdd,0x01,0xee,0xfd,0x4f,0x00,0xcf,0xfd, 0x41,0x00,0x81,0xff,0xfe,0xff,0x43,0xff, // 13408
0x79,0x01,0x59,0xff,0x48,0xff,0xcf,0xff, 0x03,0x00,0x37,0x02,0xfd,0xff,0xa2,0x01, // 13424
0x39,0x01,0x56,0x02,0x49,0x01,0x1e,0x00, 0x50,0x00,0x93,0xff,0xc4,0xfd,0x13,0x01, // 13440
0x9a,0x03,0x89,0x04,0x9c,0x00,0xf5,0x01, 0xc4,0xfd,0x7a,0xff,0x8a,0xff,0xe0,0xfe, // 13456
0xc3,0xff,0x3b,0x00,0x39,0xff,0x31,0x03, 0xdd,0xff,0xb8,0xff,0x69,0xff,0x90,0xff, // 13472
0x57,0x00,0x29,0x00,0xc3,0xff,0x37,0x00, 0x22,0x00,0x27,0x04,0xb9,0x00,0xfe,0xff, // 13488
0x2a,0x01,0xca,0x01,0x6c,0x00,0x34,0x00, 0x28,0xff,0x2d,0x01,0xc8,0xff,0xa1,0xfe, // 13504
0x03,0x00,0x04,0x00,0xee,0xff,0x2e,0x00, 0x5f,0x00,0xc3,0xff,0x90,0xfe,0x31,0x00, // 13520
0x51,0x00,0xc2,0xff,0x72,0xff,0x30,0xff, 0x13,0x00,0xe6,0xff,0xed,0xff,0x3b,0x00, // 13536
0xb9,0xff,0x5e,0xfe,0x91,0xfd,0x73,0xff, 0x9a,0xfe,0x9f,0x00,0xc0,0xfe,0xf7,0xfe, // 13552
0x24,0x00,0x56,0x00,0xca,0xff,0x8e,0xff, 0xf6,0xff,0x9f,0xff,0xb9,0x00,0xcc,0xfe, // 13568
0x5d,0x00,0xff,0xff,0x8e,0xfe,0x18,0x00, 0x52,0x00,0x82,0xff,0x92,0x01,0x61,0x00, // 13584
0x84,0xfe,0xea,0xff,0x6c,0x00,0x2c,0xff, 0xf3,0xff,0x7e,0x00,0x21,0x00,0xb9,0xff, // 13600
0xd1,0xff,0xa6,0x00,0xd2,0xff,0x11,0x00, 0x15,0x00,0x5e,0x00,0x5d,0xff,0x9f,0xfe, // 13616
0x1f,0x00,0x3e,0x00,0x2f,0x00,0x02,0x00, 0xb8,0xff,0x27,0x00,0x91,0xff,0x20,0x00, // 13632
0xbc,0xfd,0x00,0x00,0x86,0x00,0x74,0xff, 0x35,0x00,0x60,0x00,0xa9,0xff,0xd0,0xff, // 13648
0xf1,0xff,0xcb,0xff,0xe0,0xfe,0x0b,0x00, 0x04,0x00,0x74,0xff,0x01,0x00,0x6c,0xff, // 13664
0xf9,0x01,0x2e,0x00,0x12,0x00,0xda,0xff, 0x6e,0x00,0x55,0x00,0xe6,0xff,0xf6,0xfd, // 13680
0x52,0x00,0x1d,0x00,0xe4,0xff,0x4e,0xff, 0x24,0x00,0xfc,0xff,0x63,0x00,0xf7,0x00, // 13696
0xa3,0xff,0x2f,0x00,0x3d,0x02,0xc9,0xff, 0x16,0x00,0x11,0x00,0x01,0x00,0x8c,0x00, // 13712
0xc8,0xff,0xb5,0x00,0xb0,0xfe,0x01,0x00, 0x70,0xff,0xb0,0x01,0xdd,0x00,0x27,0x00, // 13728
0x54,0xff,0x30,0x00,0xb3,0x00,0x48,0x01, 0x51,0xfd,0xd5,0xff,0x0f,0xff,0x9a,0x00, // 13744
0xa1,0xff,0xf5,0xff,0x3c,0x00,0xb0,0xff, 0xd7,0xff,0xf3,0xff,0x91,0xff,0x72,0xfb, // 13760
0x17,0x00,0xe8,0xfd,0x15,0x00,0x06,0x00, 0x9b,0xff,0x65,0x00,0x73,0x00,0xf8,0xff, // 13776
0xda,0x03,0xfd,0x00,0x26,0xff,0xad,0xff, 0xfa,0xff,0x6b,0xff,0x5f,0xff,0x5b,0x00, // 13792
0x04,0x00,0x16,0x00,0xe2,0xff,0x5a,0xff, 0xd0,0xfe,0xfc,0xfe,0x82,0x02,0xde,0x01, // 13808
0xc4,0x00,0xbe,0xff,0x22,0xff,0x29,0xfd, 0xd7,0xff,0x5d,0x00,0x72,0x00,0xc4,0xff, // 13824
0xb2,0x00,0xef,0x01,0x17,0x00,0xf0,0xff, 0x86,0x00,0x83,0x01,0x7e,0xff,0x4b,0x00, // 13840
0x85,0x01,0x1c,0x00,0x78,0xfc,0x08,0x00, 0xf1,0x01,0xbc,0x02,0xd9,0xfe,0x3e,0x02, // 13856
0xf4,0x03,0xe7,0xfa,0x32,0xff,0xf0,0x00, 0xb1,0x03,0x1b,0x00,0x18,0xff,0x2f,0x00, // 13872
0x75,0x02,0x37,0xff,0xa0,0xff,0x22,0x00, 0x18,0x02,0xe4,0x00,0x90,0x01,0x9d,0xff, // 13888
0xd1,0xff,0xf9,0xfd,0x6a,0xff,0xa3,0xff, 0x19,0x00,0x82,0xff,0x91,0x02,0x5d,0xf9, // 13904
0xa6,0x01,0x09,0x03,0x3d,0x01,0x6a,0x02, 0x4f,0x00,0xf7,0xff,0x37,0x00,0xbf,0xff, // 13920
0x64,0x00,0x88,0xff,0x20,0x00,0xd2,0xfe, 0x4c,0x00,0x1f,0x00,0x3c,0xfd,0x50,0x00, // 13936
0x9b,0xff,0x65,0x00,0xfd,0xff,0x7f,0xff, 0xda,0xfc,0x4f,0xff,0xad,0x07,0x0b,0x05, // 13952
0x30,0x00,0x29,0x02,0xc4,0xff,0xb9,0x04, 0x0e,0x00,0x23,0xfe,0x6b,0xff,0x7d,0xff, // 13968
0x4b,0x00,0x3e,0x00,0x3b,0x03,0x1f,0x00, 0xa6,0x03,0xcc,0x00,0x03,0x00,0x9d,0xfd, // 13984
0x28,0xfd,0x15,0x00,0xb2,0xfc,0x91,0xff, 0xee,0xff,0xd8,0x05,0xff,0x00,0x8d,0xfe, // 14000
0xf3,0xfe,0xe5,0xfe,0x2b,0x01,0xd3,0x00, 0xd6,0xfe,0x9e,0x03,0x8d,0x03,0xbd,0xff, // 14016
0xf3,0xff,0xaf,0x02,0xfe,0xfd,0x29,0x00, 0x70,0x00,0x9a,0xff,0x05,0x00,0x17,0xfe, // 14032
0xaa,0xff,0x28,0x00,0x0c,0x00,0x8e,0x00, 0x3e,0x00,0xd9,0xfb,0xfd,0xff,0x43,0x00, // 14048
0x50,0xff,0xc8,0xfd,0xfe,0xff,0x24,0x00, 0xa3,0x00,0x94,0xff,0xf4,0xff,0x21,0x02, // 14064
0x2c,0x00,0x75,0x00,0x29,0x00,0x1d,0xff, 0x19,0x00,0xb5,0x00,0xf4,0x00,0x30,0x00, // 14080
0xdd,0xff,0x9e,0xff,0x56,0x01,0x66,0x00, 0xc0,0xff,0xd1,0xff,0x48,0x00,0xb6,0xff, // 14096
0xcb,0xff,0x25,0x01,0xd0,0x01,0xb7,0x00, 0x5a,0x02,0x0a,0x00,0x21,0x01,0x28,0x00, // 14112
0xbb,0xff,0x58,0xff,0xe1,0x00,0xf3,0xff, 0x99,0xff,0x26,0x00,0xca,0xfe,0x3a,0x01, // 14128
0xea,0xff,0xeb,0xff,0xa8,0xff,0x50,0xff, 0x1a,0x00,0xf6,0xff,0x8b,0xfe,0x7f,0x00, // 14144
0x6e,0x01,0xdb,0xff,0xed,0xfe,0xa8,0xff, 0xab,0x00,0xc4,0xff,0x09,0xff,0xe3,0xff, // 14160
0x28,0x00,0x4b,0xff,0xdb,0xff,0x55,0x00, 0xda,0xff,0xe5,0xff,0xf5,0x00,0x4a,0x01, // 14176
0xeb,0xff,0xde,0x00,0xe4,0xff,0x2f,0x00, 0x7e,0x00,0x00,0x00,0x35,0x00,0x2b,0x00, // 14192
0xa4,0x02,0xd7,0xff,0xdf,0xff,0x33,0x00, 0x1d,0x00,0x0f,0x00,0x0f,0x00,0x3d,0x00, // 14208
0x24,0x00,0x74,0x00,0x75,0x00,0xfd,0xff, 0x3f,0x00,0x21,0x00,0xdb,0xff,0x2e,0x00, // 14224
0x54,0xfd,0x16,0x00,0xe9,0xff,0xfe,0xff, 0xd1,0xff,0x80,0x00,0xd4,0xff,0xc1,0x01, // 14240
0x19,0x00,0x09,0x00,0x39,0x00,0x02,0x01, 0x73,0xff,0xe0,0xff,0xeb,0x00,0xf2,0xfe, // 14256
0x8f,0xff,0x85,0xff,0x9d,0xfd,0xfc,0xff, 0xf4,0xff,0xb1,0xff,0x5c,0x00,0xfd,0xff, // 14272
0xf6,0xff,0xf8,0xff,0xcc,0x00,0xe0,0xff, 0xb1,0xff,0x33,0xfe,0xff,0xff,0xb4,0xff, // 14288
0x75,0x00,0x5b,0x00,0x50,0xff,0x71,0xff, 0x09,0x04,0xab,0xff,0x3a,0x00,0x53,0xff, // 14304
0x62,0x00,0xd5,0xff,0xc0,0xff,0xb9,0xff, 0x92,0xff,0xb7,0xff,0x95,0xff,0xe2,0x01, // 14320
0xc8,0x00,0x14,0x02,0x89,0xff,0xc7,0xff, 0xbd,0xfd,0xf1,0xfa,0x26,0x01,0xe8,0xff, // 14336
0x4a,0xfd,0xd0,0xff,0xe5,0xfe,0x45,0x00, 0xf8,0xff,0x9d,0x02,0xda,0x01,0xf4,0xfb, // 14352
0xe2,0x00,0x79,0xfe,0xd2,0xff,0x05,0x02, 0x70,0x00,0x42,0x00,0x2c,0xfe,0x83,0xfd, // 14368
0x33,0xff,0x9c,0x01,0xf6,0x00,0xc0,0x01, 0xa6,0xfe,0x7d,0x00,0x70,0x02,0x2f,0x04, // 14384
0x40,0x00,0x1e,0xff,0x93,0xff,0x41,0x00, 0x1e,0xfd,0xe3,0xf9,0x4e,0x03,0x63,0x02, // 14400
0xc4,0xfa,0xe7,0xff,0x1d,0x03,0x26,0x01, 0x9e,0xfe,0xa1,0xfe,0x31,0x00,0x25,0xff, // 14416
0x8d,0xfd,0xe2,0x02,0xa0,0xff,0x63,0xff, 0x37,0xfe,0xe5,0xff,0x5c,0xff,0x68,0x00, // 14432
0x41,0xff,0x7d,0x01,0xf2,0xff,0x17,0xff, 0x33,0xff,0x22,0xff,0xa7,0xfc,0xf3,0x03, // 14448
0xe2,0x00,0x28,0x00,0x7d,0x05,0xfd,0x02, 0x78,0x01,0xf5,0xff,0x25,0xff,0x9c,0x01, // 14464
0x22,0xfe,0x2e,0xfd,0xa7,0x00,0x21,0xff, 0x79,0x02,0x75,0x01,0xe2,0xff,0x6b,0x00, // 14480
0xe7,0xff,0x60,0x02,0x92,0x00,0xd9,0x00, 0x68,0xfd,0x7f,0xff,0x61,0x03,0xc4,0xff, // 14496
0x58,0x01,0x77,0x00,0xa1,0xff,0xfb,0xff, 0x38,0x02,0xc1,0x03,0x31,0xfe,0xb5,0xfd, // 14512
0xf7,0x00,0x9f,0xfe,0x65,0x01,0x49,0xfd, 0x3f,0x02,0xcb,0x04,0x85,0x00,0x7d,0x00, // 14528
0x46,0x01,0xb5,0x02,0x81,0xfc,0x32,0x00, 0xfc,0xf9,0x20,0xff,0x0c,0xfc,0xc2,0x00, // 14544
0xd7,0x04,0xd5,0x00,0x43,0x03,0x34,0x03, 0x65,0x00,0x61,0xfd,0x2f,0xfd,0x57,0x03, // 14560
0x36,0x01,0x62,0x01,0xa2,0xff,0x6d,0xff, 0x6e,0x00,0xc5,0xfc,0x1d,0xff,0x7e,0xff, // 14576
0x82,0x00,0x4a,0xff,0x10,0x03,0xe4,0xff, 0x5c,0x00,0xb1,0xff,0x33,0x01,0x17,0x00, // 14592
0x8b,0x00,0x53,0x02,0x0e,0x01,0x59,0xfd, 0xeb,0xfe,0x5f,0xfd,0x1b,0x00,0xd0,0x00, // 14608
0x07,0x01,0xca,0xfe,0xa0,0x00,0x28,0x00, 0x68,0x00,0xc3,0x00,0x0c,0xfd,0x2d,0x00, // 14624
0xa0,0xff,0x63,0x01,0x37,0x00,0x51,0x00, 0xf2,0xfc,0xf5,0xff,0xfd,0xff,0xd1,0x00, // 14640
0xcd,0xfb,0x74,0xfd,0x28,0x02,0xf5,0xff, 0x8c,0x01,0xcc,0xff,0xcd,0xfe,0xbe,0xf6, // 14656
0xb0,0x00,0xcc,0xff,0x39,0xff,0x00,0x01, 0x47,0x03,0xcb,0xff,0x86,0x00,0x6c,0xff, // 14672
0x8b,0x00,0x0a,0x00,0x83,0xfe,0x00,0x02, 0x1e,0x00,0x75,0x00,0x88,0xfe,0xb0,0xfe, // 14688
0x3c,0x03,0x3b,0x06,0x2d,0xfe,0xd2,0x00, 0xdd,0x00,0x98,0xfe,0xa8,0x00,0xfe,0x04, // 14704
0x5a,0x00,0xcf,0xfd,0x2b,0x01,0x20,0x00, 0x5a,0x06,0x22,0x00,0xae,0xff,0xa3,0x00, // 14720
0x93,0x03,0xff,0x01,0xed,0x00,0x05,0xff, 0x44,0xff,0x2d,0xfa,0x55,0x00,0x3a,0x00, // 14736
0x2b,0xfd,0xd9,0x01,0xa6,0x05,0xca,0xfe, 0x01,0xff,0xea,0x04,0xef,0x02,0xc3,0x07, // 14752
0x3d,0x00,0xf7,0xff,0xcd,0xff,0x38,0xff, 0xc9,0xfe,0x0e,0x00,0xad,0xff,0x40,0xfe, // 14768
0xfd,0xff,0x82,0xff,0xd6,0xfe,0x10,0x03, 0x0f,0xff,0x6a,0xff,0x32,0x00,0x10,0x00, // 14784
0x64,0xfd,0x1a,0x01,0x74,0x01,0x0f,0x04, 0x08,0xff,0xe2,0x02,0xd4,0xff,0x15,0x01, // 14800
0xed,0xff,0x36,0xff,0x8d,0x00,0x2d,0x00, 0xc9,0xfe,0xe2,0xff,0x84,0x00,0xfb,0xff, // 14816
0xc9,0x00,0x29,0x00,0xcd,0xff,0x92,0xfb, 0x8a,0xfa,0x73,0x03,0xdb,0xff,0xf4,0xff, // 14832
0x5b,0xff,0x93,0x00,0x2f,0xff,0xfc,0xfb, 0x6f,0xfd,0x9f,0xfe,0xea,0xff,0xf4,0xff, // 14848
0xed,0xfe,0xc4,0x04,0x9b,0xff,0x4f,0x00, 0x12,0x00,0xf0,0x06,0x98,0xff,0x3d,0x01, // 14864
0xb4,0xff,0x6c,0x00,0x24,0x00,0x1b,0x00, 0x12,0x05,0x50,0x00,0x48,0x00,0xe6,0xfd, // 14880
0x2a,0x00,0x10,0xff,0x04,0x05,0x36,0x04, 0xc1,0xff,0x0b,0x00,0x68,0xff,0x61,0xff, // 14896
0x1c,0x02,0x0f,0x01,0xf3,0xfe,0x29,0x00, 0xaa,0xfc,0x11,0x00,0xc9,0xff,0x87,0x00, // 14912
0x83,0xfe,0x60,0xff,0xf6,0xff,0x04,0x00, 0xc7,0xfd,0x8d,0xfa,0xe9,0x03,0x04,0x00, // 14928
0x52,0x03,0x5b,0x00,0x95,0xfe,0xd1,0xfb, 0xa8,0xff,0x54,0x00,0x58,0x00,0x17,0x00, // 14944
0xcd,0x00,0xc4,0x00,0xdc,0xff,0x20,0xfc, 0x4f,0x00,0x29,0x00,0xb8,0xff,0xd0,0x00, // 14960
0x13,0x01,0xe5,0x00,0x01,0xff,0x17,0x00, 0x7f,0x01,0xf8,0x01,0x86,0xf7,0xab,0x01, // 14976
0xa9,0x03,0x86,0xfb,0xc3,0xff,0xb3,0x04, 0x96,0x01,0x8c,0x00,0xad,0xff,0x48,0xfd, // 14992
0xfe,0x02,0x7a,0x00,0x5c,0xff,0xfd,0xff, 0x27,0x02,0x4c,0x03,0x5f,0x00,0x95,0xff, // 15008
0x87,0x00,0xc7,0xfd,0xf5,0xff,0xbc,0xff, 0xd7,0xff,0x2b,0x00,0x48,0x02,0xb7,0xfc, // 15024
0x94,0xff,0xef,0x01,0x10,0x02,0x9b,0x03, 0x21,0x00,0x5c,0xff,0x2f,0x00,0x5d,0xfc, // 15040
0x38,0x00,0xdf,0xfe,0x10,0xfc,0xa9,0xf8, 0xf9,0xff,0x41,0x00,0x93,0xfd,0xcd,0x00, // 15056
0x05,0x00,0x5e,0xfd,0xcb,0x02,0x40,0x00, 0x57,0xfd,0x0f,0x02,0xad,0x03,0xbe,0x04, // 15072
0xf0,0xff,0x02,0x07,0x9a,0x00,0x1b,0x01, 0x70,0xff,0x9b,0xff,0x6e,0x00,0x2e,0x00, // 15088
0x76,0x00,0xab,0xff,0xb7,0x02,0xec,0xff, 0x1f,0x00,0x03,0x00,0xa6,0xff,0x3a,0xfd, // 15104
0xaf,0xfd,0x2c,0x02,0x26,0xfe,0xe4,0xff, 0xd3,0xf9,0x20,0x04,0x02,0xff,0xc4,0xfe, // 15120
0x8e,0xfa,0x37,0x00,0x15,0xff,0x87,0x00, 0x02,0xff,0xc6,0x02,0x86,0x03,0xf1,0xff, // 15136
0x2e,0x00,0xf8,0x02,0xb4,0xfe,0x70,0x00, 0xd7,0xfb,0x4e,0x02,0x40,0xff,0xd2,0xfe, // 15152
0xbc,0x00,0xac,0xfe,0xf7,0xfe,0x61,0x00, 0x4f,0x01,0x74,0xfe,0x16,0x01,0x19,0x01, // 15168
0x3a,0x00,0x5f,0x00,0x38,0xff,0xd2,0xff, 0x65,0x02,0x21,0x00,0x18,0x02,0xf9,0xff, // 15184
0xf2,0xfe,0xc1,0xfe,0x5c,0xff,0x6e,0x01, 0x9e,0x01,0x1d,0x01,0x12,0x00,0x81,0xfd, // 15200
0x58,0x06,0x99,0xff,0xd8,0x00,0x3d,0x02, 0xb6,0x00,0x24,0x00,0x66,0xff,0xb8,0x00, // 15216
0x34,0x00,0x51,0x00,0x4c,0xff,0x18,0x00, 0x3c,0x00,0x36,0x00,0x22,0x00,0x69,0xfe, // 15232
0x1f,0xff,0xb7,0x00,0x74,0x00,0x25,0xf9, 0xb7,0x00,0x3c,0x00,0x58,0xfe,0xb0,0x00, // 15248
0xe5,0xfb,0xef,0xfd,0x25,0xff,0x90,0x00, 0xa1,0x01,0x5b,0xfe,0x69,0xff,0x2d,0x00, // 15264
0x49,0x01,0xf9,0x05,0x29,0x00,0x11,0xff, 0xdb,0xff,0x2f,0xff,0x7d,0x00,0xd4,0xff, // 15280
0x60,0xfa,0xbf,0x00,0xfe,0xfe,0xd2,0xff, 0x86,0x01,0x84,0x04,0x99,0xff,0xfd,0xfe, // 15296
0x57,0x05,0x57,0xfe,0x54,0xfa,0x58,0xff, 0x91,0x01,0x16,0xfe,0x30,0xfa,0x02,0xfd, // 15312
0x34,0xff,0x01,0x00,0xe1,0xff,0x0a,0xff, 0x1c,0x01,0xc4,0xff,0x0d,0xff,0x34,0xff, // 15328
0x66,0x00,0xcc,0x00,0xb8,0xfe,0xd1,0xfa, 0x45,0x00,0x4d,0xff,0xd0,0x00,0x5a,0x00, // 15344
0x2f,0xff,0xce,0xfd,0x77,0x00,0xcd,0xff, 0x27,0x01,0x0e,0x01,0x7d,0x00,0x3b,0x01, // 15360
0x12,0x00,0x0c,0x00,0x25,0x00,0x4f,0xff, 0xf8,0x00,0x56,0x00,0x53,0x02,0x57,0x00, // 15376
0x26,0x01,0xb1,0x00,0x5d,0x00,0x7a,0x00, 0x6d,0x02,0xff,0xfd,0x9d,0xfe,0x7a,0x00, // 15392
0x2f,0xff,0x84,0x01,0x0a,0x01,0xc1,0x04, 0x86,0xff,0xc5,0xfe,0xc8,0x04,0x05,0x01, // 15408
0x04,0x00,0x71,0xfd,0x61,0x03,0xc2,0xff, 0xfe,0xff,0x4b,0xfb,0x02,0xff,0xed,0xff, // 15424
0xda,0xfe,0x43,0x01,0x5b,0x00,0xc3,0xfc, 0x22,0xff,0xc3,0x04,0x0f,0x02,0x30,0xfe, // 15440
0x50,0xfc,0x54,0x00,0x63,0xff,0x1c,0xff, 0x98,0x01,0x6f,0x00,0xa2,0x00,0x3e,0x01, // 15456
0xbd,0x00,0xb1,0xfe,0x6a,0xff,0x7c,0xff, 0xa2,0x00,0xa1,0x01,0xd1,0xff,0x4d,0x01, // 15472
0x95,0x00,0x41,0x00,0x6c,0xff,0x15,0x02, 0x3e,0xfe,0x7d,0x00,0x93,0xff,0xf4,0x00, // 15488
0x39,0xff,0xa9,0xff,0xd7,0x00,0xda,0xff, 0x76,0x03,0x07,0xfe,0x72,0xfe,0x4c,0xff, // 15504
0xea,0x00,0xe8,0xff,0xd5,0xff,0x24,0x01, 0x99,0xff,0x01,0x00,0x9f,0x01,0x72,0x03, // 15520
0xf6,0xff,0x70,0xff,0x00,0xff,0x65,0xfe, 0x43,0x01,0x26,0xff,0xe3,0x00,0x22,0xff, // 15536
0xc6,0x00,0xe4,0xff,0xdf,0x02,0xee,0xfe, 0x0a,0x01,0xc9,0xfd,0x1e,0x02,0x01,0x01, // 15552
0xa3,0x00,0x76,0x00,0x25,0x02,0x58,0x02, 0xe5,0x00,0xb8,0xfe,0xd5,0xff,0xf5,0xff, // 15568
0x62,0xfb,0xfe,0xfd,0xa2,0xff,0x3d,0xff, 0xd2,0xff,0x26,0x03,0x96,0x01,0x53,0xfe, // 15584
0x7b,0x00,0xfa,0x00,0x16,0x02,0xa8,0x00, 0x1f,0xff,0x6d,0x00,0xba,0x00,0x3a,0x00, // 15600
0x98,0xfc,0x9d,0x00,0x3a,0x00,0x00,0x01, 0xd5,0xff,0x13,0xfa,0xc6,0x00,0x35,0x01, // 15616
0x9a,0xfa,0xe3,0x00,0x4e,0xff,0xcf,0xfe, 0xf6,0xff,0xa9,0xff,0x20,0x01,0xc2,0x00, // 15632
0xc8,0xfc,0x51,0xff,0x88,0xff,0x73,0x00, 0x8a,0xff,0x7e,0x00,0x0c,0xff,0x52,0x00, // 15648
0xbd,0xfc,0x9a,0x00,0x31,0x00,0x23,0x00, 0x2f,0x00,0xae,0xfe,0x6e,0x01,0xec,0xfe, // 15664
0x43,0xff,0xcb,0xfe,0x81,0xff,0xb2,0xff, 0xf1,0x00,0x8e,0xff,0x6a,0x00,0xa0,0xff, // 15680
0x74,0x00,0xc8,0xfe,0xad,0xfe,0xa4,0xfe, 0xaa,0xff,0x97,0x00,0xe6,0xff,0xe3,0x00, // 15696
0x4f,0xff,0x0d,0x01,0x8a,0x00,0x77,0xff, 0x77,0x00,0xf6,0xff,0x05,0x00,0xb1,0xff, // 15712
0xc4,0xff,0x04,0xff,0x7f,0xfe,0xd7,0x00, 0x53,0x01,0xb8,0x07,0xaf,0xff,0x4d,0xff, // 15728
0xb4,0xff,0x27,0x01,0xdc,0xff,0xed,0xff, 0xe9,0xfe,0x02,0x02,0xdb,0x03,0x48,0x00, // 15744
0x21,0x00,0xf3,0xfa,0x07,0x00,0x2f,0x00, 0x51,0xfe,0x6f,0xff,0x20,0x00,0xb6,0xfd, // 15760
0x13,0x02,0x6f,0x06,0xd3,0xfc,0x7b,0xff, 0x60,0xff,0xe8,0xff,0x5b,0xff,0xdb,0x01, // 15776
0xf4,0xff,0x57,0x00,0xfd,0xff,0xbb,0xfe, 0x60,0xf1,0xe3,0xff,0x64,0xff,0x0f,0x00, // 15792
0x34,0x00,0xe8,0xff,0x70,0xff,0xc8,0xfe, 0xfc,0xff,0x21,0x00,0xd8,0x00,0x08,0x00, // 15808
0x00,0xff,0xb5,0x00,0x52,0x05,0x3b,0x01, 0x7b,0xfe,0x85,0x00,0x4a,0xff,0xff,0xfd, // 15824
0x50,0xfe,0x95,0x02,0x38,0xff,0x8c,0x00, 0xae,0xf8,0x61,0xff,0x69,0xff,0x3c,0x00, // 15840
0x8c,0xff,0x6d,0x02,0x3e,0x00,0x8f,0xff, 0x4b,0x00,0x1b,0x02,0xe8,0xfe,0xa0,0xff, // 15856
0x9a,0x00,0x99,0xfc,0x95,0xfe,0x26,0x01, 0x2b,0xfe,0x64,0xfd,0xf6,0xfe,0xfc,0xff, // 15872
0x1b,0xff,0x73,0xff,0xfa,0xff,0x75,0x00, 0x07,0x01,0x07,0x00,0x0c,0x00,0x49,0x03, // 15888
0x15,0x00,0xab,0x00,0x0c,0xff,0x95,0xfd, 0x72,0x00,0x78,0x00,0x86,0xff,0xc1,0x00, // 15904
0xcc,0x03,0x32,0xff,0x75,0xff,0x80,0xff, 0xc9,0xff,0x22,0xfd,0xda,0xff,0xd9,0xfd, // 15920
0xc5,0xff,0xd6,0xff,0x07,0x00,0x86,0xff, 0x5f,0x00,0x92,0xff,0x30,0x00,0x18,0x00, // 15936
0xb8,0xff,0xc4,0x00,0x58,0x00,0xd9,0x00, 0xa2,0x01,0x17,0x01,0xe4,0xff,0xa3,0xff, // 15952
0x6c,0x00,0x62,0xff,0xfa,0xfe,0xd7,0x01, 0x08,0x06,0x0a,0x03,0xc5,0x00,0x08,0x01, // 15968
0x84,0xfe,0x10,0xff,0xef,0xff,0xc7,0xfe, 0x95,0xff,0xb2,0xfe,0xdc,0xff,0xb7,0x02, // 15984
0x99,0x00,0xe0,0xff,0x08,0x00,0xa3,0xff, 0xb5,0xff,0xe7,0xff,0x97,0x00,0x38,0xfd, // 16000
0xad,0xff,0x78,0x00,0x72,0xff,0x50,0xff, 0x33,0x00,0x22,0x00,0x49,0x02,0x4c,0x00, // 16016
0x77,0x00,0x86,0x01,0xf7,0x00,0xe6,0xff, 0x47,0x00,0x65,0xfe,0x85,0x00,0xca,0x02, // 16032
0x92,0x00,0xb3,0x01,0x45,0x00,0x01,0x00, 0x1b,0x01,0xc0,0xff,0x05,0x00,0x6b,0x00, // 16048
0xea,0xff,0xf3,0xfe,0x27,0xff,0x96,0x00, 0x32,0x00,0xbb,0xff,0x1d,0x00,0xe7,0xfe, // 16064
0x52,0xff,0x21,0x00,0xfb,0xff,0x7a,0x00, 0x09,0x00,0x39,0x00,0x1a,0x03,0x11,0xff, // 16080
0x29,0x00,0xc6,0xff,0xbf,0xff,0xf4,0xff, 0xf6,0xff,0xbe,0xfd,0xa7,0xff,0xbc,0x00, // 16096
0xe4,0x00,0xfa,0xfe,0xcf,0xff,0xb8,0xfe, 0x4d,0x00,0x6f,0x00,0x78,0x00,0x2d,0x00, // 16112
0xab,0xff,0x70,0x01,0x74,0x02,0xc5,0xff, 0xda,0xff,0xc6,0x00,0x06,0x00,0xde,0xfd, // 16128
0x01,0x00,0xa5,0x00,0x8f,0xff,0xe0,0xfd, 0x91,0x01,0x03,0x01,0x9a,0xff,0xef,0xfc, // 16144
0xdc,0xff,0xb7,0xff,0xdd,0xfe,0xd2,0xfe, 0xbd,0xff,0x38,0x00,0x1b,0x00,0x86,0x00, // 16160
0xd6,0xff,0xc3,0xff,0x46,0x00,0xac,0xff, 0x6c,0x00,0x87,0xff,0x12,0xff,0xb2,0xff, // 16176
0xc6,0xff,0x39,0x00,0x85,0xff,0xd2,0xff, 0xb9,0xff,0xe2,0xff,0x15,0x03,0xd1,0xff, // 16192
0xa5,0xff,0xdd,0xff,0x2b,0xfe,0x5d,0x00, 0x6f,0xfe,0x72,0xff,0xe0,0x00,0x18,0x02, // 16208
0xaf,0xff,0x52,0xff,0x74,0x01,0xa1,0xff, 0x8a,0x00,0x97,0xfd,0x81,0xff,0xdc,0xff, // 16224
0xf0,0x00,0x88,0xfe,0xd1,0xfd,0x01,0xff, 0x45,0x00,0xc8,0x00,0x7d,0x00,0x5a,0x01, // 16240
0xc7,0xff,0x66,0xff,0x7a,0x00,0x07,0xfe, 0x51,0x03,0x91,0xff,0x01,0x02,0x4a,0x01, // 16256
0x27,0x00,0x11,0xff,0x0a,0x00,0x72,0x01, 0x46,0x00,0xb1,0xff,0x87,0xff,0xcd,0xfd, // 16272
0x08,0x00,0x9f,0x04,0xeb,0x03,0x2b,0x00, 0x8d,0xfb,0x5e,0xfd,0xef,0xff,0x16,0x00, // 16288
0x12,0x04,0x01,0x01,0xa9,0x02,0xfa,0xff, 0xcc,0xfe,0x1b,0x01,0x1e,0xff,0x34,0xff, // 16304
0xde,0xff,0xc0,0x00,0x23,0x01,0x4d,0x00, 0x1c,0xfc,0x31,0xff,0xa9,0xff,0x87,0x00, // 16320
0x9d,0xfd,0x58,0xfe,0xb3,0x00,0xb9,0xfe, 0x7e,0x01,0x6a,0x00,0x4e,0xff,0xc4,0xfe, // 16336
0x53,0x03,0xf7,0xfd,0x27,0xfd,0x94,0x00, 0x66,0x03,0x3c,0x00,0x8c,0xff,0x26,0x00, // 16352
0x10,0x00,0xdb,0xff,0x32,0xfe,0xb3,0x01, 0xcd,0xff,0xc6,0xff,0x41,0xff,0x11,0xfb, // 16368
0xaa,0x00,0x41,0x02,0x75,0xff,0x69,0x01, 0x87,0xff,0xed,0x00,0x2f,0x03,0x83,0x02, // 16384
0x9d,0xff,0x77,0xfe,0xa2,0x04,0x9b,0xff, 0x4d,0x03,0xdf,0x01,0x72,0x01,0xed,0x01, // 16400
0xb7,0x01,0x85,0x02,0xc0,0x00,0x2f,0x00, 0x4d,0xfd,0x10,0xfe,0x9c,0xfe,0x86,0x00, // 16416
0xdc,0xfc,0x7d,0x05,0xd4,0x00,0x78,0x00, 0x00,0xff,0x44,0x01,0x0c,0x02,0x5a,0x03, // 16432
0xc5,0xfe,0xe2,0x00,0x4c,0x00,0x45,0x00, 0x39,0xfa,0xc2,0x00,0x9e,0xff,0x56,0xff, // 16448
0x0a,0x00,0xdd,0xfc,0x6b,0xfe,0xcb,0x01, 0xd9,0xfa,0x2b,0xff,0xd3,0x00,0xe4,0xff, // 16464
0x6a,0xfd,0xa8,0x01,0x2d,0x00,0x31,0x01, 0x86,0xfb,0x03,0x02,0xd1,0x00,0xb9,0x00, // 16480
0x04,0x01,0x81,0xff,0xef,0xff,0x7e,0x00, 0xda,0xf9,0x90,0x00,0x1a,0xff,0x5e,0x00, // 16496
0x7e,0x01,0xdb,0xfe,0xbf,0x02,0x99,0xff, 0xc4,0xfb,0x10,0x03,0x1e,0x01,0x2e,0x00, // 16512
0x63,0xff,0xe9,0xfe,0x0c,0xff,0x17,0xfc, 0xfc,0xfd,0x92,0xff,0x3d,0xfe,0xf6,0xfd, // 16528
0xf3,0xfe,0x40,0x01,0xcb,0xfd,0x97,0x02, 0x02,0x00,0xb3,0x01,0xdd,0xfe,0xa4,0x00, // 16544
0xca,0xff,0xb0,0x00,0x11,0x01,0x2a,0x01, 0x90,0x03,0xa9,0xff,0x43,0x00,0x00,0xff, // 16560
0x1c,0x00,0x48,0xfd,0x65,0x03,0xd0,0x03, 0xee,0xff,0x1c,0x00,0x3e,0x00,0x5d,0xff, // 16576
0x9e,0x01,0x79,0x02,0xd6,0xfe,0x0f,0x00, 0x2a,0xfd,0x50,0xff,0x35,0x00,0x26,0x00, // 16592
0x58,0xfc,0xe3,0xff,0xef,0xff,0x5f,0x00, 0x10,0xfd,0x10,0xf8,0x5c,0x05,0x98,0xff, // 16608
0x80,0x05,0x3d,0x01,0xbd,0xfc,0x72,0xfb, 0xb5,0xff,0x13,0x00,0x72,0x00,0x65,0x00, // 16624
0x8b,0x03,0xab,0xff,0x27,0x00,0x52,0xfd, 0x06,0x00,0xda,0xff,0x31,0xff,0x52,0x01, // 16640
0x9a,0x00,0xce,0x00,0x2c,0xfe,0x2d,0x00, 0xb4,0x00,0x38,0x02,0x48,0xf7,0xef,0x03, // 16656
0xa6,0x03,0x89,0xfc,0x3e,0x00,0x6c,0x05, 0x48,0x01,0x9b,0xfe,0xb7,0xff,0x9c,0xfd, // 16672
0x7b,0x04,0xb8,0x00,0xdd,0xff,0x78,0x00, 0x38,0x02,0x9c,0x04,0x02,0x00,0x67,0x01, // 16688
0x14,0x00,0x79,0xfe,0x20,0x00,0x97,0x00, 0xb1,0xfe,0x5c,0x00,0x08,0x02,0x9e,0xfd, // 16704
0x5b,0x00,0xc4,0x02,0x71,0x01,0x3e,0x02, 0x4e,0x00,0x39,0x01,0xc8,0xff,0x9c,0xfc, // 16720
0x80,0xff,0xd4,0xff,0x82,0xfb,0x6a,0xf7, 0x12,0x00,0x8d,0xff,0x6b,0xfd,0x66,0x01, // 16736
0xb0,0xff,0x58,0xfd,0xf5,0x01,0x6d,0x00, 0x89,0xfc,0xc1,0x01,0x14,0x02,0x51,0x03, // 16752
0x55,0xff,0x2b,0x08,0x57,0x01,0x54,0x02, 0x28,0x00,0x9e,0xff,0xc5,0xff,0x2f,0x00, // 16768
0xf2,0xff,0x09,0x00,0xb1,0x01,0xf2,0xff, 0x5b,0x01,0xe8,0xff,0xbc,0xff,0x5e,0xfe, // 16784
0x83,0xfc,0x28,0x03,0x3a,0xfe,0x87,0x00, 0xc0,0xfa,0xb6,0x03,0x32,0xff,0xe4,0xfd, // 16800
0xe3,0xf7,0x86,0xff,0xe3,0xfe,0xbf,0xff, 0x4c,0xff,0xb8,0x01,0x2a,0x02,0xda,0xff, // 16816
0x48,0x00,0xb4,0x01,0x84,0xfe,0xf9,0x00, 0x79,0xfc,0xfe,0x01,0x8c,0x00,0xc7,0xff, // 16832
0x8b,0xff,0x82,0x01,0x76,0x00,0x51,0xfe, 0xae,0xff,0x72,0x00,0x56,0x00,0x41,0xff, // 16848
0x30,0xff,0xdf,0xfe,0xb8,0xff,0x7c,0x01, 0x52,0x00,0x29,0xfb,0x24,0xfd,0x64,0xff, // 16864
0x9d,0x00,0xca,0x04,0xea,0xff,0x33,0xff, 0xfa,0x02,0x6e,0xff,0xa7,0xff,0xce,0x03, // 16880
0xe3,0xff,0x5e,0xff,0x7e,0xff,0x3c,0x00, 0xd5,0xfc,0x87,0xfd,0x3a,0x05,0x58,0x00, // 16896
0xf0,0xff,0x42,0x00,0x11,0x01,0x34,0x00, 0xf9,0x01,0x39,0x00,0x81,0xff,0x86,0x00, // 16912
0x91,0x00,0x32,0x00,0x05,0x03,0x10,0x01, 0x2e,0xff,0xdf,0xfe,0x94,0x01,0x7b,0x00, // 16928
0x90,0x00,0x97,0xfe,0x2d,0xff,0xb2,0xf9, 0x61,0x00,0x91,0x00,0x07,0x00,0x66,0xff, // 16944
0xa5,0x00,0x2a,0xff,0x48,0x00,0xb3,0x00, 0x3b,0x00,0xd6,0xff,0x6f,0x00,0x88,0x00, // 16960
0x82,0xff,0x16,0xf5,0x5e,0x00,0xbc,0xfe, 0xc2,0xfe,0x00,0xff,0x5f,0x00,0xf2,0xfe, // 16976
0x25,0x02,0x81,0x01,0x25,0x00,0x53,0xfd, 0xd9,0x01,0x01,0x00,0x02,0xff,0xd1,0xfe, // 16992
0x3e,0x00,0xb5,0xfe,0x87,0x00,0xd2,0x00, 0x75,0xff,0x5a,0x00,0x5a,0x00,0xcb,0x00, // 17008
0x62,0xfd,0x5d,0xfe,0x45,0x05,0x03,0x00, 0x67,0xff,0xe3,0x00,0x56,0xff,0x34,0xfe, // 17024
0x55,0x00,0xef,0x00,0x9a,0x01,0xd3,0xff, 0xc3,0xff,0x0d,0xff,0x03,0xfd,0xd8,0xff, // 17040
0x36,0xff,0x59,0x00,0x3f,0xff,0x27,0xff, 0xc9,0xff,0xf8,0xfe,0x32,0xff,0x83,0x00, // 17056
0x86,0xfd,0xdb,0xff,0x4f,0xff,0xfe,0xfe, 0x01,0x02,0x43,0xfe,0x1b,0xff,0xf0,0xff, // 17072
0x4d,0x01,0xbf,0xff,0xc5,0xff,0xda,0x01, 0x77,0x00,0xb1,0x00,0x58,0x01,0xfa,0xff, // 17088
0xa7,0x00,0xdf,0xff,0xd7,0x01,0x32,0xff, 0xcd,0xff,0xae,0xff,0xea,0x00,0x3d,0xfc, // 17104
0x7d,0x00,0x57,0xff,0x10,0x00,0xc5,0xfd, 0x94,0xff,0xd2,0xff,0xb8,0xfe,0xf2,0xff, // 17120
0x83,0x00,0x8c,0xfa,0x30,0x00,0x0f,0x01, 0x61,0xfd,0x54,0xf9,0x32,0x00,0xb8,0xff, // 17136
0x16,0x02,0xa3,0xfe,0x3d,0xff,0xd3,0x00, 0xe9,0xff,0xae,0x00,0x1c,0x00,0xaa,0xfe, // 17152
0xb7,0xff,0xe1,0xff,0xaf,0x00,0xec,0xff, 0x1e,0x00,0x3b,0xfe,0x48,0x02,0x85,0x00, // 17168
0x93,0x00,0xd9,0xff,0x22,0x01,0x79,0xff, 0x6a,0xff,0xe0,0x03,0xb7,0x05,0xe5,0x03, // 17184
0x8d,0x03,0x34,0x00,0x5d,0x00,0x88,0xff, 0x3c,0x00,0xda,0x00,0x2c,0xff,0x0b,0x00, // 17200
0x44,0x00,0x2e,0x00,0xfc,0xfe,0xa5,0x02, 0x29,0x00,0x50,0x00,0x5c,0xfd,0x40,0xff, // 17216
0x0c,0x02,0x3e,0xff,0x42,0xfb,0x8f,0x00, 0x06,0x02,0xee,0xff,0x81,0xfd,0x6c,0xff, // 17232
0x7e,0x00,0x05,0x00,0x7d,0xfd,0xda,0xfe, 0x1d,0x00,0x7e,0xfe,0x0f,0x00,0x92,0xff, // 17248
0x30,0x00,0xb2,0xff,0xd2,0x02,0x7a,0x03, 0xf3,0xff,0x67,0x00,0x01,0x00,0x5f,0xff, // 17264
0xe6,0x00,0xaa,0x00,0x0c,0x00,0xfe,0xff, 0x95,0x07,0xe9,0xff,0x83,0xff,0xfa,0xff, // 17280
0x61,0x01,0x14,0x00,0xb4,0xff,0xf1,0xfe, 0x04,0x00,0xd5,0x00,0x79,0x01,0xe9,0xff, // 17296
0xd7,0x00,0xd4,0xff,0x01,0x00,0xc6,0xff, 0xff,0xfc,0xa3,0xff,0x93,0x00,0xcc,0xff, // 17312
0xfd,0x00,0xf5,0x00,0xdc,0xff,0xbb,0x02, 0xf8,0xff,0xaa,0xff,0x75,0x00,0x41,0x00, // 17328
0x0b,0x01,0xe3,0xff,0x43,0x00,0x8f,0xfe, 0x15,0x01,0xbc,0xff,0xa6,0xf9,0x92,0xff, // 17344
0x16,0xff,0x0b,0x00,0x49,0x00,0xf7,0xff, 0x3d,0x00,0x8c,0x00,0x7b,0x00,0x6e,0xff, // 17360
0x98,0xfd,0xb9,0xfd,0x45,0x00,0xc6,0x00, 0xfe,0xff,0xe6,0x00,0xfa,0xff,0x07,0xfd, // 17376
0x48,0x02,0x46,0x00,0xb6,0xff,0x3c,0xfe, 0x09,0x00,0xaf,0xff,0xc0,0xff,0x18,0x00, // 17392
0xac,0x00,0x52,0xff,0x4d,0x01,0xa8,0x00, 0xa0,0xff,0x3c,0x02,0x31,0x01,0x69,0x00, // 17408
0x8e,0x02,0xa8,0x01,0xd8,0x01,0x21,0x00, 0x55,0x00,0x04,0x00,0xfc,0xff,0xcf,0xfe, // 17424
0x2c,0xff,0x96,0xff,0xa5,0x00,0xac,0x00, 0x1e,0xff,0x31,0xff,0x37,0xff,0xa4,0xff, // 17440
0x78,0xff,0x40,0xff,0xa7,0x00,0x58,0xff, 0x92,0x00,0x8e,0x02,0x6d,0xff,0x22,0x00, // 17456
0xc7,0x00,0x8d,0xfd,0xf0,0xfd,0x76,0xfe, 0xfa,0xfd,0x66,0x00,0x99,0xff,0xef,0xfe, // 17472
0x67,0x00,0xcf,0xff,0xac,0xfe,0xbc,0xff, 0xbb,0x00,0xa5,0xff,0x20,0x00,0xea,0xfd, // 17488
0xa6,0x00,0x55,0x00,0xed,0xfe,0x7e,0x00, 0xf0,0x00,0x43,0xff,0x4a,0x02,0x43,0x00, // 17504
0x35,0xff,0xbb,0xff,0x8d,0x02,0x4f,0xff, 0x6c,0x00,0xcc,0x01,0x75,0x00,0xe3,0x00, // 17520
0x38,0x00,0xaf,0x00,0x42,0x00,0x30,0x01, 0xe3,0xff,0x67,0x00,0x8d,0xfe,0xed,0xff, // 17536
0xa6,0xff,0xad,0xff,0x06,0x00,0x01,0x00, 0x0c,0xff,0x94,0x00,0x31,0x00,0x20,0x00, // 17552
0x88,0xfe,0xa4,0x01,0x60,0x00,0x4c,0xff, 0xb5,0xfe,0xb0,0x00,0x19,0xff,0x58,0xff, // 17568
0x30,0x00,0x5c,0x00,0x8c,0xfd,0x95,0xff, 0x83,0xff,0xc4,0xfe,0xce,0xff,0xfe,0xff, // 17584
0x45,0x01,0x6b,0x00,0x01,0xff,0x23,0x00, 0x42,0xff,0xdf,0x00,0xc7,0x01,0xc3,0xff, // 17600
0x92,0x00,0xe1,0xff,0x3c,0xff,0xe7,0xff, 0x96,0xff,0xb1,0xff,0x7a,0x00,0x2c,0x01, // 17616
0xbc,0x00,0x3e,0xff,0xe6,0x01,0x1d,0x00, 0xb1,0xff,0x0c,0x00,0x9d,0xff,0x40,0x00, // 17632
0x49,0xfe,0x18,0x00,0x3e,0xff,0x78,0xff, 0xea,0xff,0xfb,0x01,0xd9,0xff,0xfd,0xfd, // 17648
0x91,0xfe,0x2f,0x00,0x32,0x01,0x85,0x03, 0x7d,0xfe,0x19,0x00,0x98,0xfe,0x39,0x01, // 17664
0x54,0xff,0xdf,0xff,0x08,0x01,0xb9,0xff, 0x07,0x01,0xa0,0xff,0x37,0x00,0x55,0x00, // 17680
