#include "model.nncu.h"


const unsigned char tracking_model[] __ALIGNED(16) = {
0x4e,0x4e,0x43,0x55,0x01,0x00,0x01,0x00, 0x01,0x0e,0x04,0x00,0x07,0x00,0x00,0x00, // 16
0x02,0x00,0x00,0x00,0x00,0x00,0x00,0x00, 0x80,0x00,0x00,0x00,0x02,0x00,0x00,0x00, // 32
0x00,0x01,0x00,0x00,0x80,0x00,0x00,0x00, 0x80,0x00,0x00,0x00,0x00,0x00,0x00,0x00, // 48
0x00,0x00,0x00,0x00,0x00,0x00,0x00,0x00, 0x00,0x00,0x00,0x00,0x00,0x00,0x00,0x00, // 64
0x00,0x00,0x00,0x00,0x00,0x00,0x00,0x00, 0xff,0xff,0xff,0xff,0xff,0xff,0xff,0xff, // 80
0x43,0x4d,0x44,0x00,0x20,0x00,0x80,0x00, 0x50,0x00,0x00,0x00,0x00,0xfe,0x00,0x00, // 96
0x6d,0x6f,0x64,0x65,0x6c,0x31,0x2e,0x31, 0x34,0x2e,0x68,0x35,0x0d,0x0a,0x53,0x61, // 112
0x74,0x20,0x46,0x65,0x62,0x20,0x20,0x36, 0x20,0x31,0x33,0x3a,0x30,0x36,0x3a,0x31, // 128
0x31,0x20,0x32,0x30,0x32,0x31,0x0d,0x0a, 0x31,0x34,0x20,0x62,0x69,0x74,0x73,0x0d, // 144
0x0a,0x6e,0x6e,0x63,0x75,0x20,0x76,0x65, 0x72,0x20,0x31,0x2e,0x30,0x62,0x20,0x32, // 160
0x30,0x32,0x30,0x2e,0x30,0x37,0x2e,0x31, 0x34,0x0d,0x0a,0x00,0x00,0x00,0x00,0x00, // 176
0x00,0x00,0x00,0x00,0x00,0x00,0x00,0x00, 0x00,0x00,0x00,0x00,0x00,0x00,0x00,0x00, // 192
0x00,0x00,0x00,0x00,0x00,0x00,0x00,0x00, 0x00,0x00,0x00,0x00,0x00,0x00,0x00,0x00, // 208
0x43,0x4d,0x44,0x00,0x20,0x01,0x01,0x00, 0xd0,0x00,0x00,0x00,0x10,0x02,0x00,0x00, // 224
0x00,0x01,0x00,0x04,0x07,0x09,0x06,0x0c, 0x00,0x00,0x00,0x00,0x00,0x00,0x00,0x00, // 240
0x01,0x00,0x07,0x00,0x01,0x00,0x01,0x00, 0x40,0x00,0x01,0x00,0x00,0x00,0x00,0x00, // 256
0x0a,0x00,0x0d,0xff,0xff,0xff,0xff,0xff, 0x00,0x01,0x01,0x00,0x80,0x00,0x00,0x00, // 272
0x00,0x00,0x03,0x00,0x0e,0x00,0x00,0x00, 0x00,0x00,0x00,0x00,0x00,0x00,0x00,0x00, // 288
0x00,0x00,0x00,0x00,0x00,0x00,0x00,0x00, 0x00,0x00,0x00,0x00,0x00,0x00,0x00,0x00, // 304
0x00,0x00,0x00,0x00,0x00,0x00,0x00,0x00, 0x00,0x00,0x00,0x00,0x00,0x00,0x00,0x00, // 320
0x00,0x00,0x00,0x00,0x00,0x00,0x00,0x00, 0x80,0x03,0x00,0x00,0x80,0x00,0x00,0x00, // 336
0x5c,0xf2,0x7d,0xff,0x52,0xf9,0xfd,0x03, 0xc7,0xf7,0x32,0xfd,0x94,0xf8,0x52,0xfa, // 352
0xcb,0x06,0x53,0x01,0x69,0x08,0x60,0x04, 0x93,0xfc,0x1b,0xfa,0x01,0xf9,0x4e,0x07, // 368
0x06,0xfe,0x9a,0xff,0x74,0xfd,0x0b,0x02, 0x75,0xfa,0x8d,0x05,0x04,0xfd,0x0c,0x00, // 384
0xb8,0xfc,0x42,0x00,0x83,0x04,0x9d,0x03, 0xb7,0x04,0x58,0xfe,0x17,0x03,0x05,0xfc, // 400
0x15,0x01,0x81,0x02,0x7d,0x06,0xc6,0x02, 0xa9,0xff,0xda,0x04,0x56,0xfc,0x18,0x00, // 416
0x25,0xfe,0x02,0x08,0x2c,0x04,0x3f,0xfe, 0xe8,0x02,0x0d,0xfb,0xc2,0x01,0xab,0x05, // 432
0x11,0x05,0xa3,0x05,0x6c,0x01,0xc3,0x02, 0xa9,0xfa,0x81,0x05,0xc2,0xfd,0x48,0x01, // 448
0xf8,0x00,0x2f,0xfe,0x95,0x00,0x98,0x02, 0x95,0xf9,0x4a,0x04,0xe7,0x06,0x86,0xfe, // 464
0x8e,0xfc,0x4b,0x07,0xfa,0xff,0x0f,0xfa, 0x16,0xff,0x8b,0x05,0x5d,0xfc,0xc9,0x01, // 480
0xf9,0x01,0x71,0x02,0x91,0x04,0x84,0x0a, 0xaf,0xf3,0xef,0xfe,0xa2,0x06,0x21,0x01, // 496
0x30,0xfe,0xa1,0xf7,0x8c,0xf7,0x07,0xff, 0xf9,0xff,0xa2,0x00,0xc3,0xfa,0x2c,0x05, // 512
0x18,0xfb,0x4e,0xf8,0x38,0xf5,0x42,0x03, 0x85,0xfb,0xa8,0x00,0x0c,0x00,0x17,0xfc, // 528
0xce,0x01,0x6e,0x04,0xe0,0x03,0x4e,0xfb, 0x3e,0x02,0xf1,0xf7,0x0e,0x02,0x48,0x02, // 544
0x9b,0x02,0x0a,0x06,0xc3,0xf7,0x99,0x01, 0xc7,0xfb,0xe4,0x00,0x32,0x01,0x4b,0xff, // 560
0x88,0x0c,0x33,0x0a,0x8f,0x02,0xa7,0xf4, 0xfb,0x0b,0x7c,0xfd,0x7a,0xf6,0xb8,0xfe, // 576
0xd9,0x00,0x81,0x00,0x77,0x08,0x63,0xfb, 0xbc,0x05,0x07,0x05,0xf6,0x00,0x31,0xfd, // 592
0xb2,0x04,0x63,0xfb,0xf3,0xff,0x86,0xff, 0x2e,0x04,0xd2,0xff,0x64,0xfe,0x33,0xff, // 608
0x64,0xfb,0xf6,0x03,0x54,0x04,0x7a,0x01, 0x57,0x02,0x51,0x01,0x81,0xff,0xb6,0xf8, // 624
0xad,0xf7,0x52,0xf1,0xf8,0xf2,0xbb,0x0d, 0xa8,0xfb,0xfd,0xfb,0xf2,0x08,0xf7,0xf9, // 640
0x00,0xfa,0x52,0xf7,0x2f,0x05,0x8b,0xfa, 0x71,0x03,0xb0,0xf7,0xef,0x02,0x12,0xfb, // 656
0x71,0x01,0xd8,0xf4,0xf6,0x00,0x50,0x02, 0x52,0xfe,0x03,0xfb,0x76,0xfe,0xe3,0xf6, // 672
0xea,0x06,0xeb,0xfa,0xe6,0xf8,0x6a,0x06, 0x87,0x07,0x8e,0xff,0xbb,0xfb,0x11,0x03, // 688
0x33,0x02,0xfd,0x00,0x73,0xfc,0xf9,0x04, 0x55,0x02,0x6e,0x01,0x39,0x02,0x2e,0xff, // 704
0x63,0x03,0x6b,0xfb,0x81,0x01,0x96,0x02, 0xc9,0x04,0x02,0x02,0x2f,0xfb,0x46,0x03, // 720
0x36,0xfe,0x21,0xfe,0x8a,0x02,0xf4,0x01, 0xdd,0x03,0x4d,0xfd,0xa1,0x01,0xf1,0xfc, // 736
0x63,0x02,0xa2,0x04,0x19,0x07,0x8d,0xf9, 0x7f,0x07,0x31,0xfa,0x96,0x09,0x9c,0xfb, // 752
0x90,0xf9,0xbc,0xff,0xcd,0xfe,0x7c,0x05, 0x5d,0xfd,0x26,0x03,0x03,0xfd,0xce,0xfb, // 768
0xf0,0x00,0xcc,0x04,0x60,0xf9,0xaa,0x05, 0xbc,0x00,0x23,0xff,0x2b,0x00,0x47,0xf9, // 784
0x34,0x02,0x93,0x02,0x83,0x01,0xfd,0xff, 0x8f,0x02,0xb1,0x01,0xec,0x02,0xf4,0xfe, // 800
0x76,0xfa,0x49,0x08,0x2e,0xfc,0xf6,0xfc, 0x25,0x01,0xd1,0xfc,0x22,0x04,0xa0,0xfc, // 816
0xb9,0xfe,0xc6,0xff,0x18,0x00,0x30,0x02, 0x11,0x07,0x36,0xfb,0xa3,0xfb,0x93,0x04, // 832
0x1a,0xfb,0x01,0x00,0x72,0xff,0xa5,0xf5, 0xb5,0x02,0xfd,0xf5,0x5b,0x04,0xe6,0xfd, // 848
0x42,0x13,0xd0,0xea,0x5a,0xff,0xdd,0x05, 0x09,0xf8,0x5a,0x04,0x89,0xfa,0xd0,0xff, // 864
0x25,0x00,0x5e,0xff,0x37,0x08,0x32,0x01, 0x08,0x03,0xe6,0xf9,0x39,0x04,0x5c,0xfd, // 880
0x85,0x05,0x3d,0xfa,0x08,0x00,0xe9,0x0d, 0x8b,0x0b,0x22,0xf9,0xd3,0x01,0x61,0xfd, // 896
0xb9,0xf6,0x52,0x04,0x3f,0xf5,0x63,0x0d, 0xa0,0x07,0x5e,0x05,0x92,0xf5,0x85,0x06, // 912
0xb0,0xf8,0x8c,0x04,0x19,0xfc,0x8a,0xff, 0x60,0x01,0x2a,0x03,0x86,0x05,0xf0,0xfe, // 928
0x13,0x06,0x07,0xfc,0xee,0xff,0x06,0xfd, 0x32,0x08,0xfe,0x03,0x1d,0xfd,0x10,0x00, // 944
0x74,0xfd,0xfa,0xff,0x0c,0x03,0x3a,0x06, 0xc3,0x04,0xb5,0xfb,0x03,0x02,0x54,0xfe, // 960
0x6e,0xf2,0x5e,0x02,0xfa,0xfe,0x4b,0xf8, 0x36,0x04,0x6d,0xff,0x6c,0x00,0x1d,0xff, // 976
0x40,0xf9,0x83,0xf1,0xe4,0x07,0x68,0xfe, 0x8d,0xf7,0x26,0x04,0xe5,0x0a,0xb4,0xf7, // 992
0xc2,0x02,0x3b,0x04,0xb5,0xfb,0xe0,0x02, 0xcf,0xf6,0x4b,0xfd,0x4a,0x03,0x99,0xff, // 1008
0x10,0x06,0x77,0xfa,0xcf,0xfc,0x59,0x02, 0x3c,0xfe,0xdc,0x02,0xec,0x07,0xd0,0xf3, // 1024
0x1d,0x03,0x71,0xf8,0x77,0x0d,0x56,0x00, 0x44,0x01,0x2f,0xf7,0xbe,0x08,0x4c,0x02, // 1040
0x3f,0x04,0x3f,0xf9,0xb3,0x07,0x4c,0xfa, 0x01,0x03,0xe2,0x01,0x2a,0x04,0x5f,0xf6, // 1056
0x9d,0x06,0x40,0x07,0xba,0x00,0x00,0xff, 0x58,0x03,0x1f,0xfd,0x66,0x01,0x83,0x05, // 1072
0x7c,0xff,0x60,0x05,0x6e,0xfe,0x23,0x04, 0x88,0xfe,0x6e,0x03,0xa7,0xfa,0x6d,0x01, // 1088
0x60,0x03,0x02,0x05,0x5d,0x08,0x05,0x01, 0x3d,0x04,0xec,0xf8,0xa2,0x03,0x3c,0x01, // 1104
0x89,0x01,0x0d,0x08,0x0f,0x02,0x18,0x04, 0x93,0xf9,0xfb,0x06,0xda,0xfa,0xaa,0x02, // 1120
0x61,0xfb,0x67,0xff,0x59,0x01,0xf8,0xfa, 0x2f,0x00,0xd1,0xfd,0xf1,0xf7,0x2c,0x06, // 1136
0x5e,0xfb,0x0e,0xfc,0x47,0x00,0x93,0x03, 0xb6,0xfe,0xfc,0x02,0x8d,0xf5,0xb9,0x00, // 1152
0xfe,0xf5,0xf9,0x08,0x39,0xfa,0x9c,0xfe, 0xd1,0xf4,0x42,0x02,0x17,0xfb,0x63,0xfe, // 1168
0x43,0x09,0x01,0xff,0x18,0xfa,0x2b,0xf9, 0xc1,0x02,0x6f,0xfe,0x49,0x00,0xb4,0x01, // 1184
0x61,0x00,0x3b,0xf6,0xbc,0x03,0x74,0xf5, 0xd9,0x04,0xce,0x06,0x79,0x04,0x53,0xff, // 1200
0x47,0x00,0x16,0xf4,0x66,0x01,0x52,0xfd, 0x19,0x03,0x3a,0x01,0xf8,0xfa,0x6d,0x01, // 1216
0xae,0x04,0x81,0xfd,0x57,0xf7,0x79,0x0c, 0x6c,0xf8,0x60,0x01,0xfe,0xff,0x01,0xf2, // 1232
0x19,0x06,0xb1,0x0a,0x8d,0x05,0x55,0x0c, 0x67,0x0a,0x9e,0x09,0x7b,0x0b,0x92,0x0b, // 1248
0x85,0x0d,0x31,0x11,0x30,0x03,0xdd,0x12, 0xd1,0x01,0xa2,0x0b,0x06,0x08,0x3f,0x03, // 1264
0xe1,0x04,0xd3,0x0f,0xf4,0x07,0x11,0x08, 0xda,0x13,0x2c,0x07,0x03,0x07,0xfc,0x0a, // 1280
0x6a,0x15,0xe9,0x0c,0xde,0x09,0xad,0x07, 0x29,0x09,0xaa,0x03,0xb6,0x09,0xc8,0x12, // 1296
0x47,0x0a,0xbb,0x0a,0x6d,0x0a,0xc6,0x1b, 0xc5,0x16,0xf4,0x06,0xa6,0x08,0x89,0x18, // 1312
0x49,0x02,0xd1,0x08,0x4b,0x06,0x13,0x0c, 0x5e,0x0b,0xe3,0x10,0xbe,0x13,0x47,0x09, // 1328
0x22,0x0b,0xb6,0xfe,0x40,0x0f,0xde,0x0b, 0x51,0x08,0xe6,0x0c,0x74,0x0a,0xc2,0x0e, // 1344
0xc3,0x18,0xe5,0x0c,0xe8,0x05,0xf1,0x07, 0x53,0x10,0xc6,0xf7,0x43,0x0c,0x34,0x11, // 1360
0x43,0x4d,0x44,0x00,0x20,0x02,0x01,0x00, 0x50,0x05,0x00,0x00,0x10,0x02,0x00,0x00, // 1376
0x01,0x00,0x00,0x04,0x0a,0x0b,0x09,0x0b, 0x00,0x00,0x00,0x00,0x00,0x00,0x00,0x00, // 1392
0x01,0x00,0x40,0x00,0x01,0x00,0x01,0x00, 0x40,0x00,0x01,0x00,0x00,0x00,0x00,0x00, // 1408
0x0a,0x00,0x0c,0xff,0xff,0xff,0xff,0xff, 0x00,0x00,0x01,0x00,0x80,0x00,0x00,0x00, // 1424
0x00,0x01,0x02,0x00,0x80,0x00,0x00,0x00, 0x00,0x00,0x00,0x00,0x00,0x00,0x00,0x00, // 1440
0x00,0x00,0x00,0x00,0x00,0x00,0x00,0x00, 0x00,0x00,0x00,0x00,0x00,0x00,0x00,0x00, // 1456
0x00,0x00,0x00,0x00,0x00,0x00,0x00,0x00, 0x00,0x00,0x00,0x00,0x00,0x00,0x00,0x00, // 1472
0x00,0x00,0x00,0x00,0x00,0x00,0x00,0x00, 0x00,0x20,0x00,0x00,0x80,0x00,0x00,0x00, // 1488
0x7b,0x01,0x4e,0x02,0xc1,0xff,0x56,0x01, 0xcb,0xff,0xc9,0x00,0x2c,0x01,0x3a,0x03, // 1504
0x8f,0x00,0x62,0x03,0x77,0x01,0x15,0x02, 0xb9,0x01,0x97,0xff,0x33,0x02,0xa7,0xff, // 1520
0x28,0xff,0x31,0x02,0x86,0x00,0x7f,0x00, 0x23,0x04,0xab,0x01,0xcc,0x00,0x90,0x01, // 1536
0x6a,0x02,0x96,0x00,0xac,0x01,0xe8,0xff, 0x12,0x01,0x48,0x02,0xa0,0x00,0xc7,0x02, // 1552
0x64,0x01,0xa3,0x01,0xfe,0xff,0x32,0x02, 0x3b,0xfd,0x4d,0x01,0xa5,0x00,0x02,0x01, // 1568
0xec,0x02,0x1b,0x02,0x65,0x01,0x94,0x00, 0x5f,0x01,0xd5,0xfe,0xfe,0x00,0xf7,0xff, // 1584
0x6c,0x02,0xa5,0x00,0x4b,0x01,0xa9,0x00, 0xb2,0x01,0xc1,0xff,0x93,0x01,0xe8,0x01, // 1600
0xb8,0x02,0xcb,0x02,0xb6,0xff,0x99,0xff, 0x38,0x03,0x4f,0x03,0x08,0x01,0x3d,0x04, // 1616
0xef,0xfe,0x7b,0xfe,0x61,0xfe,0xc5,0xff, 0xa8,0xff,0x51,0x02,0x38,0x01,0xc5,0x02, // 1632
0x8f,0x02,0xc4,0x02,0x4f,0x01,0x8a,0x03, 0x90,0x02,0x47,0x01,0x42,0x00,0x09,0x01, // 1648
0x43,0xfd,0x28,0x01,0x75,0x01,0x6f,0x00, 0x3e,0x03,0xbe,0x00,0x13,0x01,0x98,0xff, // 1664
0x0c,0x03,0xe0,0xff,0x96,0xff,0x6d,0x00, 0xe3,0xff,0x0a,0x02,0xac,0x00,0x13,0x03, // 1680
0x8b,0xff,0x4f,0x02,0x76,0x01,0xaa,0x02, 0xbb,0xfc,0xfe,0x01,0xfc,0x00,0x78,0xfe, // 1696
0x58,0x03,0x55,0x01,0xe5,0xff,0x29,0x01, 0x7b,0x00,0x8d,0xfe,0x5a,0x03,0x10,0x00, // 1712
0xfd,0x01,0xcc,0x00,0x3d,0x03,0x46,0x01, 0x19,0x02,0x5c,0x02,0x17,0x00,0xc2,0x01, // 1728
0xd4,0x01,0x79,0x01,0x04,0x01,0x54,0xff, 0x43,0x00,0x11,0x00,0x0f,0x00,0x90,0x02, // 1744
0x9d,0xff,0xbd,0x01,0xdb,0xff,0xa4,0x00, 0xbf,0x02,0x6c,0x02,0x8d,0xff,0x00,0x00, // 1760
0x88,0x02,0x08,0x02,0xda,0x00,0x63,0x02, 0x19,0x01,0xa7,0x00,0x93,0xff,0xe1,0x00, // 1776
0x0c,0xff,0x96,0x00,0x4e,0xff,0xbe,0xff, 0xda,0x02,0xab,0xfe,0xd1,0xff,0xfc,0xfe, // 1792
0x23,0x01,0x6d,0x01,0xec,0x01,0xd3,0x00, 0x05,0x00,0xf2,0x01,0x70,0x02,0xc0,0x02, // 1808
0xf6,0x00,0xd6,0x02,0x06,0x01,0xc0,0x04, 0x61,0xfd,0xfc,0x00,0xf7,0x01,0x24,0xff, // 1824
0x8d,0x03,0x73,0xff,0x0a,0x02,0xf5,0xff, 0x6a,0x02,0xca,0x01,0xeb,0x03,0x99,0xff, // 1840
0x71,0x02,0x51,0x03,0x94,0x01,0x30,0xff, 0x13,0x02,0x2a,0x02,0xaf,0x02,0x8f,0x02, // 1856
0x47,0x02,0x9c,0x01,0x59,0x01,0x89,0x01, 0x7a,0x01,0xc0,0x00,0x00,0x01,0xe6,0x01, // 1872
0x5c,0x00,0x91,0x01,0x12,0xff,0x93,0x00, 0x91,0x01,0x68,0x00,0x00,0x00,0x99,0x02, // 1888
0xc5,0x01,0x2e,0x00,0xca,0x01,0x42,0x00, 0x49,0x02,0xd0,0x01,0x9a,0x01,0x12,0xff, // 1904
0x67,0xfe,0x1b,0x03,0xe7,0x00,0xc6,0x01, 0x6c,0x02,0x39,0xff,0xa3,0x00,0x67,0xff, // 1920
0x62,0x01,0xd1,0x01,0xfe,0x00,0xbf,0x00, 0xd7,0x00,0x2b,0x01,0x62,0x00,0x0c,0x03, // 1936
0xcd,0x00,0xc0,0x00,0xf0,0xff,0xc7,0x04, 0xf9,0xfe,0x3d,0xff,0x1a,0x01,0xb6,0xff, // 1952
0xdb,0x02,0x64,0x00,0xaa,0x01,0x3a,0x01, 0xe8,0x00,0xd7,0x00,0x97,0x02,0xdd,0xfe, // 1968
0x65,0x02,0x6e,0x03,0xa5,0x00,0xd4,0x00, 0xff,0x01,0x85,0x00,0xa7,0x02,0x15,0x02, // 1984
0x3e,0x01,0x11,0x00,0xac,0x01,0x31,0xff, 0xe6,0x02,0x1e,0x03,0xb3,0x00,0x20,0x04, // 2000
0x6f,0x01,0xd3,0x00,0xbe,0x00,0x44,0x01, 0x04,0x01,0xe4,0x02,0x71,0x01,0x68,0x01, // 2016
0x36,0x01,0x43,0x02,0x30,0x01,0xec,0x01, 0x2a,0x02,0x5d,0x01,0xeb,0x01,0x3b,0x01, // 2032
0x8a,0x00,0xd0,0x03,0xea,0x01,0xb1,0x00, 0x25,0x01,0x5c,0xff,0xd9,0x01,0xfa,0x00, // 2048
0x06,0x02,0x29,0x02,0x6a,0x00,0x54,0x01, 0xf6,0x00,0x40,0x00,0x3c,0x01,0xe9,0x01, // 2064
0xe2,0x01,0x8c,0x00,0x2a,0x02,0xc4,0x03, 0x75,0xfe,0xaf,0x00,0x91,0x02,0xaf,0xfd, // 2080
0x61,0x02,0x67,0x00,0x43,0x00,0xde,0xff, 0x6c,0x02,0xeb,0xff,0x7e,0x02,0x9b,0xff, // 2096
0x6e,0x01,0x79,0x01,0xb8,0x01,0xc4,0xff, 0x3e,0x02,0x41,0x00,0x41,0x01,0xf3,0x02, // 2112
0x31,0x00,0x3a,0x02,0x78,0x00,0x5c,0xff, 0x55,0x03,0x15,0x02,0x4b,0x00,0x8d,0x02, // 2128
0x1f,0x00,0x61,0x00,0xdd,0x01,0xa9,0x02, 0x14,0x02,0xa8,0x00,0x1e,0x00,0x99,0x01, // 2144
0x28,0x00,0x88,0x02,0x50,0x00,0x73,0x03, 0xa5,0x00,0x78,0x00,0xfe,0x01,0x4e,0x01, // 2160
0xcc,0xfe,0x59,0x01,0x01,0x02,0x66,0x00, 0xa8,0x02,0xfa,0xff,0xb2,0xff,0xe5,0xfe, // 2176
0x94,0x03,0xac,0xff,0xa5,0x01,0x33,0x00, 0x64,0x02,0x47,0x00,0xec,0xff,0x1f,0x03, // 2192
0x62,0x00,0xc5,0x02,0x4f,0x02,0xd2,0x01, 0x5e,0xfd,0xfc,0xff,0xc4,0x02,0x85,0x00, // 2208
0x8c,0x01,0xd9,0xff,0xbf,0x01,0xd8,0x01, 0x69,0xff,0x8f,0x00,0x31,0x04,0x05,0x02, // 2224
0x17,0x02,0x74,0x03,0xd2,0x03,0x1b,0x00, 0x38,0x03,0x6b,0x02,0xcc,0x02,0x24,0x01, // 2240
0xfa,0x00,0xdb,0x00,0x01,0xff,0xff,0x00, 0x5b,0x03,0x2d,0x02,0x55,0x02,0xc6,0x03, // 2256
0xe1,0x01,0x84,0x01,0xa6,0x01,0x1a,0x02, 0x3c,0x00,0xa8,0x01,0xfa,0x00,0xe6,0xff, // 2272
0xb2,0x00,0xc8,0x03,0x5a,0x03,0x68,0x03, 0x76,0x01,0x9e,0x02,0xb9,0xff,0x05,0x01, // 2288
0xad,0xfd,0x93,0x00,0x91,0x01,0xbe,0x00, 0x91,0x01,0x43,0x00,0xe9,0x02,0xa9,0x01, // 2304
0x8f,0x01,0xa5,0x01,0x2b,0x02,0x77,0xff, 0xca,0x02,0x5e,0x03,0x5b,0x00,0x8a,0x00, // 2320
0xbe,0x00,0xfa,0xff,0xc1,0x02,0xb9,0x02, 0x00,0xff,0xd8,0x01,0x4d,0x02,0xbb,0xfe, // 2336
0xc4,0x00,0x51,0x02,0xe5,0x02,0x4e,0x01, 0xb1,0x02,0xb1,0x00,0x2d,0x03,0x2b,0x01, // 2352
0xba,0xff,0x0c,0x03,0x68,0x01,0x7b,0x01, 0xd8,0xff,0xe9,0x00,0x23,0x03,0x88,0x03, // 2368
0x6e,0x02,0x5b,0x02,0xeb,0xff,0x8a,0x02, 0x36,0x02,0x82,0x00,0xe4,0x01,0x2f,0x01, // 2384
0x4b,0xfe,0x61,0x01,0xa0,0x00,0xe7,0xfe, 0x8f,0x00,0xce,0xff,0xad,0xfe,0x74,0xff, // 2400
0x05,0x01,0x42,0x01,0xf6,0x02,0xc2,0x00, 0x47,0x02,0x69,0x01,0x67,0xfe,0x74,0x01, // 2416
0x2f,0xfd,0xad,0x00,0x3e,0x00,0x54,0xff, 0x15,0x01,0x8b,0xfd,0xb0,0x01,0x07,0xfe, // 2432
0x33,0x02,0xbb,0x00,0xe4,0x00,0xe0,0xff, 0xfd,0xff,0x47,0x02,0x0e,0x02,0x7d,0x01, // 2448
0xfb,0xfe,0x28,0x02,0x0d,0x02,0x78,0x02, 0x1d,0xfb,0x40,0x01,0xc4,0xff,0x7c,0xfd, // 2464
0x38,0x02,0x1f,0xff,0x9d,0xff,0xf5,0x01, 0x40,0x00,0x90,0xfd,0x8e,0x01,0xfc,0xff, // 2480
0x88,0x02,0xbd,0x02,0x36,0x01,0xfa,0xff, 0xd2,0x01,0x07,0x01,0x68,0x00,0xcf,0x00, // 2496
0x51,0x02,0xa1,0x01,0x20,0x00,0xda,0xfe, 0x8e,0x02,0xb7,0x01,0xf4,0x00,0x37,0x01, // 2512
0x7d,0x01,0x6f,0xff,0x22,0xff,0x10,0x01, 0x75,0x00,0xbb,0x02,0x1b,0x01,0x13,0x00, // 2528
0x2c,0x01,0x2c,0x01,0x40,0x02,0x69,0x03, 0x81,0x00,0x83,0xff,0x60,0xff,0xa1,0x01, // 2544
0x8f,0x00,0xe1,0x00,0x28,0x02,0xf3,0xfe, 0xee,0x03,0xd3,0x00,0x1f,0x02,0xd6,0x01, // 2560
0xcc,0x02,0x57,0x02,0x29,0x00,0xb0,0x01, 0xd6,0x01,0x3a,0x00,0x4e,0x02,0xb9,0x00, // 2576
0x58,0x01,0xa7,0xff,0x42,0x02,0x7f,0x04, 0x7a,0xfe,0x08,0x01,0xe3,0x00,0x0b,0x01, // 2592
0x42,0x01,0x29,0x02,0xcc,0x00,0x92,0x00, 0xa1,0x00,0x5f,0x01,0x70,0x02,0x07,0x02, // 2608
0x00,0x02,0x67,0x00,0xcc,0x01,0x32,0xff, 0x03,0x01,0x83,0x00,0x41,0x01,0x8b,0x03, // 2624
0xb0,0x00,0x80,0x02,0x03,0x00,0x39,0x01, 0x05,0x03,0x2c,0x00,0x7c,0x01,0x74,0x03, // 2640
0x13,0x01,0x0a,0x02,0x7c,0xff,0xa8,0x00, 0x68,0xff,0x48,0x00,0x84,0x00,0x3a,0x01, // 2656
0xb5,0x01,0x50,0x00,0x5e,0x02,0xdf,0x01, 0xc9,0xff,0xed,0xff,0xdf,0x00,0x5c,0x01, // 2672
0x74,0xfe,0xf6,0x00,0x91,0x02,0x1e,0x01, 0xae,0x01,0xef,0x00,0x20,0x01,0x96,0xfe, // 2688
0x37,0x04,0x57,0x00,0xec,0x00,0x3c,0xff, 0xf4,0xff,0x18,0x00,0x78,0x01,0x8b,0x00, // 2704
0x9d,0x01,0xbf,0x01,0xde,0x02,0x60,0x04, 0x1d,0xfd,0x4b,0x02,0xa9,0x02,0xa0,0xfd, // 2720
0x6a,0x03,0x7c,0x01,0x74,0x02,0xd6,0x00, 0xde,0x00,0xbb,0xfe,0x6c,0x01,0xfb,0x01, // 2736
0xff,0x00,0x48,0x01,0x54,0x01,0x6d,0x01, 0x93,0x00,0x61,0x02,0xb0,0x00,0xc2,0x02, // 2752
0x06,0x02,0xa7,0x02,0xc0,0x00,0xab,0xff, 0xd0,0x02,0x45,0x03,0x02,0x01,0x1c,0x02, // 2768
0x7d,0xff,0xc5,0x01,0x99,0x01,0x29,0x00, 0x54,0x01,0x10,0x02,0xcc,0x02,0x8d,0x01, // 2784
0xed,0xff,0xa1,0x00,0xb3,0x00,0x91,0x02, 0x37,0x02,0x65,0x02,0xfe,0x01,0x26,0x02, // 2800
0x71,0x00,0x2b,0x03,0xd5,0xff,0x2e,0x02, 0x59,0x02,0x96,0xff,0xa1,0x02,0x25,0xff, // 2816
0x56,0x02,0xf1,0xff,0x62,0x02,0xd1,0x00, 0xf4,0xff,0x5a,0x02,0x08,0x00,0xc2,0x00, // 2832
0x9e,0x00,0xe2,0x02,0xed,0x01,0x16,0x05, 0xe4,0xfd,0xd5,0x02,0x23,0x00,0xd5,0xff, // 2848
0xc9,0x03,0x65,0x00,0x07,0x03,0xad,0x02, 0x6a,0x01,0xa9,0xff,0xf6,0x02,0xa8,0x01, // 2864
0xcb,0x00,0x71,0x02,0x93,0x03,0x4b,0xff, 0xbe,0x02,0x1e,0x01,0xde,0x01,0xa1,0x03, // 2880
0xdf,0xff,0x36,0x01,0xeb,0x01,0xc7,0xff, 0x7b,0x03,0x2e,0x02,0x44,0x01,0x9f,0x01, // 2896
0xee,0xf2,0x1f,0xf9,0x3d,0xfb,0xd4,0x02, 0x68,0xff,0xbf,0x03,0xfd,0x01,0xe4,0x02, // 2912
0x9e,0x04,0xc8,0x07,0xe5,0x07,0xb9,0x08, 0xd8,0xfe,0x1c,0xfc,0xfe,0xf6,0xe2,0xf9, // 2928
0x31,0xf2,0xfb,0x08,0x80,0xfa,0xc9,0xf9, 0x99,0x0e,0x8e,0xf0,0xd4,0xf8,0xb9,0xf7, // 2944
0x85,0x0f,0xe1,0xfb,0x6a,0xff,0xbf,0xfd, 0x66,0x03,0x40,0x07,0x02,0x00,0x82,0x07, // 2960
0xf2,0xfd,0x74,0xfc,0x65,0x06,0x07,0x0d, 0x08,0xf0,0x55,0xf9,0xe6,0x01,0x3d,0xf2, // 2976
0x13,0x0f,0x2f,0xf9,0x5e,0x05,0xbb,0x05, 0x56,0xf5,0x78,0xf4,0x3b,0x10,0x9e,0xf4, // 2992
0x12,0x06,0xfb,0x0b,0xf6,0x0d,0x58,0xf6, 0x29,0x04,0xb6,0xfd,0xeb,0x03,0xb9,0x0a, // 3008
0x24,0x06,0x69,0x07,0xdb,0xf8,0xc2,0xf5, 0x9c,0x0a,0x90,0x09,0xcf,0x02,0x95,0x0f, // 3024
0xef,0x01,0x07,0x01,0xef,0x01,0xd7,0x02, 0xeb,0xff,0x9e,0x01,0xbb,0x00,0xc1,0x01, // 3040
0xee,0x01,0xa7,0x02,0xa5,0x00,0xfe,0x02, 0x87,0x00,0x66,0x02,0x72,0xff,0x11,0x02, // 3056
0x3a,0xff,0x92,0x01,0x05,0x01,0x1e,0x01, 0xd7,0x01,0xc1,0xff,0xba,0x01,0xb7,0x01, // 3072
0x2f,0x04,0x0b,0x02,0x94,0x00,0x74,0xff, 0x86,0x01,0xe2,0x01,0x6c,0x01,0x4e,0x02, // 3088
0x15,0x02,0x21,0x02,0x8a,0x00,0xd2,0x01, 0xb2,0xfd,0x56,0x02,0xad,0x00,0xed,0x00, // 3104
0x60,0x01,0xab,0x02,0x63,0x02,0x57,0x01, 0x72,0x02,0x49,0xff,0xf9,0x01,0xa0,0x02, // 3120
0x19,0x03,0x42,0x03,0xc1,0x02,0xc4,0x01, 0xec,0x02,0x5f,0x02,0xab,0x01,0x57,0x02, // 3136
0x2a,0x00,0x0d,0x02,0x03,0x01,0x7b,0x01, 0x68,0x01,0x2f,0x01,0xa4,0x00,0xc2,0x01, // 3152
0xc3,0xff,0x99,0x01,0x24,0x00,0x50,0x01, 0x64,0x00,0xaa,0x01,0xff,0xff,0x07,0x02, // 3168
0xb4,0x00,0xc1,0x02,0xfe,0x02,0x59,0x02, 0x67,0x02,0x07,0x00,0x7c,0x02,0xa4,0x01, // 3184
0x2b,0xfe,0x05,0x01,0xca,0x02,0x5b,0x00, 0xca,0x02,0xdb,0x00,0x2f,0x02,0x40,0x00, // 3200
0xf8,0x01,0xeb,0x02,0x55,0x00,0x67,0x02, 0x9c,0x01,0x0d,0x02,0x98,0x00,0x8a,0x02, // 3216
0xf9,0xff,0x53,0x02,0x5e,0x00,0x26,0x03, 0x96,0xff,0x9a,0x01,0xdc,0x01,0x9d,0xfe, // 3232
0x13,0x04,0x45,0x02,0xc0,0x01,0x16,0x02, 0x79,0x02,0x83,0x01,0xe6,0x02,0x4e,0x00, // 3248
0x72,0x00,0x88,0x02,0x45,0x01,0x8a,0x00, 0x44,0x00,0x6a,0x00,0xdf,0x02,0xca,0x02, // 3264
0x17,0x01,0x3a,0x01,0xa1,0xff,0xee,0x01, 0x0a,0x02,0xeb,0x00,0x99,0x01,0xdb,0x01, // 3280
0x5f,0xfe,0x78,0xfe,0x94,0xff,0x22,0x00, 0xa4,0xff,0x79,0x02,0xba,0x00,0x87,0x00, // 3296
0x9c,0xff,0xb9,0x00,0x74,0x00,0x58,0x03, 0xae,0xff,0xb8,0x00,0xef,0xff,0xdb,0x00, // 3312
0x00,0x00,0x47,0x01,0xec,0x00,0x29,0x00, 0x98,0x01,0xdf,0xfe,0x42,0x02,0x48,0x01, // 3328
0x4f,0x03,0x15,0x02,0x6f,0x02,0x1c,0x00, 0xa5,0x00,0x1f,0x00,0x78,0x01,0xec,0x00, // 3344
0x9b,0x01,0x73,0x01,0xea,0xff,0x4e,0x03, 0x47,0xfc,0xb5,0x01,0x45,0x02,0x16,0x00, // 3360
0x2e,0x03,0x59,0x00,0x23,0x02,0x62,0x02, 0x68,0xff,0x69,0x00,0x0c,0x02,0x90,0x01, // 3376
0xb1,0x02,0x4b,0x02,0xe5,0x01,0x1a,0x01, 0xaa,0x02,0xac,0x00,0x58,0x00,0x7e,0x03, // 3392
0xb4,0x00,0x06,0x03,0x37,0xff,0xf4,0x01, 0x2d,0x02,0xaa,0x01,0x17,0x01,0xeb,0x01, // 3408
0x3d,0x01,0x23,0xff,0x75,0x00,0x05,0x02, 0xa0,0x02,0x76,0x01,0x05,0x00,0x87,0x01, // 3424
0x57,0x01,0x1c,0x01,0x8a,0x02,0x2f,0x03, 0x96,0x02,0x22,0x00,0x09,0x00,0x8b,0x01, // 3440
0xe2,0xfd,0x58,0x01,0xaa,0x00,0xda,0x01, 0x6f,0x01,0x73,0xfe,0xa2,0x01,0x70,0x00, // 3456
0x76,0x03,0x36,0x01,0x20,0x00,0x40,0x01, 0x8e,0x02,0x20,0x00,0x67,0x00,0xbb,0x00, // 3472
0xb5,0x00,0x77,0x00,0x70,0xff,0x52,0x01, 0x3f,0xfe,0x1f,0x02,0x1c,0x00,0xda,0xfd, // 3488
0x1c,0x02,0x3a,0x01,0xad,0x01,0x3a,0x00, 0x4e,0x02,0xc9,0xff,0x99,0x02,0xae,0x01, // 3504
0x81,0x00,0x43,0x03,0xe1,0x00,0xf4,0xff, 0x33,0x00,0x24,0x01,0xe6,0x01,0x9d,0x03, // 3520
0x97,0x02,0xde,0x00,0xc1,0x00,0x82,0x01, 0xe2,0x01,0x7d,0x01,0xa1,0x00,0x3a,0x03, // 3536
0xbd,0xfe,0xd3,0xff,0xfb,0xfe,0x1d,0x02, 0x08,0xff,0x93,0x01,0x2b,0x00,0x92,0xff, // 3552
0x2a,0x02,0xe4,0x01,0xdb,0x00,0xa8,0x01, 0x33,0xff,0x28,0x00,0x24,0xff,0x8c,0x00, // 3568
0xce,0xfd,0x7e,0x01,0x7e,0xff,0x4d,0x01, 0xf4,0x03,0x8c,0x00,0xbf,0x00,0x2b,0x01, // 3584
0x1c,0x04,0x9d,0xff,0x3d,0x01,0xfc,0x01, 0x04,0x00,0x8b,0x01,0xed,0x00,0x57,0x01, // 3600
0x1f,0x01,0x85,0xff,0xb1,0x01,0x71,0x04, 0x55,0xfd,0x7e,0xff,0xcc,0x01,0x4d,0xfd, // 3616
0x7d,0x03,0xda,0x00,0x79,0x00,0x80,0x00, 0x89,0x01,0xfd,0xfd,0xea,0x03,0x7c,0xff, // 3632
0x86,0x02,0x27,0x00,0x95,0x01,0x6d,0x00, 0xd4,0x00,0x82,0x00,0x10,0x00,0x72,0x01, // 3648
0x29,0x02,0xc3,0xff,0x21,0x01,0x97,0xff, 0x75,0x01,0x50,0x00,0x98,0x00,0x11,0x01, // 3664
0x90,0x00,0xc1,0xff,0x85,0xfd,0x66,0xff, 0xb3,0xff,0xf3,0x01,0xbf,0xff,0x59,0xff, // 3680
0x72,0x01,0x40,0x01,0x14,0x02,0xf1,0x02, 0xce,0xff,0x85,0x01,0x06,0xff,0x53,0x00, // 3696
0x5e,0xfb,0x7c,0x02,0xf5,0x00,0x8b,0xff, 0xbe,0x01,0x89,0xfe,0x17,0x01,0x14,0x00, // 3712
0xc3,0x01,0x9b,0xfe,0x00,0xff,0xff,0x00, 0x49,0x01,0x93,0x01,0x9e,0xff,0x8a,0x02, // 3728
0xdc,0xff,0x3f,0x00,0xfe,0x00,0x76,0x04, 0xe9,0xfa,0x03,0x00,0x64,0xff,0x10,0xfc, // 3744
0x93,0x02,0xfb,0xff,0x6d,0x02,0xf1,0xfe, 0x7f,0x00,0x33,0xfd,0x91,0x03,0xed,0x00, // 3760
0x3b,0x00,0xd7,0x01,0x9d,0x03,0x1f,0xff, 0x8b,0x01,0xff,0x01,0x6b,0x01,0xc6,0x03, // 3776
0x41,0xff,0x34,0x02,0x88,0x00,0x04,0x00, 0xff,0x01,0xf0,0x02,0x18,0x01,0x17,0x02, // 3792
0x47,0xff,0x9f,0x00,0xf3,0x01,0x6c,0x00, 0x39,0x02,0xfc,0xff,0x94,0x00,0xdb,0x02, // 3808
0xe2,0x02,0xe9,0x01,0x34,0x01,0x89,0x02, 0xfd,0x01,0x89,0x01,0x0f,0x01,0x4b,0x02, // 3824
0x44,0xfe,0xbf,0x02,0xae,0x02,0xfe,0x00, 0x7d,0x01,0xc7,0x00,0x8f,0xff,0x34,0x01, // 3840
0xbe,0x01,0x67,0x00,0xd2,0x00,0x62,0x02, 0x22,0x01,0x2d,0x00,0xd5,0x01,0x79,0x01, // 3856
0x2f,0x02,0xc1,0x00,0x05,0x00,0x2e,0x05, 0xf5,0xfd,0x5f,0x00,0xa9,0x01,0xed,0xfd, // 3872
0xe1,0x00,0xa7,0x02,0x4b,0x01,0x4d,0x01, 0xd5,0xff,0xad,0xff,0x4d,0x01,0xf9,0xff, // 3888
0xe0,0x00,0xa9,0x00,0xe5,0x01,0xd2,0xff, 0x21,0x01,0xf5,0x02,0x5b,0x01,0x24,0x02, // 3904
0x0c,0x02,0xae,0x01,0x41,0xff,0x31,0x00, 0x0a,0x01,0x66,0x00,0xc5,0x00,0x40,0x04, // 3920
0x7f,0x01,0x27,0x00,0xbd,0x00,0x8f,0xff, 0xe7,0x02,0x17,0x02,0x1c,0x01,0x81,0x02, // 3936
0x5b,0x00,0x08,0x02,0x08,0x02,0xcb,0x01, 0xc0,0x02,0x8d,0x02,0x68,0x01,0x65,0x02, // 3952
0xa9,0xfd,0x7d,0x01,0x48,0x01,0x41,0x02, 0x2f,0x03,0x79,0xff,0xd6,0xff,0x87,0x00, // 3968
0x1d,0x04,0x08,0x00,0x82,0x01,0xd0,0x01, 0x2a,0x02,0xd2,0x02,0xb1,0x02,0x22,0x01, // 3984
0xb1,0xff,0x88,0x02,0x9c,0x00,0xbe,0x02, 0x8a,0xfe,0xde,0x02,0x8e,0x00,0xfd,0xfe, // 4000
0x47,0x04,0x92,0xff,0xca,0x01,0xf1,0xff, 0x29,0x01,0xa5,0xff,0x6d,0x03,0x05,0x02, // 4016
0x1b,0x00,0xab,0x00,0x68,0x03,0x6f,0x01, 0x82,0x00,0x44,0x00,0x45,0x01,0xe7,0x01, // 4032
0xf1,0x00,0xd0,0x00,0x43,0xff,0x95,0x02, 0x4e,0x03,0xd1,0x02,0xdd,0x00,0xd8,0x03, // 4048
0x7a,0x00,0xef,0x00,0xe8,0x00,0x7d,0x01, 0x3e,0x02,0x99,0x00,0x29,0x02,0xcb,0xff, // 4064
0xcf,0x00,0x59,0x03,0xf5,0x02,0x8e,0x03, 0xb2,0x02,0x74,0x02,0xb8,0x01,0x7e,0x01, // 4080
0x73,0xfd,0x56,0x02,0xd8,0x00,0x47,0xff, 0x71,0x03,0x4d,0x01,0x1a,0x01,0x1a,0x00, // 4096
0x89,0x01,0x91,0x00,0xaa,0x01,0x3c,0x01, 0x09,0x02,0xeb,0x00,0x81,0x00,0xfd,0x01, // 4112
0x94,0x00,0xd1,0xff,0x3f,0x02,0xff,0x02, 0xb2,0xfd,0x6f,0x02,0x12,0x03,0x89,0x00, // 4128
0x72,0x03,0xc4,0x00,0x81,0x02,0x80,0x00, 0x64,0x00,0xaa,0xfe,0xf6,0x01,0xc8,0xff, // 4144
0x0a,0x02,0x1c,0x01,0x5a,0x02,0x69,0x01, 0x30,0x02,0xef,0x00,0xee,0x01,0x18,0x01, // 4160
0xf7,0x02,0x6f,0x01,0xff,0x01,0x75,0x02, 0xf9,0x01,0x58,0x03,0xb8,0xff,0x22,0x01, // 4176
0x71,0xfe,0x14,0xff,0x78,0x01,0x72,0xfe, 0x1d,0x00,0xe4,0x00,0xf6,0xfe,0x51,0x01, // 4192
0x6c,0xff,0xba,0xfe,0x6b,0xfe,0xd3,0xff, 0xe1,0x00,0x61,0xff,0x4c,0xff,0xf4,0xfe, // 4208
0xa3,0xff,0x5a,0x01,0x7c,0xfe,0x14,0x00, 0x8d,0x00,0x7f,0xff,0x63,0xff,0x12,0x01, // 4224
0xa3,0xff,0x53,0xfe,0x54,0xfe,0xb0,0x00, 0xd0,0xff,0x75,0xfe,0xe5,0xfe,0x72,0x00, // 4240
0x35,0x01,0xca,0x00,0x50,0x00,0x01,0x01, 0x31,0x00,0xf5,0xfe,0x6b,0x00,0xdd,0x00, // 4256
0xf0,0xff,0x1c,0x00,0x25,0x00,0x71,0xff, 0x86,0xfe,0xa1,0x00,0xb6,0xfe,0xe7,0x00, // 4272
0x28,0x00,0x61,0xfe,0x84,0xfe,0x23,0xff, 0x82,0x00,0x22,0x00,0xc6,0xfe,0x54,0x01, // 4288
0xa0,0xfe,0xf1,0x00,0x6d,0xfe,0x53,0xfe, 0x53,0x00,0xe6,0xff,0xb2,0xff,0xbd,0xfe, // 4304
0x82,0x01,0xce,0xfe,0xf3,0x01,0xb8,0x00, 0xe8,0x01,0x61,0x01,0x23,0x00,0xae,0x00, // 4320
0x14,0x01,0x1a,0x01,0xad,0x02,0xd2,0x02, 0xca,0x02,0x92,0x01,0xc9,0xff,0xb8,0x00, // 4336
0x83,0xff,0x1e,0x02,0xb6,0xff,0x16,0x00, 0x60,0x01,0xb2,0xff,0x27,0x01,0xc7,0x00, // 4352
0x66,0x03,0x98,0xff,0xb2,0x01,0x81,0xff, 0x6e,0xff,0xb9,0x01,0xff,0xff,0xcc,0x02, // 4368
0x9b,0x00,0xe8,0x01,0xb3,0x01,0xba,0x01, 0x1d,0xff,0xe4,0x00,0xa0,0x02,0x37,0xfe, // 4384
0x45,0x02,0x4b,0x00,0x12,0x03,0x02,0x01, 0xfd,0x01,0x0a,0x00,0xc1,0x02,0xfd,0xfe, // 4400
0x7a,0x01,0x53,0x01,0xcb,0x02,0x9f,0x01, 0xfc,0x02,0x23,0x02,0xfc,0xff,0x38,0x02, // 4416
0x07,0x02,0x0e,0x02,0x94,0x00,0xd1,0xff, 0x5f,0x00,0xb8,0x02,0x8a,0x00,0xd5,0x01, // 4432
0x74,0x01,0x28,0x00,0xbe,0xff,0xf8,0x00, 0x5a,0x00,0x18,0x02,0x79,0x01,0xa0,0x01, // 4448
0xdf,0x01,0xf8,0x01,0x4c,0x01,0xeb,0x01, 0x56,0x00,0x91,0x00,0x1c,0x02,0x05,0x00, // 4464
0xb3,0x00,0x47,0x03,0x74,0x01,0x76,0xff, 0x7f,0x03,0x35,0x00,0xf4,0xff,0x09,0x00, // 4480
0xf6,0x02,0x3a,0x01,0x76,0x00,0x16,0x00, 0xaa,0xff,0xd8,0x01,0x04,0xff,0x7a,0x03, // 4496
0x60,0xff,0x0c,0x01,0x89,0xff,0xfd,0x03, 0xa4,0xff,0xb0,0x01,0x58,0x00,0xbd,0xfd, // 4512
0x7d,0x01,0x96,0xff,0x4e,0x02,0xbb,0x00, 0x62,0x01,0xb1,0x00,0x5d,0x02,0x6c,0xff, // 4528
0x2b,0x02,0x06,0x01,0x66,0x01,0x56,0x02, 0x54,0x00,0xae,0xff,0x98,0x00,0xaf,0x03, // 4544
0x74,0x01,0x25,0x01,0xc7,0xfe,0x60,0x01, 0xda,0x00,0x7f,0x01,0x38,0x02,0x57,0x03, // 4560
0x87,0xff,0xb4,0x00,0x82,0x00,0x78,0xff, 0x2c,0x00,0xdd,0x01,0xab,0x02,0x6a,0x01, // 4576
0x27,0x01,0x57,0x00,0x01,0x00,0x06,0x02, 0x09,0x02,0x14,0x00,0xf0,0x00,0x79,0xff, // 4592
0x15,0x01,0x0c,0x03,0x1f,0x00,0xed,0x01, 0x69,0x02,0xcf,0x00,0x97,0x01,0x2a,0x02, // 4608
0x53,0x03,0xad,0x02,0xc1,0xff,0xe1,0x00, 0x4e,0x01,0xaa,0x01,0xfc,0xff,0x14,0x02, // 4624
0x7e,0x02,0x0a,0x01,0x4a,0x02,0x58,0x04, 0xbf,0xfd,0x61,0x00,0x85,0x00,0x18,0x00, // 4640
0x0e,0x02,0xeb,0x01,0x19,0x03,0x20,0x00, 0x25,0x02,0x65,0xff,0xdc,0x02,0xf8,0x01, // 4656
0x6d,0x00,0x5c,0x03,0x28,0x03,0x3a,0x01, 0xf8,0xff,0xfd,0x00,0x72,0x00,0xe7,0x01, // 4672
0x95,0x00,0x03,0x02,0x3c,0x02,0xa1,0x00, 0x96,0x03,0x04,0x01,0x04,0x00,0x11,0x02, // 4688
0x96,0x01,0x7a,0x01,0xce,0x00,0x84,0x02, 0xf1,0x00,0x3b,0x00,0xd0,0x01,0xf6,0x00, // 4704
0x68,0x01,0x78,0x00,0x09,0x01,0xfb,0x00, 0xed,0xff,0xbc,0x00,0xcd,0x00,0x72,0x00, // 4720
0x79,0xfd,0xe9,0x02,0xe0,0xff,0xe0,0x01, 0x49,0x02,0xe4,0x00,0x5f,0x00,0xc8,0x01, // 4736
0x9c,0x03,0xa1,0x01,0x73,0x01,0x81,0x00, 0x55,0x00,0x86,0x03,0xc0,0x02,0xd3,0x02, // 4752
0x75,0x01,0xc5,0x02,0xdd,0x01,0x1e,0x03, 0x8b,0xff,0x08,0x00,0xb7,0x01,0x32,0x00, // 4768
0x79,0x01,0x83,0x01,0xed,0x02,0x44,0x00, 0x74,0x02,0x6f,0x01,0x09,0x01,0xf9,0x00, // 4784
0x5f,0x02,0xf1,0x00,0x93,0x01,0x9d,0x01, 0x64,0x01,0x47,0x02,0xb0,0xff,0x0c,0x02, // 4800
0x17,0x00,0x07,0x03,0x0b,0xff,0x66,0x01, 0xf1,0x02,0xb7,0x02,0xfb,0xff,0x79,0x02, // 4816
0x86,0xfb,0x61,0x05,0x8b,0xfc,0x06,0xfc, 0x0a,0x00,0x74,0x04,0x11,0xfb,0x42,0xfc, // 4832
0x70,0x02,0x83,0x03,0x8c,0xfe,0x3c,0xfa, 0x5f,0xfc,0xfc,0x02,0xee,0xf9,0x90,0xfa, // 4848
0xe4,0xfa,0x6c,0x06,0x23,0xfe,0xf6,0xf9, 0x7d,0xf8,0x11,0xfd,0x70,0xf8,0x18,0xfd, // 4864
0x65,0x06,0x90,0x03,0x86,0xfa,0xc7,0x02, 0x46,0xfd,0xd6,0x00,0xb8,0xfe,0x6b,0xff, // 4880
0x93,0x04,0x6f,0xfc,0x5d,0x03,0x1c,0xfc, 0x09,0x07,0xff,0xfa,0x00,0xfa,0x9b,0x03, // 4896
0xc5,0x04,0x35,0x00,0x25,0x01,0x59,0xfe, 0x1a,0x02,0x52,0xfe,0x7e,0x07,0xa2,0xf8, // 4912
0x80,0x02,0x5f,0x02,0xda,0xfc,0x7c,0x07, 0x76,0x01,0xc6,0xfb,0x38,0xf8,0x3b,0xfc, // 4928
0x82,0xf9,0x18,0x04,0x91,0xfd,0x3c,0x03, 0x15,0x06,0xeb,0xfa,0x31,0x04,0x4d,0xfb, // 4944
0xdd,0xff,0x37,0xff,0x24,0xff,0xc5,0xff, 0x5b,0xff,0xb9,0x01,0x8e,0xff,0xa0,0x01, // 4960
0x2a,0x02,0xaa,0x02,0xe1,0xff,0xce,0x00, 0x8e,0x01,0x3f,0xff,0x5e,0x00,0xf0,0xff, // 4976
0x5a,0xfd,0x5a,0x02,0x9e,0x00,0xe5,0x00, 0x43,0x01,0x3d,0x00,0x9a,0xff,0x79,0x01, // 4992
0xea,0x02,0xd4,0x01,0xbf,0xff,0x84,0x00, 0x06,0x01,0xb5,0xff,0x18,0xff,0xc0,0x00, // 5008
0x5c,0x00,0x6f,0x02,0xe5,0x01,0x1e,0x03, 0x0c,0xff,0x0c,0xff,0x9c,0x01,0x59,0xff, // 5024
0xd4,0x01,0x7c,0x00,0xc2,0xff,0x97,0x01, 0xde,0xff,0xa6,0xfe,0xdc,0x01,0x6a,0x01, // 5040
0xfd,0x00,0x35,0x00,0xb3,0x00,0xcc,0x00, 0xad,0xff,0x2c,0x02,0x52,0x00,0x17,0x01, // 5056
0xee,0x00,0xe4,0xff,0x64,0x01,0x44,0x00, 0x6a,0x01,0xb6,0x01,0xc1,0x02,0x96,0x01, // 5072
0xcc,0x01,0x19,0xff,0x68,0x00,0xb5,0x01, 0xb7,0x00,0x04,0x02,0x52,0x02,0x04,0x00, // 5088
0xdd,0x00,0xc7,0x03,0xe6,0x00,0x87,0x01, 0xb2,0xff,0x53,0x00,0x5b,0x00,0xa2,0x00, // 5104
0xbc,0xff,0x87,0x03,0xf8,0x01,0x22,0x01, 0x78,0x02,0x93,0x01,0x85,0x02,0x10,0x00, // 5120
0x3b,0x02,0x00,0x01,0x73,0x00,0xda,0x00, 0x85,0x00,0xab,0x00,0xed,0x00,0xe6,0x01, // 5136
0xdc,0xff,0xfe,0x01,0xc9,0x01,0xdb,0x03, 0x4e,0xfe,0xc8,0x01,0x1d,0x02,0x3e,0x01, // 5152
0xdd,0x01,0x3a,0x01,0x74,0x03,0x51,0x00, 0x6d,0x00,0xfc,0xff,0xe0,0x02,0x5b,0x00, // 5168
0x7c,0x02,0xb3,0x00,0x12,0x03,0x92,0x01, 0x87,0x00,0x45,0x00,0xf8,0x02,0x5c,0x02, // 5184
0x47,0x01,0x58,0x03,0x30,0xff,0xb7,0xff, 0x96,0x00,0xdd,0x01,0x67,0x02,0x30,0x01, // 5200
0xc7,0xfe,0x06,0x01,0x83,0xff,0xc2,0x00, 0x1c,0x02,0xdb,0x02,0x52,0x01,0xb7,0x02, // 5216
0x2a,0x00,0xcf,0x03,0xb0,0x00,0x7b,0x02, 0x60,0x00,0x6d,0x02,0x45,0x00,0x42,0x02, // 5232
0xa6,0xff,0x6e,0x02,0x8b,0x01,0x92,0x00, 0x29,0x04,0x92,0xfe,0x9b,0x00,0xd6,0xfe, // 5248
0x51,0x01,0x05,0x02,0x95,0x01,0x0f,0x00, 0xf6,0x01,0xf7,0x00,0xb7,0x02,0x10,0x01, // 5264
0x6d,0xff,0x0b,0x00,0x87,0x02,0x67,0x04, 0xb6,0xfe,0xb7,0x02,0x57,0x01,0x3f,0xfe, // 5280
0xb1,0x02,0x32,0x00,0x00,0x03,0xf8,0xff, 0xb7,0x02,0x48,0x01,0xa4,0x02,0x90,0x00, // 5296
0x01,0x03,0x33,0x02,0x83,0x03,0x6b,0xff, 0xae,0x00,0x26,0x00,0x7d,0x02,0x71,0x02, // 5312
0x8a,0x02,0x09,0x00,0x6d,0x00,0x3b,0x00, 0x9b,0x01,0x5c,0x00,0x65,0x02,0x13,0x04, // 5328
0x5d,0x00,0x0e,0x01,0xf9,0xff,0x63,0x02, 0x96,0xff,0x82,0x02,0xa6,0x02,0xc0,0x01, // 5344
0x01,0x01,0x25,0x01,0x06,0x00,0x08,0x02, 0x9b,0xff,0x46,0x01,0x4e,0x01,0x4e,0x01, // 5360
0x5d,0xfd,0xa1,0x02,0x73,0x00,0x1b,0xff, 0xe5,0x02,0x0d,0x01,0x65,0x00,0x10,0x00, // 5376
0x67,0x02,0xef,0x00,0xd6,0x00,0x57,0x01, 0x7b,0x01,0xfc,0x00,0x79,0xff,0x65,0x03, // 5392
0xaa,0x00,0x60,0x01,0xf4,0x00,0x34,0x04, 0x9c,0xfd,0x50,0x00,0x36,0x01,0x7c,0xfd, // 5408
0xe2,0x01,0x8b,0x01,0x2c,0x02,0xbf,0x02, 0x49,0x01,0x0b,0x01,0xd7,0x03,0x98,0xff, // 5424
0x1f,0x00,0x2e,0x02,0x35,0x01,0xbf,0x01, 0x02,0x03,0x6b,0x00,0xd8,0x01,0xec,0x00, // 5440
0x04,0x03,0x52,0x00,0x17,0x00,0x0f,0x02, 0x9c,0x00,0x58,0x01,0x76,0x02,0x51,0x02, // 5456
0x70,0xef,0x8f,0xf5,0x46,0xf5,0x83,0xfe, 0x90,0xff,0xf4,0x06,0xc5,0xff,0x50,0x05, // 5472
0xdf,0x02,0x1c,0x08,0xb2,0x02,0xdf,0x0e, 0xf7,0xf0,0x23,0x00,0x95,0xfa,0xb5,0xf6, // 5488
0xd9,0xee,0xbe,0x07,0x2e,0xff,0xfa,0xfb, 0xf0,0x0f,0x54,0xf2,0xbd,0xfa,0xda,0xf1, // 5504
0xc9,0x0a,0xd1,0x02,0x71,0x02,0x93,0xfd, 0xca,0xfc,0xde,0x00,0xf5,0x01,0x14,0x06, // 5520
0xf5,0x05,0x01,0x03,0xbe,0xff,0x44,0x14, 0xd4,0xea,0xb8,0xf9,0x21,0x03,0x6b,0xf0, // 5536
0xb2,0xfa,0xe0,0xfb,0xfc,0x03,0x8a,0xff, 0x4e,0xfe,0xf9,0xed,0x0c,0x0b,0x61,0xf9, // 5552
0xaf,0xfd,0x3f,0xf0,0x00,0x08,0x33,0x02, 0x71,0x02,0x53,0x03,0xa8,0x00,0xc0,0x08, // 5568
0xfe,0x12,0xd3,0x03,0x08,0xef,0xa3,0xf5, 0x92,0x07,0x43,0x01,0x9e,0x04,0xe8,0x09, // 5584
0xa7,0x00,0x50,0x01,0x05,0xff,0x59,0xff, 0xe1,0x00,0x4d,0x02,0xd7,0x00,0x02,0x02, // 5600
0x01,0x01,0x2a,0x01,0x7e,0x01,0x7d,0x00, 0x62,0x00,0x8a,0x01,0xe8,0x01,0x58,0x02, // 5616
0xdb,0xfe,0x90,0x03,0xa2,0xff,0xa6,0x01, 0x00,0x03,0x30,0x01,0x69,0xff,0xbe,0xfe, // 5632
0x5d,0x03,0x21,0x00,0x86,0x02,0x60,0x00, 0x07,0x00,0x34,0x03,0x97,0x00,0xff,0x00, // 5648
0x56,0xff,0x62,0xff,0x8a,0x02,0xaa,0x01, 0x60,0xfd,0x9c,0x01,0xc9,0x00,0x9f,0x00, // 5664
0xfd,0x02,0xe7,0x01,0x8e,0x00,0x24,0x01, 0x29,0x02,0x87,0x01,0x5b,0x03,0x09,0x01, // 5680
0x8e,0x00,0x5e,0x03,0xed,0x00,0x2a,0x01, 0x45,0x02,0x27,0x00,0xaa,0xff,0x63,0x03, // 5696
0xdd,0x00,0x9d,0x02,0x11,0xff,0x7f,0x02, 0x58,0x02,0xc5,0x02,0xa6,0x02,0x74,0x01, // 5712
0xb4,0x00,0x34,0xfe,0x8c,0xfe,0xd1,0x00, 0xfd,0xff,0x37,0xff,0x88,0xff,0xe2,0xff, // 5728
0x55,0xfe,0x1c,0xff,0x2e,0xff,0x1f,0xff, 0x34,0x00,0x47,0x00,0xb7,0x00,0x03,0x00, // 5744
0x2f,0x01,0x28,0xff,0x12,0xff,0x41,0x00, 0x92,0x00,0xa6,0xff,0xa7,0xfe,0x76,0xff, // 5760
0xce,0xfe,0x81,0xfe,0xa1,0xfe,0xd1,0x00, 0x63,0x00,0x08,0xff,0x31,0xfe,0xea,0xff, // 5776
0x6c,0xfe,0x31,0x00,0xc7,0xfe,0x8a,0xfe, 0xa9,0xff,0x34,0xff,0x62,0xff,0x3f,0x00, // 5792
0x18,0x00,0xef,0xff,0x7f,0x00,0xec,0xff, 0x93,0xff,0x67,0x00,0xc1,0xfe,0x52,0xfe, // 5808
0xd5,0xff,0xb1,0xff,0x8c,0xfe,0x41,0x01, 0xd1,0x00,0x59,0x00,0xf9,0xff,0x5a,0xff, // 5824
0x29,0xff,0x73,0xff,0x7f,0x01,0x54,0xff, 0x34,0xff,0x46,0x00,0x31,0x01,0x53,0x01, // 5840
0x28,0xff,0xb3,0x00,0xf0,0xfe,0x09,0x02, 0xcb,0x02,0x1b,0x01,0x60,0x02,0x49,0x00, // 5856
0xab,0x00,0x36,0x02,0xd5,0x01,0x97,0x03, 0x66,0x02,0x18,0x00,0xe9,0x01,0xe2,0x01, // 5872
0xaa,0x00,0x32,0x03,0xe0,0x01,0x3b,0xff, 0x92,0x01,0x1e,0x00,0x0e,0x00,0x03,0x00, // 5888
0x64,0x02,0x05,0x01,0x73,0x01,0x5b,0x00, 0xe4,0x00,0x02,0x00,0x4f,0xff,0x7f,0x03, // 5904
0xa4,0x00,0xa2,0x01,0x98,0x02,0x93,0x01, 0x4d,0xff,0xd9,0x00,0x3c,0x02,0xb3,0x00, // 5920
0xc1,0x00,0x3b,0x01,0x05,0x00,0xe6,0x01, 0xa8,0x01,0x00,0x01,0x93,0x02,0xc3,0xff, // 5936
0xd0,0xff,0xf0,0x02,0x85,0x02,0xe8,0x01, 0x80,0x00,0x64,0x00,0x5c,0x02,0x20,0x02, // 5952
0x96,0x01,0x28,0x02,0x62,0x00,0x37,0x02, 0x2d,0x00,0x53,0x01,0x04,0x00,0xe5,0x03, // 5968
0x59,0xfe,0xca,0x00,0xad,0x00,0x6b,0x01, 0x3a,0x02,0x44,0x02,0x71,0x01,0x85,0x01, // 5984
0x23,0x01,0xa5,0x00,0x51,0x01,0x2d,0x03, 0xe8,0x01,0xf6,0x01,0xe1,0x00,0x5d,0xff, // 6000
0x94,0xfe,0xc8,0x02,0x0e,0x00,0x0e,0x01, 0xe1,0x02,0xb3,0x00,0xd7,0xff,0xc6,0x00, // 6016
0x9e,0x03,0x34,0x00,0xf6,0x01,0x63,0x00, 0x39,0x00,0x25,0x00,0x21,0x00,0x7b,0x00, // 6032
0x2f,0x00,0x21,0x00,0x16,0x03,0xf9,0x04, 0x31,0xfd,0x7d,0x01,0x24,0x00,0xf4,0xfc, // 6048
0x3a,0x01,0x2c,0x00,0x0d,0x02,0x1b,0x00, 0xf1,0xfe,0x48,0x00,0x27,0x03,0x7c,0x01, // 6064
0xe5,0xff,0xda,0x00,0x94,0x03,0xd1,0xff, 0xab,0x00,0x6d,0x01,0x53,0x02,0xd0,0x02, // 6080
0x74,0x01,0x58,0x02,0xb9,0xff,0x25,0x02, 0x04,0x01,0xf1,0x02,0xa1,0x01,0x2e,0x02, // 6096
0xfd,0xff,0xed,0x00,0xf1,0xfe,0x53,0x02, 0x1a,0x01,0x03,0x00,0x8a,0x01,0x22,0x00, // 6112
0xee,0x02,0x18,0x03,0x31,0x03,0x87,0x02, 0xd6,0x01,0xf2,0x01,0x3b,0x02,0x33,0x00, // 6128
0x79,0x00,0x5a,0x01,0x1b,0x01,0xde,0xff, 0x19,0x04,0x8b,0xff,0x64,0x01,0xb8,0xfe, // 6144
0x6b,0x01,0xda,0xff,0x84,0x00,0x57,0x00, 0x9a,0x00,0xaa,0x02,0x6f,0x02,0x91,0x03, // 6160
0x6d,0x01,0x40,0x02,0xdf,0x00,0xf8,0x01, 0x04,0xfe,0x23,0x00,0x09,0x03,0x8c,0x00, // 6176
0x76,0x03,0x0c,0x01,0xa5,0x02,0xe9,0x01, 0x1e,0x02,0x38,0x01,0xe7,0x01,0xcd,0x00, // 6192
0x6f,0x01,0xa4,0x00,0xee,0x01,0x35,0xff, 0xd5,0x01,0x2c,0x00,0x7d,0x01,0xc9,0x02, // 6208
0x34,0x00,0x9a,0x02,0xb0,0x01,0x61,0x01, 0x41,0x03,0x75,0x01,0x2f,0x02,0xd0,0x02, // 6224
0x7d,0xfe,0xf5,0xff,0xcc,0xfe,0x65,0xfe, 0xc9,0xfe,0x9e,0xff,0x6b,0x00,0x6e,0x00, // 6240
0xf5,0xfe,0x7e,0xff,0x57,0x01,0xe9,0xff, 0xfb,0xfe,0xe4,0x00,0x60,0xfe,0xca,0xff, // 6256
0x02,0x00,0xbb,0xff,0x5b,0xfe,0xe7,0xff, 0xc3,0x00,0xb7,0xff,0x2b,0x01,0xa3,0xff, // 6272
0x88,0xff,0x54,0x01,0xae,0xff,0xd5,0xff, 0x94,0xfe,0x95,0x00,0xe4,0xfe,0xe0,0xfe, // 6288
0xfa,0x00,0x9c,0xff,0x8e,0xff,0x5c,0xfe, 0x41,0xff,0x2d,0xff,0xa6,0x00,0x6c,0xff, // 6304
0x06,0x00,0x6c,0x01,0x93,0xfe,0x4e,0xff, 0x73,0xff,0x9d,0xfe,0x8c,0xfe,0xf6,0xff, // 6320
0xf4,0xfe,0x07,0x00,0x3d,0xfe,0x1d,0x01, 0x4f,0xff,0x4b,0x01,0xc3,0xfe,0x6d,0x01, // 6336
0x10,0xff,0x2f,0xfe,0xa9,0xfe,0xd6,0xff, 0xd7,0xfe,0x16,0x01,0x56,0x00,0x2d,0x00, // 6352
0x9b,0xfe,0x39,0x01,0x45,0x01,0xb7,0x01, 0x44,0x01,0x50,0x00,0x55,0x02,0xb6,0xff, // 6368
0xfc,0x01,0xfe,0x02,0xf5,0xff,0xb7,0x01, 0x3d,0x02,0xaa,0x02,0x53,0x01,0x2f,0x02, // 6384
0xc7,0xff,0xab,0x02,0xc5,0x02,0x68,0x00, 0x29,0x02,0x9c,0x01,0x5c,0x01,0xa8,0x01, // 6400
0xfd,0x01,0xe1,0x00,0x00,0x01,0x4c,0x01, 0x92,0x00,0xa3,0x01,0x8d,0xff,0xb7,0x00, // 6416
0x12,0x00,0x2e,0x00,0xc1,0x00,0xfb,0x01, 0x75,0xfd,0x60,0xff,0xac,0x01,0xb9,0xfe, // 6432
0xd6,0x03,0x8e,0x02,0xc7,0x02,0xa0,0x01, 0x97,0x02,0x0f,0x01,0xfb,0x01,0x3d,0x02, // 6448
0x50,0x00,0xeb,0x02,0x9c,0x00,0x4f,0x00, 0xbe,0x00,0xee,0x00,0x0b,0x01,0x8d,0x00, // 6464
0x13,0x03,0xde,0x00,0xb0,0x00,0x36,0x01, 0x01,0x00,0x1a,0x01,0x1c,0x03,0x59,0x03, // 6480
0x60,0xff,0x4c,0x01,0x7b,0xff,0xc0,0x01, 0x1e,0x01,0x55,0x00,0x56,0x02,0xeb,0x00, // 6496
0xfd,0x01,0x07,0x03,0x5e,0x02,0xb6,0x02, 0xbe,0x00,0xa9,0x01,0x1d,0x00,0xa5,0x02, // 6512
0xca,0xfe,0x07,0x01,0xf5,0x01,0xf7,0xff, 0xab,0x03,0x3b,0xff,0xc8,0x02,0xe6,0xfe, // 6528
0x6c,0x02,0x57,0x02,0x15,0x01,0x95,0xff, 0x79,0x00,0x51,0x01,0x0e,0x02,0xb3,0x02, // 6544
0xb2,0x00,0xe9,0x01,0x1b,0x01,0x98,0x02, 0x25,0x00,0x02,0x02,0x30,0x00,0xbb,0xfe, // 6560
0x89,0x01,0x44,0x02,0x4b,0x00,0x36,0x02, 0x53,0x00,0x96,0xff,0x3c,0x02,0x0b,0x01, // 6576
0xe4,0xff,0x9e,0x02,0x32,0x02,0xb6,0xff, 0x13,0x00,0xb7,0x00,0x41,0x03,0xc4,0x01, // 6592
0xa1,0x01,0x29,0x01,0x07,0x01,0x67,0x01, 0x54,0x03,0x6d,0x02,0x24,0x02,0x47,0x04, // 6608
0x96,0x00,0xa5,0x01,0x45,0x00,0xe5,0x02, 0x8e,0x01,0x1f,0x02,0x55,0x00,0xf0,0x00, // 6624
0xd6,0x02,0x71,0x03,0x31,0x03,0xd4,0x00, 0xb0,0x02,0xd8,0x02,0x95,0x02,0xef,0x00, // 6640
0x15,0xfe,0x27,0x02,0x4d,0x00,0x13,0x02, 0x4a,0x03,0x53,0x01,0xf8,0x01,0xb4,0x01, // 6656
0xd6,0x01,0xd6,0x00,0x89,0x00,0x50,0x02, 0x3f,0x02,0x4d,0x01,0x52,0x00,0xb7,0x03, // 6672
0xee,0xff,0x10,0x02,0x49,0x00,0x6e,0x02, 0x98,0xff,0xa4,0x01,0x42,0x02,0x3a,0x00, // 6688
0x3b,0x03,0x7c,0x01,0x05,0x03,0xb0,0x02, 0x15,0x01,0xa7,0xfe,0x75,0x02,0xcd,0x01, // 6704
0x19,0x00,0x3a,0x03,0xea,0x03,0xb6,0xff, 0xb8,0x00,0x75,0x02,0x6d,0x01,0xad,0x01, // 6720
0xef,0x01,0xf0,0x01,0x91,0x01,0x09,0x01, 0x9c,0x03,0x6e,0x02,0xfc,0xff,0xc9,0x02, // 6736
0xe1,0x00,0x6b,0x00,0x2f,0x00,0x43,0x02, 0x83,0x00,0x5d,0x02,0xc4,0x00,0x31,0x00, // 6752
0x9a,0x01,0x3a,0x03,0x57,0x02,0xc0,0x01, 0x47,0x02,0x0a,0x02,0x0c,0x00,0x59,0xff, // 6768
0xc3,0xfd,0x09,0x01,0xd7,0x01,0xd8,0xff, 0xc2,0x01,0xc1,0xff,0xa2,0xff,0x4f,0x01, // 6784
0xa5,0x02,0xc2,0x01,0x50,0x02,0xbe,0xff, 0xff,0x01,0xc0,0x01,0x43,0x01,0x70,0x00, // 6800
0x06,0x01,0xef,0x00,0x96,0x01,0xc7,0x04, 0xd5,0xfc,0xcc,0xff,0xd4,0x00,0xb9,0x00, // 6816
0xdf,0x03,0xfc,0x00,0x4f,0x02,0x40,0x02, 0x91,0x02,0xfc,0x00,0x56,0x04,0x29,0x00, // 6832
0x0f,0x03,0x5a,0x01,0xc1,0x01,0x4d,0x02, 0x56,0x01,0x23,0x01,0x10,0x02,0x80,0x02, // 6848
0x62,0x02,0x4c,0x01,0x9e,0xff,0x40,0x00, 0xe1,0x00,0xee,0x02,0x20,0x03,0x9a,0x03, // 6864
0x2b,0xfe,0x35,0xff,0x61,0xfe,0xeb,0xfe, 0x3b,0xfe,0x22,0xfe,0xe8,0x00,0x4c,0x00, // 6880
0x95,0xfe,0xab,0xfe,0x32,0x01,0x0e,0xff, 0x9b,0xfe,0xa5,0xfe,0x02,0xff,0xd2,0xfe, // 6896
0xb2,0xfe,0xd6,0xff,0xf1,0xfe,0xdc,0xff, 0x62,0x01,0xfc,0xff,0x8a,0x00,0x49,0xff, // 6912
0x9a,0xfe,0xe8,0xfe,0x0a,0x01,0xe2,0x00, 0x8f,0x00,0xce,0xff,0x45,0xfe,0x34,0xfe, // 6928
0x68,0x00,0xfc,0x00,0xbb,0x00,0x51,0xff, 0x28,0xfe,0xeb,0x00,0x94,0xff,0xd8,0xfe, // 6944
0x26,0xff,0xf6,0x00,0xb5,0x00,0xee,0xff, 0x9a,0x00,0x8b,0xfe,0xd4,0xfe,0x36,0xff, // 6960
0x59,0x01,0x93,0xff,0x8d,0xfe,0x85,0xfe, 0xe0,0xfe,0x29,0x00,0xc3,0xfe,0xa1,0xff, // 6976
0x23,0x00,0xf4,0xff,0x55,0x00,0xdc,0xfe, 0x8e,0xff,0x0d,0x00,0x26,0xfe,0x69,0xff, // 6992
0xe8,0xfe,0xf4,0xff,0xa0,0x00,0x43,0x00, 0xbe,0x01,0xe1,0x00,0x21,0x02,0x67,0x00, // 7008
0xf8,0x01,0x4d,0x01,0x86,0x00,0x63,0x01, 0x5b,0x01,0x27,0x02,0xc8,0x01,0x9f,0x02, // 7024
0x96,0xff,0xc7,0x02,0x28,0x01,0x14,0x01, 0xf0,0x02,0x4f,0x00,0x5a,0x00,0x7a,0x00, // 7040
0xa5,0x03,0xac,0x01,0xfc,0x00,0x69,0x01, 0xea,0x01,0xc0,0x00,0xbf,0xff,0x9a,0x01, // 7056
0x16,0x01,0xfb,0x02,0x01,0x00,0x22,0x03, 0xd1,0xff,0xa9,0x00,0x3b,0x02,0x25,0xfe, // 7072
0x37,0x03,0xa8,0x01,0x2f,0x02,0xfe,0x01, 0xa7,0x00,0x42,0x00,0x6e,0x01,0x4a,0x00, // 7088
0x12,0x03,0xec,0x02,0xfb,0x02,0x78,0x00, 0x84,0x00,0x61,0x00,0x44,0x01,0xa0,0x01, // 7104
0x40,0x01,0x06,0x03,0xea,0x01,0x5b,0x00, 0x98,0x00,0xa2,0x02,0x80,0x01,0x68,0x02, // 7120
0x90,0x00,0xb5,0xfd,0x4f,0x00,0x86,0xff, 0x6f,0x00,0x7d,0x02,0x55,0x00,0x44,0x02, // 7136
0xa1,0x00,0xd9,0x00,0x9e,0x00,0x8a,0x00, 0x65,0x00,0x05,0xff,0x72,0x01,0x7a,0x00, // 7152
0xc3,0xfd,0xef,0xff,0x2e,0x00,0xb7,0xfe, 0x12,0x01,0xb7,0xfe,0xf4,0x01,0x72,0xff, // 7168
0x5e,0x03,0x31,0xff,0xa6,0x01,0xcd,0x01, 0xe4,0x00,0xa4,0x01,0x14,0x00,0x64,0x00, // 7184
0xc7,0xfe,0xf1,0x01,0xa4,0x00,0x67,0x01, 0x9c,0xfb,0xf3,0x00,0xf0,0x01,0xd4,0xfd, // 7200
0x5e,0x03,0x15,0xff,0x57,0x01,0xa5,0x01, 0xc0,0x00,0x1a,0xfe,0xf2,0x01,0x2b,0x01, // 7216
0x51,0x01,0x38,0x01,0x23,0x01,0x28,0x00, 0x35,0xff,0xe3,0x01,0x3f,0x00,0x8c,0x01, // 7232
0x3d,0xff,0x9b,0xff,0x22,0x01,0x59,0xff, 0xe8,0x01,0xd0,0x02,0x78,0x01,0xdb,0x02, // 7248
0x1b,0x00,0x43,0x00,0xc2,0xff,0xfb,0x00, 0x0c,0x01,0x92,0x00,0xf8,0xff,0x60,0x02, // 7264
0xa6,0x02,0x46,0x01,0x9d,0x01,0x2f,0x03, 0xe7,0xff,0x9a,0xff,0x5c,0x02,0xd3,0x00, // 7280
0x45,0xff,0x54,0x01,0x26,0x00,0x9a,0xff, 0xe6,0x01,0x1e,0xff,0x7b,0x00,0x00,0xff, // 7296
0xca,0x03,0x69,0xff,0x64,0xff,0x91,0x01, 0x60,0xff,0x4d,0x02,0x28,0x00,0xa7,0x02, // 7312
0x19,0xff,0x60,0x00,0x63,0x01,0x3c,0x03, 0xeb,0xff,0x12,0x02,0x6d,0x01,0x0a,0x01, // 7328
0x09,0x01,0x94,0xff,0xd2,0x01,0x9e,0x02, 0x9e,0x00,0x77,0xfe,0xb1,0x02,0x28,0x00, // 7344
0xf8,0xff,0xe6,0x02,0x84,0x03,0x37,0x02, 0x0e,0x01,0x1a,0x01,0xf6,0x01,0x5f,0x01, // 7360
0xe9,0x01,0x0b,0x00,0x23,0x00,0xe7,0x01, 0xf8,0x00,0x26,0x01,0xd7,0x00,0x01,0x02, // 7376
0x89,0x00,0x04,0xff,0x85,0xfe,0xbe,0x01, 0xcf,0x00,0xcb,0x02,0xf7,0x01,0xff,0x00, // 7392
0xb8,0xff,0x53,0x00,0x8c,0x01,0x99,0x01, 0x97,0x00,0x27,0x02,0x0b,0xff,0x5c,0x02, // 7408
0x1f,0xfd,0x47,0x02,0x5e,0xff,0xb0,0x01, 0x0b,0x01,0x95,0x00,0xbb,0x00,0xa6,0x00, // 7424
0xe4,0x03,0x3b,0x02,0xf7,0xff,0xc5,0x00, 0xff,0x00,0x4e,0x01,0x80,0xff,0xdf,0x00, // 7440
0xc8,0xfe,0x2d,0x02,0x17,0x01,0xc1,0x01, 0x37,0xff,0xec,0xff,0xf5,0x00,0xb3,0xff, // 7456
0x83,0x03,0x19,0x01,0x65,0x02,0xc2,0xff, 0x48,0xff,0x52,0x01,0x74,0x03,0x38,0x00, // 7472
0x44,0x02,0x0f,0x03,0x13,0x03,0x28,0x02, 0xdc,0x00,0x4e,0x00,0x7e,0x01,0xbc,0x01, // 7488
0x7b,0xff,0x3d,0x02,0x60,0x01,0x61,0xff, 0x14,0x02,0xf1,0x02,0xd6,0x02,0x47,0x03, // 7504
0x86,0x01,0xd9,0x00,0x2a,0x00,0x0a,0x02, 0x8b,0x02,0xea,0x01,0xa7,0x00,0xed,0x02, // 7520
0x90,0x02,0xef,0x02,0x7f,0x01,0x40,0x02, 0x17,0x00,0x1b,0x01,0x3d,0x00,0x20,0x00, // 7536
0xa2,0xfe,0x81,0x00,0x85,0x01,0x76,0x02, 0xa7,0x03,0xd0,0xfe,0x71,0x02,0x1a,0x02, // 7552
0x48,0x01,0x0a,0x01,0xae,0x01,0xb1,0xff, 0xb2,0x01,0x82,0x03,0x98,0x02,0x17,0x03, // 7568
0xf5,0xff,0x96,0x00,0x22,0x02,0xc8,0x04, 0xe6,0xfc,0x01,0x02,0xe8,0xff,0x03,0xff, // 7584
0xb7,0x03,0xcc,0xff,0xaa,0x02,0x8b,0x02, 0xbc,0x00,0xa2,0x01,0x43,0x01,0x72,0x01, // 7600
0x4a,0x00,0x87,0x01,0x17,0x04,0xf6,0x00, 0xb2,0x00,0x00,0x02,0xa3,0x02,0x56,0x03, // 7616
0x89,0x02,0x95,0x02,0x43,0xff,0xe9,0x00, 0x33,0x01,0xc1,0x02,0xb1,0x01,0x95,0x01, // 7632
0x16,0x00,0xb0,0xff,0x45,0xff,0xba,0x00, 0xf2,0x01,0xf7,0x00,0xac,0x00,0xce,0x02, // 7648
0xdf,0x01,0x9d,0x02,0x26,0x01,0x75,0x02, 0x0a,0x03,0x1f,0x00,0x84,0xff,0x3c,0x02, // 7664
0x71,0x00,0x1e,0x02,0x89,0x02,0x6a,0xff, 0x43,0x04,0x29,0x01,0xeb,0x01,0x3b,0x01, // 7680
0x18,0x01,0xc8,0xff,0xaf,0x02,0xe7,0x01, 0x0e,0x01,0xcf,0x01,0xb5,0x00,0x27,0x03, // 7696
0x6a,0x00,0x0f,0x00,0xb2,0x01,0x34,0x03, 0xb1,0xff,0xe5,0xff,0x31,0x00,0x22,0xfe, // 7712
0x73,0x03,0xa1,0x01,0x81,0x02,0x43,0x01, 0xad,0x01,0x8a,0x01,0x3f,0x04,0xbc,0x00, // 7728
0x22,0x00,0x8c,0x01,0x83,0x03,0x4d,0x01, 0x03,0x01,0x2c,0x02,0xe2,0x00,0x8f,0x02, // 7744
0xed,0x01,0x5f,0x02,0xf2,0x01,0x31,0x02, 0x64,0x02,0x8a,0x03,0xfb,0x00,0x68,0x02, // 7760
0x28,0xff,0x7a,0x00,0x1a,0x02,0xee,0x00, 0x4e,0x00,0xf7,0x01,0x69,0x02,0xf9,0x02, // 7776
0x94,0x02,0x1e,0x02,0xa0,0x02,0xd3,0x00, 0x8a,0x01,0x8e,0x01,0xd4,0x00,0xed,0x00, // 7792
0xc6,0x00,0xc7,0x02,0xd1,0x01,0x0d,0x02, 0x00,0x02,0xc0,0xfe,0x34,0x02,0x1a,0xff, // 7808
0x45,0x01,0x42,0x00,0x95,0xff,0x64,0x02, 0x05,0x02,0xed,0xff,0x7d,0x00,0x99,0x00, // 7824
0xf6,0xff,0x1a,0x00,0x65,0x00,0x1f,0x03, 0x89,0xff,0xb8,0xff,0x19,0x00,0xa5,0xff, // 7840
0x01,0x02,0x1a,0x01,0x19,0x00,0x77,0x01, 0xeb,0x00,0x85,0x00,0xc2,0x02,0x2e,0x02, // 7856
0x07,0x02,0x3a,0x03,0x4d,0x01,0xff,0x00, 0x0b,0x02,0xf8,0x00,0xf1,0x01,0xd0,0x01, // 7872
0xb0,0x00,0x99,0x00,0x74,0xff,0x89,0x01, 0x22,0x03,0x32,0x03,0xa1,0x01,0x4c,0x03, // 7888
0x80,0x01,0x11,0x00,0x4e,0x02,0x38,0x02, 0xa7,0x01,0x40,0x00,0x30,0x00,0x7b,0x02, // 7904
0x2b,0x03,0x94,0x00,0x42,0x00,0x94,0x00, 0xb5,0xff,0x26,0x02,0x13,0x00,0x80,0x00, // 7920
0x6e,0xfe,0x08,0x03,0xc1,0xff,0x1d,0x02, 0xaa,0x03,0x78,0x00,0xc7,0x02,0x3a,0x02, // 7936
0x93,0x01,0xff,0x02,0x54,0x01,0x77,0x00, 0xc9,0xff,0xfc,0x01,0xe3,0x00,0x04,0x01, // 7952
0x8c,0x00,0xf4,0xff,0x66,0x02,0x6b,0x04, 0x96,0xfe,0xcc,0x01,0xcf,0x01,0x8f,0xff, // 7968
0xde,0x02,0x75,0x01,0x6d,0x01,0xdc,0x00, 0x8b,0x02,0x32,0x00,0x9a,0x03,0x65,0x01, // 7984
0x1d,0x02,0x9b,0x02,0x5f,0x01,0xeb,0xff, 0x26,0x02,0x17,0x02,0xd7,0x01,0xf2,0x01, // 8000
0xad,0x00,0x1a,0x01,0x7c,0x01,0x56,0x01, 0x42,0x01,0xd6,0x00,0x35,0x01,0x5c,0x02, // 8016
0x86,0x00,0x80,0x00,0x51,0x02,0x3a,0x01, 0x02,0x01,0x30,0x03,0x07,0x02,0x04,0x02, // 8032
0x06,0x01,0xf2,0x00,0x42,0x01,0x9e,0x00, 0xfa,0x02,0xdb,0x01,0xe3,0x01,0x07,0x00, // 8048
0xac,0xfd,0x4d,0x01,0xde,0x02,0x50,0x00, 0x58,0x01,0x28,0xff,0x6e,0x02,0x66,0x01, // 8064
0x4e,0x02,0x20,0x01,0xd1,0x01,0xd0,0x00, 0xbb,0x00,0x84,0x00,0x90,0x00,0x74,0x03, // 8080
0x63,0x00,0x1b,0x01,0xd8,0x02,0xfa,0x03, 0xeb,0xfc,0x3c,0x00,0x84,0x01,0xf1,0x00, // 8096
0xbe,0x03,0xd0,0x00,0x46,0x01,0x22,0x02, 0xb1,0x02,0xf1,0xff,0x10,0x02,0xbb,0x00, // 8112
0xff,0x02,0xe6,0x01,0xd6,0x01,0x88,0xff, 0xc2,0x02,0x5b,0x02,0x17,0x01,0xf7,0x00, // 8128
0x31,0x01,0x3c,0x03,0xfb,0x00,0xee,0x01, 0xd1,0x01,0x47,0x02,0xf9,0x00,0x92,0x01, // 8144
0xec,0x00,0x87,0x01,0x57,0x01,0xac,0xff, 0x04,0x02,0xe9,0x01,0x77,0x01,0x6a,0x03, // 8160
0x60,0x02,0x4c,0x01,0xec,0x01,0x83,0x01, 0x2f,0x01,0x8a,0x00,0x27,0x01,0xd0,0x01, // 8176
0xf2,0x00,0x0b,0x02,0xd0,0x02,0x9c,0x02, 0x90,0x03,0xc2,0xfe,0x8f,0xff,0x02,0x01, // 8192
0x2d,0x03,0x7b,0x02,0xa0,0x01,0x4a,0x01, 0xf5,0x00,0x2f,0x01,0x1f,0x00,0x03,0x02, // 8208
0x5e,0xff,0x69,0x02,0x39,0x00,0x04,0x02, 0xd4,0xff,0xce,0xff,0x4f,0x00,0xfa,0x00, // 8224
0x8d,0x03,0x5b,0x00,0x83,0x01,0x08,0x03, 0x31,0x00,0x81,0x01,0x4d,0x02,0x2e,0x02, // 8240
0xbb,0x00,0x0f,0x02,0x3b,0x03,0x12,0x00, 0x24,0x00,0xd2,0x00,0xaa,0x00,0xec,0x03, // 8256
0x4b,0x00,0x30,0x03,0xdf,0x01,0x02,0x02, 0x17,0x01,0x72,0x01,0xb0,0x02,0x48,0x01, // 8272
0x5d,0x01,0x0a,0x00,0x1b,0x00,0x42,0x02, 0x3a,0x02,0xc0,0x00,0x97,0x02,0x2d,0x00, // 8288
0x42,0x01,0x26,0x01,0x3b,0x02,0xec,0x01, 0xb1,0x02,0x6f,0x02,0x16,0x00,0xc3,0xff, // 8304
0xe2,0x00,0x49,0x02,0x75,0x02,0x95,0x01, 0xf9,0x03,0xb8,0xff,0x78,0x01,0x2d,0x01, // 8320
0x80,0x02,0x0a,0x02,0xc4,0x00,0x57,0x00, 0xd0,0xff,0x9b,0x02,0xf6,0xff,0x22,0x02, // 8336
0x01,0x00,0xc3,0x00,0xf9,0x01,0xc2,0x01, 0x99,0xff,0x09,0x02,0x7d,0x02,0x0b,0xff, // 8352
0x76,0x01,0xcd,0x00,0xd9,0x02,0x12,0x03, 0xce,0x00,0xb2,0xff,0xb6,0x03,0xb2,0x01, // 8368
0x5c,0x00,0xb5,0x01,0x01,0x01,0xbe,0xff, 0x9c,0x00,0x35,0x02,0x0e,0x02,0x07,0x02, // 8384
0x7e,0x00,0xf6,0x02,0x85,0xff,0xfb,0xff, 0x44,0x00,0xf3,0x01,0x8e,0x02,0xd7,0x01, // 8400
0x6d,0xfd,0x4a,0xfe,0xf8,0xfe,0x0d,0x01, 0x91,0x01,0x5d,0x01,0xb9,0x00,0x3c,0x01, // 8416
0x77,0x01,0xb2,0x01,0xf3,0x01,0xde,0xff, 0xec,0xff,0x20,0x00,0x10,0x00,0x61,0x00, // 8432
0x8b,0xfe,0x10,0x01,0xe1,0x01,0x40,0xff, 0x64,0x01,0x7e,0xff,0x0c,0x01,0x98,0xfd, // 8448
0x13,0x03,0xa8,0xff,0xb5,0x00,0xf3,0x01, 0x0d,0x00,0xaf,0x01,0x38,0x00,0x6a,0x00, // 8464
0x93,0xff,0xd4,0xff,0x96,0x01,0xc1,0x04, 0xe0,0xfd,0x17,0x00,0x92,0x00,0xa3,0xfd, // 8480
0xf5,0x00,0x08,0xff,0x12,0x01,0x8b,0x02, 0xd4,0x01,0x47,0xfe,0x18,0x03,0x57,0xff, // 8496
0xd9,0x00,0x40,0x02,0xf0,0x01,0x2e,0x01, 0xc7,0xff,0xb4,0x01,0x1c,0x01,0x55,0x02, // 8512
0xf3,0xff,0xa8,0x02,0xf0,0xfd,0x93,0x01, 0x35,0x02,0xf4,0x01,0x80,0x02,0x8d,0x02, // 8528
0xa7,0x00,0xf4,0x01,0x31,0x00,0x31,0x02, 0x50,0x00,0x7f,0x02,0xc9,0xff,0x84,0x02, // 8544
0x3c,0x00,0x8a,0x02,0xf6,0x01,0x20,0x02, 0x82,0x00,0x62,0x01,0x19,0x02,0x51,0x01, // 8560
0x31,0x00,0x1b,0x01,0xb1,0x02,0x6a,0x02, 0x62,0x01,0x9b,0xff,0x81,0x00,0xac,0x01, // 8576
0xd3,0x03,0x85,0x02,0x04,0x02,0xfe,0x01, 0x1c,0x02,0xc6,0x01,0x43,0x01,0x0f,0x03, // 8592
0xbb,0xff,0xa3,0x00,0xab,0x02,0x09,0x03, 0x13,0xff,0xc0,0x00,0x1f,0x03,0x1d,0xff, // 8608
0xea,0x01,0x8b,0xff,0x26,0x01,0xd8,0xff, 0x25,0x01,0x69,0xff,0xe0,0x03,0x75,0x00, // 8624
0x78,0x01,0x3d,0x01,0xf2,0x02,0x16,0x02, 0x23,0x00,0xa2,0x01,0xb1,0x02,0x87,0x02, // 8640
0xa5,0x01,0xdf,0x02,0xad,0x01,0xe7,0xff, 0x9b,0x03,0x0e,0x01,0x9f,0x00,0x8d,0x03, // 8656
0xc3,0x00,0xf5,0x00,0x34,0xff,0xe7,0x01, 0x2c,0x02,0x7f,0x01,0xa2,0xff,0x6f,0x01, // 8672
0x5d,0x01,0xd3,0x01,0x35,0x01,0x44,0x01, 0x01,0x01,0xf9,0x00,0x8a,0x01,0x4b,0x02, // 8688
0x38,0x00,0x27,0x01,0x6c,0x00,0x58,0x00, 0x23,0x03,0xeb,0x00,0xbb,0xff,0x13,0x02, // 8704
0x16,0x02,0xfc,0x00,0x6c,0x01,0x8a,0x00, 0x00,0x01,0x47,0x01,0xd7,0x01,0x3d,0x03, // 8720
0x94,0x00,0x38,0x02,0x9c,0x00,0x74,0x03, 0x92,0x00,0xfb,0x01,0xcf,0x00,0x60,0x01, // 8736
0xb3,0x01,0x87,0xff,0x42,0x01,0x16,0x00, 0xe4,0xff,0x1b,0x00,0x7f,0x02,0x72,0xff, // 8752
0x50,0x01,0x4e,0x02,0xdb,0x02,0x89,0x01, 0xdb,0x02,0xb9,0x01,0x2a,0x02,0xf9,0x03, // 8768
0x19,0x03,0x46,0x00,0x07,0x01,0x72,0x00, 0x4e,0x02,0xf3,0x02,0xd5,0x02,0xf1,0x01, // 8784
0x16,0x01,0xde,0xff,0x96,0xff,0x00,0x01, 0xd2,0xff,0x62,0x01,0xd8,0xff,0x53,0x00, // 8800
0x4c,0x00,0xf0,0x00,0xbf,0x00,0x98,0x03, 0x01,0x01,0x61,0x00,0x4e,0x01,0xca,0x00, // 8816
0x97,0xff,0x2e,0x00,0xd3,0x00,0xc2,0x00, 0xd4,0x00,0xe0,0x00,0x47,0x02,0xfd,0x01, // 8832
0xaa,0x03,0x93,0x00,0x18,0x01,0xfc,0xff, 0x4a,0x02,0xd8,0x00,0xaf,0x00,0xaf,0x02, // 8848
0xcb,0xff,0xd4,0x00,0x03,0x03,0x5f,0x03, 0xf3,0xfd,0xf6,0x00,0xed,0x02,0x17,0x01, // 8864
0x00,0x04,0x10,0x01,0xb4,0x00,0x00,0x03, 0x13,0x00,0x12,0x01,0x75,0x02,0xb2,0x01, // 8880
0xb6,0x00,0x2e,0x02,0x14,0x03,0x6b,0xff, 0xe2,0x00,0xcd,0x01,0x42,0x01,0x25,0x03, // 8896
0xbd,0x01,0x11,0x00,0x1a,0x02,0xa1,0x01, 0xdd,0x00,0x32,0x02,0x8a,0x01,0x85,0x01, // 8912
0x2d,0xf1,0xc3,0xf8,0x05,0xff,0xbf,0xff, 0x8d,0x00,0x7f,0x04,0xe6,0x01,0xed,0x05, // 8928
0xa8,0x04,0x55,0x0a,0x0a,0x0b,0x30,0x0c, 0xf2,0xff,0x5d,0xff,0x04,0xf9,0xcc,0xfb, // 8944
0x3b,0xf4,0xa7,0x0c,0x9f,0xfc,0x64,0xfb, 0xa9,0x0f,0xd3,0xef,0xe6,0xfa,0xc8,0xf4, // 8960
0xcc,0x0d,0xc6,0xff,0xbf,0x02,0x49,0xfd, 0x4c,0x02,0x70,0x0b,0x5b,0x01,0x6f,0x05, // 8976
0x82,0xfe,0x4d,0x00,0x42,0x04,0x33,0x0d, 0x55,0xec,0xb7,0xfa,0xbb,0x02,0x3f,0xef, // 8992
0x65,0x0e,0x8d,0xfc,0x07,0x04,0x9f,0x03, 0x1b,0xfa,0x92,0xf1,0xc1,0x08,0x4b,0xfa, // 9008
0x89,0x00,0xfa,0x09,0xf1,0x0a,0x0c,0xf9, 0xd7,0x01,0x51,0x01,0xc3,0x01,0x6e,0x09, // 9024
0xff,0x0a,0x02,0x01,0xf8,0xf6,0xfd,0xf4, 0xcf,0x02,0x09,0x0c,0x1d,0x03,0x6f,0x0c, // 9040
0x9d,0x01,0xcf,0xff,0xee,0x01,0x87,0x01, 0xb4,0x02,0x3e,0x00,0x08,0x01,0x90,0x01, // 9056
0x2b,0x03,0xe9,0x00,0xe6,0x02,0x33,0x02, 0x49,0x00,0xc5,0x02,0xb1,0x01,0x12,0x02, // 9072
0xfa,0x00,0x3c,0x03,0xe8,0xff,0xa5,0x00, 0xe3,0x01,0x30,0xff,0x27,0x00,0x2d,0xff, // 9088
0x1c,0x01,0x95,0x00,0xc4,0x02,0x8c,0xff, 0x41,0x01,0x74,0x03,0x64,0x02,0x6b,0x03, // 9104
0x2f,0x01,0xf2,0x01,0x4d,0x01,0xa6,0x03, 0x4c,0x00,0x33,0x01,0x04,0x00,0x55,0xff, // 9120
0x42,0x03,0x95,0x02,0x5e,0x00,0xf7,0x00, 0x99,0xff,0x5c,0x01,0xd5,0x02,0x4e,0x02, // 9136
0x3b,0x00,0x6e,0x02,0xd5,0x01,0x65,0x02, 0x4e,0x02,0x80,0x00,0x70,0x02,0x00,0x01, // 9152
0x26,0x03,0x7f,0x00,0x45,0x01,0xa0,0x02, 0x40,0x00,0xf6,0x02,0x21,0x01,0x3a,0x02, // 9168
0x00,0x00,0xf9,0xff,0x77,0xff,0x7e,0x02, 0x3d,0x02,0x83,0x02,0x78,0x02,0x86,0x01, // 9184
0xc6,0x02,0xc2,0x02,0x15,0x03,0xba,0x03, 0xb0,0x01,0x56,0x00,0x3f,0x02,0xfb,0xff, // 9200
0xd3,0xff,0xfc,0x01,0xd9,0xff,0x77,0xff, 0x5b,0x04,0xe0,0xff,0x10,0x00,0xc3,0x00, // 9216
0x34,0x02,0xbd,0x02,0x15,0x02,0xe1,0x01, 0x72,0x02,0x64,0x02,0x41,0x01,0x50,0x01, // 9232
0x6c,0xff,0x50,0x01,0xfa,0x00,0x42,0x03, 0xe0,0xfd,0xee,0x00,0x73,0x02,0xaa,0xfd, // 9248
0xe8,0x02,0xed,0x01,0x0e,0x01,0x16,0x00, 0xba,0x01,0xe9,0xff,0x6c,0x04,0x59,0xff, // 9264
0xb3,0x02,0x9c,0x03,0x22,0x01,0x02,0x00, 0x5b,0x03,0x8d,0x01,0xe2,0x02,0x51,0x01, // 9280
0x4f,0x00,0xf4,0x02,0x26,0x02,0x39,0x02, 0x42,0x00,0xc0,0x00,0xd8,0x00,0x07,0x02, // 9296
0xff,0xff,0xe7,0x00,0x80,0xff,0x82,0x00, 0x6a,0xff,0xd7,0xff,0x20,0x01,0x15,0x01, // 9312
0x4c,0x02,0xee,0x02,0x38,0x01,0x9b,0x03, 0xda,0x02,0xb5,0x00,0x8c,0x01,0xa1,0x00, // 9328
0x3c,0xff,0x1e,0x03,0xfe,0x00,0x49,0x02, 0x8c,0x02,0x8c,0x00,0x2f,0x01,0xb6,0x00, // 9344
0x6f,0x03,0xa5,0xff,0x9f,0x00,0xf0,0xff, 0x2b,0x01,0xad,0x01,0x42,0x02,0x8a,0x00, // 9360
0xb9,0x00,0x47,0x01,0x3a,0x01,0xb7,0x04, 0x79,0xff,0xe6,0x01,0xba,0x02,0xb5,0xfe, // 9376
0xa5,0x03,0x8c,0x01,0x88,0x01,0xd6,0xff, 0x3e,0xff,0x81,0xff,0xb2,0x00,0x49,0x01, // 9392
0x00,0x02,0xab,0x01,0xf8,0x01,0x4f,0x00, 0xc7,0x01,0x25,0x00,0xca,0x01,0xac,0x02, // 9408
0x39,0x01,0xd5,0x01,0xab,0x00,0x4f,0x01, 0xe6,0x01,0x42,0x02,0x01,0x00,0x0f,0x02, // 9424
0x50,0x01,0xbe,0x00,0xc0,0xff,0x70,0x01, 0xf6,0x01,0x1c,0x02,0x0f,0x02,0xb3,0x00, // 9440
0x45,0x03,0xb0,0x00,0x2a,0x01,0x4e,0x01, 0x4c,0x00,0x83,0xff,0xa1,0x01,0x4b,0x00, // 9456
0x5a,0xfe,0x9f,0x03,0x55,0x00,0xa2,0x01, 0x15,0x04,0xcc,0xff,0x59,0x02,0x7f,0x00, // 9472
0xf0,0x00,0xbc,0x02,0xb7,0xff,0x1d,0x02, 0xca,0xff,0xeb,0x00,0x4e,0x00,0xd9,0x00, // 9488
0xd6,0xff,0xc0,0x00,0xcd,0xff,0xa1,0x01, 0x9d,0xff,0xaa,0x01,0xcf,0x01,0xe0,0x00, // 9504
0xb2,0x01,0x6e,0x02,0x78,0x01,0xd2,0x02, 0xd3,0x00,0x0f,0x00,0x33,0x01,0xae,0x00, // 9520
0x99,0x02,0xbf,0x02,0x58,0x01,0xd5,0x00, 0x18,0x00,0x38,0x02,0x36,0x02,0x14,0x02, // 9536
0xae,0x00,0xff,0x02,0x33,0x00,0x7c,0x00, 0x03,0x03,0x8c,0x00,0xe7,0x01,0xb7,0x01, // 9552
0x9e,0x01,0x19,0x00,0x9b,0x00,0x2a,0x01, 0xf8,0x01,0x69,0x01,0x82,0x02,0x93,0x01, // 9568
0xcd,0x00,0x12,0x01,0xad,0x01,0x7f,0x01, 0x8b,0x00,0xa4,0xff,0x4f,0x02,0xb8,0x01, // 9584
0x17,0x00,0x00,0x01,0xe3,0x02,0x4d,0x00, 0xa2,0x01,0x3a,0xff,0x66,0x00,0x5f,0x01, // 9600
0xff,0x02,0x25,0x00,0xcf,0x01,0x91,0x00, 0x8b,0x02,0xdd,0x00,0xf7,0xff,0x99,0x02, // 9616
0xd7,0xff,0x99,0x00,0x2f,0x02,0x7a,0x02, 0x14,0xfd,0x34,0x00,0x32,0x00,0x87,0xfe, // 9632
0x04,0x02,0x17,0x01,0x9a,0x01,0x00,0x01, 0x34,0x00,0x8d,0x01,0x09,0x04,0x7a,0xff, // 9648
0x5d,0x02,0x35,0x03,0x99,0x01,0x39,0x00, 0xe9,0xff,0x4f,0x00,0xbb,0x02,0xcd,0x03, // 9664
0x46,0x01,0xf5,0x01,0x57,0x02,0xc5,0x00, 0xdd,0x01,0xe4,0x02,0x6f,0x01,0x3c,0x03, // 9680
0xd2,0x03,0x5c,0x03,0xa6,0x03,0x69,0x03, 0x04,0x04,0xff,0x03,0xf1,0x03,0x39,0x03, // 9696
0xc9,0x03,0xdc,0x03,0xe0,0x03,0x21,0x04, 0xe7,0x03,0x0e,0x04,0x54,0x03,0x46,0x03, // 9712
0x4c,0x03,0xbc,0x02,0x21,0x04,0x20,0x04, 0x74,0x03,0x9f,0xff,0xc0,0x03,0xda,0x03, // 9728
0xda,0x03,0x1f,0x04,0x09,0x05,0x50,0x03, 0xf1,0x03,0xf6,0x03,0xc8,0x03,0x31,0x1c, // 9744
0x7f,0x03,0x9e,0xff,0x98,0x03,0x28,0x04, 0x3d,0x04,0xa9,0xff,0x96,0x03,0x23,0x04, // 9760
0xea,0x03,0xf0,0x03,0x53,0xff,0xf2,0x03, 0xea,0x02,0xbd,0x03,0x40,0x03,0xff,0x03, // 9776
0xef,0x03,0x94,0x03,0x2f,0x04,0x05,0x04, 0x26,0x04,0xc4,0x03,0x20,0x03,0xde,0x03, // 9792
0x13,0x04,0xbb,0x03,0x6e,0x05,0x16,0x04, 0x14,0x04,0x94,0x03,0xca,0x03,0xdd,0x03, // 9808
0x43,0x4d,0x44,0x00,0x20,0x03,0x01,0x00, 0x50,0x26,0x00,0x00,0x10,0x02,0x00,0x00, // 9824
0x00,0x01,0x00,0x04,0x0a,0x0b,0x06,0x0b, 0x00,0x00,0x00,0x00,0x00,0x00,0x00,0x00, // 9840
0x01,0x00,0x40,0x00,0x01,0x00,0x01,0x00, 0x40,0x00,0x01,0x00,0x00,0x00,0x00,0x00, // 9856
0x0a,0x00,0x0f,0xff,0xff,0xff,0xff,0xff, 0x00,0x01,0x01,0x00,0x80,0x00,0x00,0x00, // 9872
0x00,0x00,0x02,0x00,0x80,0x00,0x00,0x00, 0x00,0x00,0x00,0x00,0x00,0x00,0x00,0x00, // 9888
0x00,0x00,0x00,0x00,0x00,0x00,0x00,0x00, 0x00,0x00,0x00,0x00,0x00,0x00,0x00,0x00, // 9904
0x00,0x00,0x00,0x00,0x00,0x00,0x00,0x00, 0x00,0x00,0x00,0x00,0x00,0x00,0x00,0x00, // 9920
0x00,0x00,0x00,0x00,0x00,0x00,0x00,0x00, 0x00,0x20,0x00,0x00,0x80,0x00,0x00,0x00, // 9936
0x7c,0x00,0x2d,0x02,0x71,0x02,0xca,0x01, 0x26,0x02,0x46,0x01,0x8e,0x02,0x46,0x03, // 9952
0x67,0x01,0xe4,0x01,0x67,0x02,0xf9,0x0f, 0xed,0x00,0xba,0x00,0x51,0x03,0x4d,0x01, // 9968
0x28,0x00,0xba,0x03,0xfd,0x01,0x24,0x00, 0xa0,0x02,0xf6,0x00,0x22,0x00,0xdc,0x00, // 9984
0x16,0x03,0xd2,0x00,0x20,0xf7,0x12,0x03, 0x71,0x02,0x9e,0x00,0xca,0x00,0x66,0x17, // 10000
0xdb,0x00,0x7b,0x01,0x04,0x03,0x43,0x03, 0x9a,0x01,0xc6,0x00,0xdd,0xff,0x3c,0x01, // 10016
0x6d,0x01,0x50,0x00,0x7a,0xff,0x07,0x03, 0xb1,0x00,0xa0,0x00,0x75,0x02,0x95,0x01, // 10032
0x05,0x02,0x29,0x02,0xe8,0x02,0xec,0x00, 0x8c,0x02,0x26,0x00,0xce,0x00,0xc9,0x02, // 10048
0x15,0x03,0x61,0x00,0xc3,0x0b,0xfa,0x01, 0x59,0x00,0x03,0x00,0xf7,0xff,0xe2,0x00, // 10064
0xc1,0x00,0xdd,0x01,0x55,0x00,0x53,0x03, 0xb6,0x00,0x36,0x02,0x8f,0x01,0x05,0x01, // 10080
0x83,0x01,0xe4,0x02,0x1d,0x00,0x04,0x11, 0x88,0x02,0x0a,0x03,0xbb,0x01,0x37,0x03, // 10096
0xbb,0x02,0xb5,0x01,0x75,0x00,0x88,0x02, 0x44,0x01,0xc1,0xff,0xfd,0xff,0x3d,0x03, // 10112
0x0b,0x01,0xd1,0x01,0x73,0xf8,0x39,0x01, 0xd3,0x00,0x49,0x00,0x2e,0x02,0xa3,0x17, // 10128
0x86,0x01,0x79,0x01,0x5c,0x00,0x67,0x01, 0x83,0x02,0xd1,0xfe,0xa2,0x01,0xb9,0x02, // 10144
0x24,0x02,0xf8,0x00,0xd2,0xff,0xc9,0x00, 0x7a,0x01,0x38,0x02,0xf7,0x02,0xe6,0x02, // 10160
0x13,0x02,0xd4,0x01,0xfa,0xff,0x3d,0x03, 0x4d,0x01,0xe5,0x01,0xe3,0x02,0xcd,0x01, // 10176
0xd0,0x01,0x28,0x03,0x51,0x0c,0xd1,0x01, 0x27,0x03,0x42,0x01,0x2f,0x01,0xd1,0x02, // 10192
0x06,0x00,0x4e,0x02,0x3f,0x03,0x1d,0x03, 0x6a,0x02,0x0c,0x01,0x22,0x02,0x35,0x02, // 10208
0xa4,0x01,0xe8,0x02,0xb9,0xff,0xc8,0x12, 0x97,0xff,0x67,0x00,0xd5,0xff,0xfe,0x01, // 10224
0xfa,0x02,0xc5,0x00,0xeb,0x02,0x10,0x02, 0x8d,0x00,0x6d,0xff,0x40,0x02,0xeb,0x00, // 10240
0x71,0x00,0xad,0x02,0xa6,0xf7,0xa9,0x02, 0xe5,0xff,0x95,0x00,0x9a,0x02,0x5e,0x19, // 10256
0xd2,0x01,0x91,0x00,0xe2,0x02,0xbc,0x02, 0x76,0x01,0x4b,0x01,0xed,0x01,0x8e,0x02, // 10272
0xbb,0x02,0x51,0x02,0x05,0x01,0x53,0x01, 0x00,0x01,0x7a,0x01,0xdc,0x02,0x86,0x01, // 10288
0x18,0x02,0x2d,0x01,0xd3,0x02,0x42,0x02, 0xec,0x00,0xf7,0x00,0xef,0x02,0xf0,0x02, // 10304
0xd7,0x00,0x3c,0x00,0x25,0x0d,0x01,0x02, 0x73,0x00,0x65,0x01,0x3b,0x02,0xad,0x01, // 10320
0x89,0xff,0x4f,0xff,0x8f,0x00,0x65,0x01, 0xce,0x00,0xf6,0xff,0x09,0x01,0x3e,0xfe, // 10336
0x84,0x01,0xc4,0x00,0xf8,0xff,0x98,0xfe, 0xa2,0xfe,0x47,0x00,0x54,0xfe,0x66,0xff, // 10352
0xf3,0xff,0xf1,0x00,0x6e,0xff,0x7a,0x00, 0xcf,0x00,0xaf,0x00,0x2f,0xff,0x98,0xfe, // 10368
0x2f,0xff,0x3b,0xfe,0xad,0xff,0x76,0xfe, 0xc3,0xfe,0x6b,0x00,0xab,0xfe,0xab,0xfe, // 10384
0x59,0xff,0xd7,0x00,0xe5,0xff,0xb7,0xff, 0x6e,0xff,0x0d,0x01,0x5e,0xfe,0x70,0xff, // 10400
0x2a,0xfe,0x15,0xff,0xeb,0xfe,0xb4,0x01, 0x74,0xff,0x47,0xff,0x7d,0xfe,0xa9,0xff, // 10416
0xa2,0xff,0x28,0xfe,0xfc,0xfe,0x7c,0x01, 0xb6,0x00,0x0b,0xff,0x42,0x01,0xa7,0xfe, // 10432
0xfb,0x00,0x3b,0x01,0x0d,0x00,0xef,0x00, 0x3d,0xfe,0xf7,0x00,0xbd,0xfe,0xd0,0xff, // 10448
0x95,0x00,0xa2,0x00,0x12,0xff,0xf2,0xfe, 0x2f,0x00,0x04,0xff,0x80,0x00,0xa6,0x00, // 10464
0x99,0xff,0x09,0xff,0x0b,0x01,0x18,0x00, 0x29,0x01,0xa1,0x00,0x3d,0x00,0xf5,0x00, // 10480
0x4d,0x00,0xf5,0xff,0x6a,0xff,0xf8,0xff, 0x38,0x00,0x42,0x00,0x17,0xfe,0x57,0xfe, // 10496
0x8d,0xfe,0x68,0xff,0x2b,0x00,0x13,0x01, 0x36,0x00,0x67,0x01,0x6a,0xff,0x25,0x01, // 10512
0x25,0x01,0x9b,0xfe,0xca,0xff,0xf3,0xff, 0xa7,0xfe,0xc9,0xff,0xe3,0x00,0x2c,0xff, // 10528
0xb6,0xfe,0x71,0x00,0xf6,0xff,0xce,0x00, 0xf3,0x00,0x3a,0x00,0x5d,0x01,0x23,0xfe, // 10544
0xdd,0xfe,0x2e,0xff,0x0f,0x00,0x86,0xff, 0x5b,0x01,0xbc,0xfe,0xec,0x00,0x46,0xfe, // 10560
0x28,0xff,0x76,0xff,0x63,0x01,0xb3,0x00, 0xcb,0xfe,0x5b,0x00,0x76,0x00,0x35,0x01, // 10576
0xc9,0x02,0x7a,0x03,0x19,0x03,0xea,0x01, 0x85,0x00,0xa4,0x02,0x8f,0x01,0x02,0x01, // 10592
0xae,0x02,0x52,0x02,0x64,0x01,0x3d,0x11, 0x06,0x00,0x25,0x00,0xb0,0x00,0x01,0x02, // 10608
0x46,0x03,0xbe,0x00,0xe3,0x00,0xf8,0x02, 0x76,0x02,0x37,0xff,0x07,0x03,0x67,0x01, // 10624
0x16,0x03,0xe4,0x00,0xc7,0xf7,0xa3,0x01, 0xf5,0x02,0x35,0x01,0x4b,0x03,0x7a,0x18, // 10640
0x0a,0x01,0xeb,0xfe,0x3b,0x01,0x5e,0x01, 0xa9,0x02,0x94,0xff,0xa3,0x02,0xc9,0x01, // 10656
0x4c,0x00,0x7a,0x01,0x3c,0xff,0x06,0x03, 0x33,0x02,0xc0,0x02,0x65,0x02,0xec,0xff, // 10672
0x71,0x02,0x72,0x01,0x84,0x00,0x2a,0x02, 0xc4,0xff,0xc9,0x01,0x0a,0x01,0x9b,0x00, // 10688
0xd8,0x00,0xe4,0x02,0x07,0x0c,0xfa,0x00, 0xf5,0x01,0x95,0x00,0x79,0x00,0x9b,0x02, // 10704
0x5e,0x01,0x64,0xff,0x4f,0xfe,0x0c,0x01, 0x59,0xff,0xaa,0xff,0xf5,0xfe,0x22,0x01, // 10720
0x05,0x01,0x33,0xfe,0x78,0x00,0x29,0x01, 0x36,0x01,0x6d,0xff,0x8e,0x01,0x0e,0x00, // 10736
0x77,0x00,0x7d,0xff,0x21,0xff,0x70,0xff, 0xb9,0xff,0xe2,0xff,0x3a,0xfe,0xec,0xfe, // 10752
0x3b,0x00,0x2e,0xfe,0xc6,0xfe,0xef,0x00, 0xde,0xfe,0x30,0xfe,0x17,0x01,0xa7,0x00, // 10768
0x0e,0x01,0x16,0x01,0x23,0x01,0x42,0xff, 0xb9,0x00,0xbf,0xfe,0x42,0x01,0x26,0xff, // 10784
0x20,0xff,0xc0,0xfe,0x08,0x00,0x2b,0x00, 0x61,0xff,0x96,0x00,0x11,0x01,0x8c,0xff, // 10800
0xe2,0x00,0xd7,0x00,0x39,0xfe,0x2f,0xfe, 0xdc,0xfe,0x40,0x01,0xf3,0x00,0xf9,0xfe, // 10816
0xe8,0x00,0x33,0xff,0xe3,0x00,0x7f,0xff, 0x08,0xff,0x59,0xfe,0x92,0xfe,0x00,0x00, // 10832
0x5d,0x01,0xc3,0xfe,0x0b,0x01,0xea,0x00, 0xaf,0x01,0xac,0xfe,0xf3,0x00,0x0b,0x01, // 10848
0x7e,0x00,0x48,0x00,0x75,0x00,0x6c,0xfe, 0xc6,0x00,0x19,0x01,0x07,0xff,0xb1,0xfe, // 10864
0x6c,0xfe,0x93,0x01,0xc6,0x00,0xf7,0xfe, 0x8f,0x00,0x14,0xff,0x20,0xff,0x6d,0xff, // 10880
0xb1,0x01,0xf6,0xff,0xeb,0x00,0x8a,0x01, 0xed,0x00,0x14,0x00,0x12,0x00,0xd0,0xfe, // 10896
0x8a,0x00,0xd2,0x01,0xe3,0xfe,0x1e,0x01, 0x7a,0xff,0x1b,0x01,0x92,0xfe,0x9f,0xfe, // 10912
0x57,0xff,0xcd,0xfe,0x5f,0x01,0x09,0x00, 0x44,0xff,0x49,0x00,0xb4,0xff,0xae,0xfe, // 10928
0xfe,0xff,0x26,0x00,0x8c,0x00,0x70,0xfe, 0xc0,0xfe,0x5b,0x00,0xff,0xfe,0x0e,0xff, // 10944
0xba,0xff,0x95,0xfe,0xcb,0xff,0x83,0xfe, 0x60,0xff,0x8b,0x00,0x92,0xfe,0x1c,0x01, // 10960
0x8e,0x01,0x2f,0x01,0x1f,0x01,0x3d,0x01, 0x71,0x02,0xef,0x02,0x1a,0x01,0xcc,0x01, // 10976
0x2a,0x00,0xd6,0x02,0xec,0x01,0xc4,0x10, 0x9a,0x00,0x41,0x02,0xde,0x02,0xd7,0x01, // 10992
0x62,0x03,0x0f,0x02,0x2b,0x00,0x66,0x02, 0xe7,0x02,0xa7,0xfe,0x16,0x00,0xc8,0x01, // 11008
0xbb,0x01,0xcc,0x01,0x52,0xf9,0x49,0x00, 0x75,0x02,0x94,0x00,0xab,0x01,0x54,0x17, // 11024
0x7e,0x02,0x5a,0x01,0xc1,0x00,0x11,0x01, 0xfe,0x01,0x3d,0x00,0x42,0x01,0x7c,0x01, // 11040
0x8d,0x00,0x0a,0x00,0x8c,0xff,0x1b,0x01, 0x34,0x00,0x39,0x02,0xf8,0x02,0x5b,0x01, // 11056
0xa8,0x02,0x2a,0x00,0x28,0x00,0x08,0x03, 0x5c,0x02,0x65,0x01,0x5a,0x02,0x28,0x03, // 11072
0xfa,0x01,0x0b,0x02,0x98,0x0b,0xcc,0xff, 0x29,0x02,0xe7,0x02,0x36,0x03,0x5e,0x00, // 11088
0xad,0xfe,0xe6,0xff,0x52,0xfe,0x14,0xff, 0xeb,0xfe,0xac,0xfe,0x3a,0xff,0xf9,0x00, // 11104
0xb4,0xff,0x53,0x00,0xad,0xff,0xb6,0xfe, 0xb1,0x00,0x77,0xff,0x22,0xff,0x00,0xff, // 11120
0x42,0x01,0x32,0x00,0xdc,0xff,0xbc,0xfe, 0x01,0x00,0x8f,0xff,0xa4,0x01,0x17,0x01, // 11136
0x2e,0xff,0x2b,0x01,0xbb,0x00,0xab,0x00, 0x79,0xfe,0x6c,0xfe,0x75,0xfe,0xe1,0xff, // 11152
0xa6,0xff,0x5a,0xfe,0x8b,0xfe,0x1b,0x00, 0x90,0xff,0xac,0x01,0xdb,0xfe,0x2b,0xff, // 11168
0x5c,0xff,0x5d,0xfe,0x4f,0x00,0x8e,0xff, 0x34,0x01,0xa9,0x00,0x45,0xfe,0xa0,0xff, // 11184
0x62,0xfe,0xa6,0x01,0x11,0xff,0x8b,0x00, 0xf7,0xfe,0x7b,0x01,0x9e,0xfe,0xc9,0x00, // 11200
0xf1,0xfe,0x5f,0x00,0x6a,0xfe,0x8d,0x01, 0x59,0xfe,0x1d,0x01,0x7a,0x00,0x87,0x01, // 11216
0x23,0x03,0x96,0x01,0x79,0x02,0xff,0x02, 0x75,0x02,0xe5,0x02,0x0e,0x02,0x82,0x01, // 11232
0x11,0x03,0x7f,0x00,0x9d,0x01,0xf6,0x10, 0x1f,0x01,0x0b,0x03,0x76,0x02,0x33,0x02, // 11248
0xe2,0x00,0x1f,0x00,0x64,0x02,0xc0,0x01, 0xc5,0x00,0x7c,0xfe,0x4f,0x01,0x3f,0x02, // 11264
0x4d,0x01,0x34,0x02,0xd3,0xf8,0x36,0x02, 0x62,0x01,0x6f,0x02,0x4b,0x01,0xc6,0x17, // 11280
0x76,0x02,0xeb,0xfe,0x59,0x02,0x23,0x00, 0xc7,0x02,0xa5,0x00,0x12,0x00,0xe4,0x00, // 11296
0x73,0x01,0x58,0x01,0x34,0xff,0xdf,0x00, 0xee,0xff,0xa6,0x01,0xfc,0x02,0xd9,0x01, // 11312
0xf8,0x02,0x88,0x01,0x1b,0x03,0x5b,0x00, 0x28,0x01,0xc0,0x02,0x1d,0x00,0xac,0x00, // 11328
0xb7,0x02,0x11,0x03,0x4a,0x0c,0xf9,0x02, 0xfb,0x02,0x53,0x00,0xc4,0x01,0x94,0x02, // 11344
0x26,0x00,0x5c,0xff,0xab,0xff,0xf7,0xff, 0x06,0xff,0x67,0xff,0x64,0x01,0x4d,0xfe, // 11360
0x08,0xff,0x19,0x01,0x04,0x00,0x15,0xff, 0x78,0xfe,0x9e,0xff,0xf7,0xff,0x7e,0xff, // 11376
0x0f,0x01,0xd1,0xfe,0x53,0x01,0x49,0x00, 0xe7,0x00,0x88,0x01,0xd9,0xff,0x85,0x00, // 11392
0x65,0x00,0x2f,0x00,0x29,0xff,0x48,0x01, 0x70,0xfe,0xeb,0x00,0x80,0x00,0x5f,0xfe, // 11408
0x8a,0x00,0x4c,0x01,0x77,0x01,0x25,0xff, 0x0d,0xff,0x4e,0x00,0xef,0xfe,0x43,0xff, // 11424
0x7c,0xff,0xdc,0xff,0x95,0xfe,0x95,0x00, 0xd1,0xff,0x0c,0x01,0x23,0xff,0xf7,0x00, // 11440
0xf1,0xfe,0xa9,0x00,0x63,0xff,0x0c,0x00, 0x8f,0x00,0x5e,0x00,0x48,0x01,0x12,0xff, // 11456
0xec,0xfe,0x31,0x01,0xb0,0xfe,0xd2,0xff, 0x27,0x00,0x2f,0x01,0x24,0x00,0x34,0xfe, // 11472
0x4a,0x03,0xaf,0x01,0x28,0x01,0xe2,0x00, 0x28,0x03,0x6b,0x00,0x97,0x01,0x1f,0x03, // 11488
0x8b,0x00,0xf8,0xff,0x73,0x01,0xd9,0x10, 0x51,0x00,0xd2,0x00,0x10,0x02,0x6e,0x01, // 11504
0xa1,0x01,0x9d,0x00,0xa2,0x00,0x51,0x01, 0x77,0x02,0xa7,0xfe,0xe2,0x01,0x9d,0x01, // 11520
0x44,0x03,0x8c,0x00,0xfa,0xf8,0x0b,0x02, 0x98,0x01,0xbe,0x01,0x17,0x00,0xcc,0x18, // 11536
0xa2,0x02,0xd7,0x00,0xa1,0x00,0x98,0x01, 0x4e,0x00,0x90,0x00,0x40,0x03,0x8a,0x02, // 11552
0x29,0x02,0x26,0x03,0x84,0x01,0x19,0x03, 0x86,0x01,0x55,0x00,0x64,0x01,0x10,0x00, // 11568
0x62,0x00,0x49,0x01,0x08,0x01,0x1a,0x03, 0x9e,0x01,0xeb,0x00,0xe3,0x02,0x30,0x01, // 11584
0x02,0x01,0x08,0x00,0xb6,0x0b,0x57,0x02, 0x9c,0x00,0xf9,0x02,0x6f,0x01,0xe3,0x01, // 11600
0x50,0x01,0x48,0xff,0xb2,0xff,0x53,0xff, 0x9e,0xff,0xd1,0xff,0xae,0x00,0x88,0xff, // 11616
0x0d,0x00,0xeb,0x00,0xa0,0xfe,0xe2,0xfe, 0xd5,0xff,0xeb,0xfe,0x46,0x01,0x56,0x01, // 11632
0x5f,0x01,0x05,0xff,0x34,0x01,0xca,0xfe, 0xba,0xfe,0xea,0x00,0x0c,0x01,0xa0,0xfe, // 11648
0xdb,0xfe,0xf7,0xfe,0x45,0xff,0x5c,0xff, 0x68,0xff,0xc7,0xff,0x40,0xff,0xf8,0xff, // 11664
0x64,0x01,0x49,0x01,0x72,0x01,0xc0,0x00, 0xa3,0x00,0x3a,0x01,0x8b,0x00,0x18,0xfe, // 11680
0x73,0x01,0xb4,0xff,0xb0,0xfe,0x60,0xff, 0x62,0x01,0x16,0x00,0x34,0x01,0xb3,0xfe, // 11696
0x72,0x01,0x27,0x01,0x9f,0xff,0x1f,0xff, 0xad,0xff,0x5b,0x01,0xca,0xfe,0x6a,0x00, // 11712
0xc1,0xfe,0x41,0xff,0x03,0xff,0x6a,0xfe, 0x40,0x00,0xaa,0xfe,0x33,0xfe,0x62,0xff, // 11728
0xae,0x02,0xf8,0x00,0x75,0x01,0x38,0x01, 0x47,0x00,0x79,0x02,0x30,0x01,0xd3,0x00, // 11744
0x4b,0x02,0x87,0x00,0xfb,0x02,0xba,0x0f, 0x02,0x01,0xdb,0x02,0x2a,0x01,0x44,0x00, // 11760
0xa7,0x00,0x01,0x00,0xc9,0x02,0xf8,0x02, 0x8a,0x02,0xa0,0xfe,0x8d,0x01,0x76,0x01, // 11776
0xe0,0xff,0x76,0x00,0x20,0xf9,0x47,0x01, 0xbb,0x02,0x98,0x01,0x5a,0x03,0xb6,0x16, // 11792
0xfc,0xff,0x0f,0xff,0x80,0x02,0x91,0x01, 0x3e,0x02,0x8a,0xfe,0xad,0x01,0xc6,0x01, // 11808
0xc6,0x01,0xc0,0x02,0xc2,0xff,0xb4,0x02, 0x94,0x00,0xce,0x00,0x1b,0x00,0x93,0x01, // 11824
0xf1,0x02,0xbd,0x02,0x85,0x02,0x37,0x02, 0xb2,0x02,0xcb,0x02,0xa7,0x01,0x96,0x02, // 11840
0x4d,0x02,0xef,0x02,0x43,0x0b,0x22,0x00, 0x7e,0x00,0xa6,0x02,0x25,0x02,0x4a,0x02, // 11856
0xa4,0xff,0x39,0xfe,0x63,0xff,0xd6,0xff, 0x5a,0xfe,0x24,0xff,0x2d,0x01,0x1d,0x01, // 11872
0x66,0x00,0x3d,0xff,0xa2,0xff,0xe5,0xff, 0x20,0x00,0x1d,0xff,0x77,0xfe,0x5b,0xff, // 11888
0x8a,0xfe,0x42,0x00,0xea,0xff,0xcd,0x00, 0xbc,0xff,0x48,0x01,0x7f,0x01,0xce,0xff, // 11904
0xba,0xfe,0x01,0x01,0x65,0xff,0x3b,0x00, 0x4f,0xfe,0xce,0xff,0xd2,0x00,0x57,0x01, // 11920
0xdc,0xff,0x2e,0xfe,0x2f,0xff,0x91,0xff, 0xb8,0xfe,0x64,0x00,0x51,0x00,0x8f,0xff, // 11936
0x4b,0xfe,0xf6,0x00,0x41,0x00,0x4b,0x00, 0xe3,0xfe,0x88,0x01,0x74,0xff,0x22,0xfe, // 11952
0x90,0x00,0x11,0x01,0x26,0xff,0x56,0x00, 0xa7,0xff,0x7c,0x00,0x34,0x01,0xd0,0x00, // 11968
0x82,0xff,0x43,0xff,0x15,0xff,0x16,0x01, 0xe1,0xfe,0x29,0x01,0x81,0x00,0x58,0x00, // 11984
0x3b,0xfe,0x42,0x00,0x48,0xfe,0x22,0x00, 0x69,0x01,0x4e,0xfe,0xc0,0x00,0x21,0x01, // 12000
0xb8,0xff,0x71,0xff,0x48,0x01,0x72,0xfe, 0x3d,0xff,0xfd,0xfe,0x3c,0x00,0x90,0xfe, // 12016
0x8e,0x01,0x92,0xfe,0xf4,0xfe,0xe3,0xfe, 0xdf,0x00,0x29,0xff,0xdf,0xff,0x62,0xfe, // 12032
0x72,0xfe,0x12,0xff,0xa2,0xfe,0xa7,0x00, 0xcf,0x00,0xbb,0xfe,0xb9,0x00,0x62,0xfe, // 12048
0x00,0x01,0x20,0x01,0x70,0xfe,0x79,0x01, 0xc4,0x00,0x36,0xff,0x86,0x00,0x98,0xfe, // 12064
0x11,0x00,0x97,0xfe,0xa7,0xfe,0x75,0x01, 0x89,0x00,0xe0,0x00,0x16,0xff,0x3a,0x00, // 12080
0x2e,0xfe,0x83,0xff,0x67,0x00,0xc8,0xff, 0x88,0xff,0xda,0xff,0x18,0x00,0x4c,0xff, // 12096
0x57,0x01,0xf3,0xfe,0xe9,0x00,0xd8,0xff, 0xea,0xff,0xb1,0xff,0xab,0x00,0xb8,0xff, // 12112
0x31,0xff,0x8e,0x00,0x5a,0x00,0xdc,0xff, 0x40,0xfe,0xab,0xff,0x14,0x01,0x05,0x01, // 12128
0xfb,0xfe,0xd6,0x00,0xef,0x00,0x4c,0x00, 0x78,0x00,0xbb,0x00,0x64,0x00,0xb6,0xff, // 12144
0x65,0xff,0xea,0xfe,0x5b,0xfe,0x3e,0xff, 0x32,0x01,0x3b,0xff,0xca,0x00,0xde,0xff, // 12160
0xf0,0x00,0x90,0xfe,0x43,0xfe,0xb9,0x00, 0x79,0xfe,0x34,0xff,0x4a,0x00,0x9c,0xff, // 12176
0x3e,0xff,0x81,0x00,0x67,0xfe,0x49,0x00, 0x28,0x01,0x3c,0x01,0x27,0xff,0x0c,0xff, // 12192
0xaf,0xff,0x37,0xfe,0x53,0xff,0x7c,0x01, 0x08,0x01,0xdb,0x00,0x02,0x00,0x24,0xfe, // 12208
0xd9,0xff,0x2f,0xff,0x27,0xff,0xd7,0xfe, 0x12,0xff,0x47,0xff,0x03,0xff,0x98,0x00, // 12224
0x7e,0xfe,0x0d,0x01,0x84,0x00,0x41,0x00, 0x59,0xff,0x86,0xfe,0x9f,0xff,0x59,0x00, // 12240
0xf2,0xfe,0x1c,0x01,0x76,0xff,0x19,0x01, 0xdd,0x00,0xc9,0xff,0xb1,0xff,0x5d,0x01, // 12256
0xbf,0xff,0x82,0x01,0x2b,0x00,0x4b,0x01, 0xdf,0xff,0x68,0xfe,0x55,0x00,0x3f,0x01, // 12272
0xbb,0x00,0x05,0x01,0x6a,0xfe,0xac,0xfe, 0x33,0x00,0xb3,0xff,0xbf,0xfe,0xf1,0x00, // 12288
0xcc,0x00,0x22,0xfe,0x16,0x00,0x0b,0xff, 0x3a,0xfe,0xfe,0xff,0x5f,0xff,0xd8,0x00, // 12304
0xfc,0x00,0xa0,0xff,0x3a,0x01,0xc8,0xfe, 0xa6,0xfe,0x20,0x01,0x56,0x00,0xd8,0xff, // 12320
0x2a,0xff,0x7c,0xfe,0x88,0xfe,0x54,0xfe, 0xd3,0xff,0x63,0x00,0x82,0x00,0xdf,0x00, // 12336
0x1e,0xff,0x3e,0xff,0xd4,0x00,0xd7,0xff, 0xf8,0xfe,0xf0,0xfe,0x8d,0x00,0x7b,0x01, // 12352
0x21,0x00,0x28,0x01,0x99,0xff,0xfe,0x00, 0xda,0xff,0x2e,0x00,0x8d,0x01,0xe2,0xfe, // 12368
0x29,0x01,0xa4,0xfe,0x0a,0xff,0x67,0xff, 0x00,0x00,0xe2,0x00,0xce,0xff,0x0d,0x00, // 12384
0x54,0x01,0x3b,0xfe,0x30,0xfe,0x53,0xfe, 0xc7,0xff,0x66,0xfe,0x48,0xff,0x30,0x00, // 12400
0x79,0x01,0xa3,0x00,0xe0,0xfe,0x86,0xfe, 0xcf,0x00,0x5d,0x01,0x8d,0x01,0xc1,0xfe, // 12416
0x0d,0x00,0xf3,0xfe,0x7d,0x00,0xfc,0x00, 0xc7,0x00,0x0c,0x00,0x06,0xff,0xfb,0xff, // 12432
0x62,0xfe,0x3c,0xff,0x2e,0x00,0x30,0xff, 0x87,0xfe,0x52,0x00,0xd9,0x00,0x5e,0xfe, // 12448
0xb2,0x00,0xd9,0x00,0x64,0x01,0x17,0x00, 0x37,0xfe,0x5a,0xfe,0x61,0x01,0x27,0x01, // 12464
0x16,0xff,0x0c,0x00,0xdb,0x00,0xe9,0xfe, 0x60,0x00,0x5f,0xfe,0x61,0x00,0xc7,0xfe, // 12480
0x6d,0x00,0xae,0xfe,0x00,0x01,0xa8,0xfe, 0x94,0xfe,0x39,0x00,0x4c,0x00,0x37,0x01, // 12496
0x38,0xfe,0x05,0xff,0xa2,0x00,0x1c,0xff, 0xe8,0x00,0x53,0x01,0xef,0xfe,0x37,0x00, // 12512
0xfb,0x00,0x5b,0xff,0x21,0x00,0x03,0x01, 0x6e,0x00,0x0c,0xff,0x0d,0xff,0x83,0x00, // 12528
0xbd,0xfe,0xd7,0x00,0x3d,0x01,0xd1,0x00, 0xbb,0xff,0x1f,0xff,0x1e,0x01,0x79,0x00, // 12544
0x46,0x01,0xf1,0x00,0xb4,0xfe,0x4e,0x01, 0xf4,0x00,0xf8,0xfe,0xeb,0xff,0xa6,0x00, // 12560
0xce,0xfe,0x5d,0x00,0x56,0x00,0x3f,0xfe, 0x63,0xff,0x1b,0xff,0x40,0x00,0x71,0x00, // 12576
0xb4,0xfe,0x42,0x01,0xc3,0xfe,0xa6,0xfe, 0xdb,0x00,0xe1,0xfe,0xf1,0x00,0xb4,0x00, // 12592
0x5d,0xfe,0xc7,0x00,0xe0,0xff,0x28,0xfe, 0x08,0xfe,0xef,0xfe,0x1f,0x01,0x22,0xff, // 12608
0xd7,0xff,0x95,0xff,0x42,0x00,0xb6,0x00, 0x6c,0xfe,0x46,0x01,0x63,0x00,0x5c,0x00, // 12624
0x98,0x02,0x81,0x00,0x5e,0x02,0xbb,0x00, 0x7a,0x00,0xd1,0x00,0x3b,0x02,0xe3,0x02, // 12640
0xd4,0x02,0x88,0x00,0x20,0x01,0x37,0x11, 0xda,0x00,0x4b,0x02,0x3f,0x01,0x39,0x03, // 12656
0x3e,0x00,0x98,0x03,0x53,0x02,0x19,0x01, 0xe0,0x01,0x9c,0xff,0x39,0x03,0xd7,0x02, // 12672
0x9c,0x01,0xb3,0x02,0x12,0xf7,0xab,0x00, 0x1f,0x01,0x9d,0x02,0xa8,0x02,0xcb,0x16, // 12688
0xe8,0x02,0xab,0x01,0xb4,0x01,0x61,0x02, 0xf7,0xff,0x4a,0xff,0x65,0x01,0x14,0x00, // 12704
0x9f,0x00,0xc5,0x01,0x1b,0x01,0x9f,0x00, 0xa0,0x01,0x8e,0x02,0x52,0x03,0x27,0x02, // 12720
0xef,0x02,0xf3,0x00,0xfe,0xff,0x2a,0x00, 0x00,0x00,0xf0,0x00,0x47,0x01,0xb3,0x01, // 12736
0xb0,0x01,0x75,0x01,0x10,0x0c,0x59,0x00, 0x5f,0x01,0x4a,0x01,0x7f,0x01,0x89,0x00, // 12752
0x64,0x01,0x1b,0x00,0x4a,0x00,0xcf,0x00, 0xbc,0xff,0x07,0x01,0x5f,0xfe,0x72,0x00, // 12768
0x49,0x00,0x46,0xfe,0x15,0xff,0x31,0xff, 0x1d,0xff,0x70,0xff,0x8d,0x01,0x5b,0xfe, // 12784
0x54,0xfe,0x1b,0xff,0x0c,0x01,0xb4,0xfe, 0x24,0xff,0x3b,0x01,0x50,0xff,0xef,0xfe, // 12800
0x8d,0x00,0x4b,0x01,0x76,0xff,0xcb,0xff, 0xdf,0xfe,0xba,0xff,0x48,0xfe,0x5e,0xfe, // 12816
0x08,0xff,0xe0,0x00,0xfa,0xfe,0xbc,0xff, 0xec,0x00,0x1b,0x00,0xd5,0xfe,0x2f,0x01, // 12832
0x58,0x01,0xe3,0x00,0xd4,0xff,0x83,0x00, 0x71,0xff,0x0b,0x00,0x30,0xfe,0x11,0xff, // 12848
0x26,0xfe,0x42,0xfe,0x3a,0xff,0x9f,0xfe, 0x9e,0xfe,0xf5,0xff,0x2c,0x01,0x7d,0x00, // 12864
0x40,0x01,0xbf,0x00,0x60,0xff,0x38,0xfe, 0xd0,0xfe,0xe0,0x00,0x63,0xfe,0x56,0x01, // 12880
0xae,0xfe,0x6e,0x01,0xc9,0x00,0xfb,0x00, 0xf1,0xfe,0x24,0x01,0x51,0x01,0x3c,0xff, // 12896
0xfd,0xfe,0xe2,0x00,0x5d,0xfe,0x60,0xfe, 0x0e,0xfe,0x9b,0x00,0xd4,0xff,0xb2,0xfe, // 12912
0x1b,0xff,0xad,0xfe,0xc1,0x00,0x32,0x00, 0x97,0xfe,0xa8,0xfe,0x40,0x01,0x46,0xfe, // 12928
0x2d,0x00,0x99,0xff,0x50,0x00,0x7a,0x00, 0xc3,0xfe,0x4f,0x00,0xef,0xff,0xcc,0xff, // 12944
0xce,0x00,0x74,0xfe,0x9e,0xfe,0x6c,0xff, 0x11,0xff,0xb2,0xfe,0x18,0x00,0xc8,0xfe, // 12960
0x72,0x00,0x16,0xff,0xf5,0xff,0x43,0x00, 0x4f,0x00,0xd8,0xfe,0xa3,0xfe,0x63,0xfe, // 12976
0x3e,0xfe,0xa6,0x00,0x1c,0xff,0x69,0x00, 0x9f,0xfe,0xbe,0xff,0x80,0xfe,0x88,0xfe, // 12992
0x1e,0x00,0xfd,0xfe,0x5c,0x01,0x51,0x00, 0xba,0x00,0x98,0xff,0xaf,0xff,0xe7,0xff, // 13008
0x47,0x02,0xfd,0x01,0x2c,0x02,0xd1,0x01, 0x4d,0x03,0x57,0x01,0x84,0x01,0x9c,0x02, // 13024
0xf1,0x01,0x50,0x03,0xad,0x00,0x76,0x0f, 0xa0,0x02,0xd2,0x00,0xab,0x00,0xde,0x02, // 13040
0xa5,0x01,0x65,0x03,0xa7,0x01,0x2a,0x00, 0xde,0xff,0x9f,0x01,0x35,0x03,0x50,0x00, // 13056
0x0f,0x03,0xd9,0x00,0x23,0xfa,0xb6,0x00, 0x70,0x02,0x58,0x02,0x51,0x00,0xc2,0x16, // 13072
0x90,0x01,0x0e,0xff,0xc0,0x00,0xb9,0x00, 0xe1,0x00,0x43,0xff,0xe4,0x01,0x01,0x00, // 13088
0xff,0x02,0x93,0x02,0x13,0xff,0x96,0x02, 0xb9,0x01,0x65,0x02,0x4e,0x01,0x6a,0x02, // 13104
0x1c,0x00,0x22,0x01,0xd4,0x00,0x49,0x00, 0x10,0x03,0x0b,0x01,0xf3,0x00,0x25,0x02, // 13120
0x48,0x02,0x27,0x03,0x22,0x0c,0xa5,0x02, 0x66,0x00,0x60,0x01,0xc6,0xff,0x57,0x03, // 13136
0x79,0xfe,0x72,0xff,0x60,0x01,0x74,0xff, 0xb9,0x00,0xaf,0xff,0xf5,0xff,0x13,0xff, // 13152
0x38,0x01,0x73,0xff,0x5b,0x00,0xdd,0x00, 0x7b,0x00,0x36,0x00,0xe6,0xff,0x2c,0x01, // 13168
0x55,0x00,0xff,0xfe,0x2f,0x00,0x19,0x00, 0xb1,0xff,0x1a,0xff,0x8c,0x00,0x71,0xff, // 13184
0x05,0x00,0x3c,0xfe,0xbc,0x00,0x1f,0x00, 0x1d,0xff,0x33,0x00,0xe9,0xfe,0x3f,0xff, // 13200
0x9e,0xfe,0x0a,0xff,0x71,0x00,0x3e,0x00, 0xb5,0xff,0xed,0x00,0x19,0x01,0xdc,0xff, // 13216
0x00,0x01,0x12,0x00,0x8b,0x01,0xa3,0xff, 0xf3,0xfe,0x72,0x00,0x66,0x01,0x85,0x00, // 13232
0x73,0xfe,0x3b,0x00,0xf8,0xfd,0x40,0xfe, 0xaa,0xff,0x53,0x01,0xa1,0xfe,0x92,0xfe, // 13248
0xaf,0xff,0x9a,0xff,0x3c,0xff,0xeb,0x00, 0x1e,0x00,0x45,0x01,0xd2,0xfe,0xb6,0xfe, // 13264
0x0c,0x03,0x1b,0x02,0xba,0x00,0x1f,0x02, 0xf3,0x02,0x46,0x01,0x83,0x00,0x3b,0x03, // 13280
0x31,0x00,0x1b,0x00,0x94,0x00,0xf8,0x0f, 0xcd,0x01,0xd7,0x01,0xd9,0x01,0x26,0x03, // 13296
0xc3,0x02,0x93,0x01,0x45,0x02,0xee,0x00, 0xda,0xff,0x4e,0xff,0x59,0x01,0x4b,0x00, // 13312
0xf7,0x01,0x79,0x00,0x07,0xf7,0x20,0x01, 0xe4,0x01,0x54,0x01,0x29,0x01,0x68,0x17, // 13328
0xdb,0x01,0xd2,0x00,0xe2,0x00,0x72,0x01, 0x6a,0x00,0xbb,0x00,0x6c,0x02,0xdb,0x00, // 13344
0x8a,0x01,0x85,0x01,0xd6,0xfe,0x3c,0x02, 0x55,0x03,0x6f,0x02,0xbf,0x00,0xaa,0x01, // 13360
0x35,0x00,0x1f,0x02,0x17,0x01,0x48,0x01, 0x72,0x00,0x1a,0x03,0x4c,0x02,0x88,0x00, // 13376
0x30,0x03,0x69,0x01,0x68,0x0d,0xa6,0x02, 0x8e,0x00,0x53,0x02,0x20,0x03,0x12,0x02, // 13392
0x30,0x00,0xc3,0x02,0xc3,0x00,0x45,0x01, 0xf3,0x02,0x6d,0x02,0xe8,0x02,0xe9,0x01, // 13408
0xd1,0x02,0x9a,0x01,0xba,0x01,0x0c,0x11, 0x2d,0x03,0x12,0x00,0xe1,0x00,0x5e,0x01, // 13424
0x4d,0x02,0x70,0x01,0x22,0x01,0x16,0x01, 0xe8,0x02,0x0a,0x00,0x15,0x01,0xad,0x01, // 13440
0x98,0x02,0x2b,0x01,0x75,0xf9,0xde,0x02, 0x54,0x01,0x59,0x02,0x41,0x00,0xf7,0x17, // 13456
0x79,0x00,0xe5,0xfe,0x02,0x03,0x9a,0x01, 0x5a,0x01,0xb4,0xfe,0xfa,0x00,0xb7,0x00, // 13472
0x09,0x02,0xfd,0xff,0xc6,0xff,0x93,0x01, 0x94,0x02,0x77,0x00,0xff,0x01,0xf7,0x01, // 13488
0xdd,0x01,0x07,0x00,0x1e,0x03,0x4b,0x00, 0x06,0x00,0x30,0x00,0x8d,0x03,0x5c,0x00, // 13504
0xcc,0x02,0x10,0x03,0x80,0x0b,0xf1,0x00, 0xdf,0x00,0xd0,0x01,0x35,0x02,0x80,0x00, // 13520
0x1e,0x01,0xe3,0x00,0xbe,0xff,0xe7,0xff, 0x09,0xfe,0xc6,0xff,0x0e,0x01,0x8b,0xff, // 13536
0x81,0xfe,0x0b,0xff,0xf5,0xfe,0x79,0xff, 0xed,0x00,0x58,0x00,0x89,0x01,0x2b,0xff, // 13552
0x34,0x00,0x88,0x00,0x18,0xff,0x3f,0x01, 0xe7,0x00,0x17,0x01,0xa0,0xfe,0x0a,0x01, // 13568
0xfc,0xfe,0x7f,0x00,0x76,0x00,0xda,0x00, 0x21,0xfe,0x5a,0x00,0x49,0x01,0xc8,0xff, // 13584
0xde,0xfe,0xeb,0xff,0x51,0x01,0xf5,0xff, 0x24,0xff,0xa6,0x00,0xba,0xfe,0xd0,0xff, // 13600
0xa6,0xfe,0xe6,0xff,0x15,0xff,0xa7,0x00, 0x85,0xfe,0x93,0x00,0x9c,0xfe,0x7b,0x00, // 13616
0x67,0xff,0x3d,0x00,0xd3,0xff,0x76,0x00, 0xdb,0xfe,0xc1,0xff,0xc8,0x00,0x7f,0x00, // 13632
0x49,0xff,0xf5,0xfe,0xec,0xfe,0x10,0x01, 0xfe,0xff,0x8b,0xfe,0x07,0xff,0x8e,0xff, // 13648
0x1c,0x00,0x22,0x02,0xe6,0x01,0x8f,0x01, 0xb8,0x01,0x4f,0x01,0xd0,0xff,0x67,0x00, // 13664
0x09,0x01,0x76,0x00,0x93,0x02,0x79,0x10, 0xd7,0x02,0x42,0x03,0x7e,0x01,0xf1,0xff, // 13680
0x80,0x02,0x0a,0x02,0x44,0x03,0x5f,0x00, 0x1b,0x01,0x60,0xff,0x69,0x01,0xbd,0x02, // 13696
0xe2,0x02,0xf1,0x02,0xdc,0xf8,0x7a,0x00, 0xb4,0x01,0x97,0x01,0x5e,0x00,0x1e,0x16, // 13712
0x1b,0x03,0x62,0xff,0x03,0x02,0x71,0x00, 0xc9,0x01,0x19,0x01,0x2d,0x00,0x4a,0x03, // 13728
0x5c,0x00,0x11,0x01,0x03,0x00,0xc9,0x00, 0x5e,0x02,0xac,0x02,0xbc,0x00,0x19,0x00, // 13744
0xcf,0x02,0xad,0x02,0x9f,0x00,0x1d,0x02, 0xf7,0xff,0x28,0x03,0x47,0x02,0x02,0x03, // 13760
0x30,0x03,0x55,0x01,0xe0,0x0a,0xf1,0x01, 0x05,0x02,0xb1,0x00,0x78,0x02,0xf9,0x00, // 13776
0xc9,0xff,0x27,0x00,0xe5,0x00,0x54,0x01, 0xaa,0x00,0x36,0x00,0x6a,0x00,0x37,0xff, // 13792
0x64,0x01,0xbc,0x00,0x77,0xff,0xba,0xfe, 0x7b,0xfe,0x29,0xff,0xdc,0x00,0xcb,0xff, // 13808
0x52,0x01,0xc6,0x00,0x1a,0x00,0x71,0x00, 0x3b,0x01,0x5f,0xfe,0x84,0x01,0x8e,0xfe, // 13824
0x49,0xfe,0x27,0x01,0x50,0xff,0x94,0xfe, 0x41,0xff,0x00,0x00,0x64,0xfe,0x44,0x00, // 13840
0x7a,0x00,0xa2,0x00,0xde,0xfe,0x48,0xff, 0x38,0xfe,0xeb,0xfe,0x88,0xfe,0x16,0xff, // 13856
0x9f,0xff,0x8d,0xff,0xaa,0xff,0x37,0x01, 0xfc,0xff,0x4c,0xff,0x76,0x01,0x7c,0x00, // 13872
0xf6,0x00,0x0a,0x00,0x46,0xfe,0xbe,0x00, 0x6d,0xfe,0xbb,0xfe,0xf5,0xfe,0xe7,0xff, // 13888
0x24,0x00,0x24,0xfe,0x34,0x00,0x2f,0xff, 0x11,0x01,0xd8,0xff,0xd3,0x00,0xd6,0xff, // 13904
0xc6,0xff,0x53,0x00,0x97,0xff,0xfd,0xff, 0x0f,0xff,0x86,0x01,0x7f,0xff,0x4b,0xff, // 13920
0xc3,0xff,0xaf,0xff,0x9c,0xfe,0x95,0x00, 0x77,0xfe,0x44,0x00,0xe1,0xff,0x97,0x00, // 13936
0x42,0xfe,0x79,0x00,0x2c,0x00,0x22,0xfe, 0x54,0xfe,0x13,0x01,0x38,0x00,0x47,0xff, // 13952
0x9d,0x00,0xc6,0xfe,0x74,0x00,0xf3,0xff, 0xdc,0x00,0x82,0xff,0x63,0x00,0xaa,0x00, // 13968
0x52,0xfe,0xe6,0xff,0x5d,0x01,0x72,0xfe, 0x43,0x01,0xe8,0xfe,0x1a,0xff,0x07,0xff, // 13984
0x1f,0xff,0x6a,0xff,0x98,0x00,0x5c,0xff, 0x6a,0xfe,0x3b,0xff,0xa8,0xfe,0x98,0x00, // 14000
0x66,0x00,0xea,0xfe,0xb6,0xff,0x07,0x00, 0x11,0xff,0x19,0x00,0x1d,0x00,0xad,0x00, // 14016
0xdb,0x00,0x46,0xfe,0x9c,0xfe,0x2e,0x01, 0xa2,0xff,0x5b,0x01,0xb9,0x00,0x44,0x00, // 14032
0xc6,0x02,0x41,0x00,0x54,0x02,0xb4,0x01, 0xc1,0x01,0xe6,0x01,0xf3,0x02,0xeb,0x00, // 14048
0x04,0x03,0x34,0x03,0xd9,0x02,0x46,0x10, 0x45,0x01,0xd1,0x00,0xcd,0x02,0xcf,0x02, // 14064
0x1c,0x00,0x06,0x00,0x6e,0x02,0x4d,0x02, 0xc5,0x00,0xd6,0xff,0xea,0x02,0x98,0x02, // 14080
0x17,0x02,0x2b,0x01,0x1f,0xf8,0x93,0x00, 0x4c,0x03,0xf3,0x02,0x75,0x01,0xcc,0x17, // 14096
0x4b,0x00,0x0c,0xff,0xa9,0x01,0x62,0x03, 0x14,0x00,0xb3,0xff,0x5d,0x02,0xdc,0x02, // 14112
0x17,0x03,0x3a,0x02,0x14,0x00,0xcc,0x01, 0x5c,0x00,0x2a,0x03,0xbb,0x01,0x99,0x02, // 14128
0x01,0x03,0xce,0x01,0x58,0x00,0x61,0x02, 0x0c,0x00,0x5c,0x01,0x25,0x03,0xe2,0x01, // 14144
0x65,0x00,0x8b,0x02,0x75,0x0d,0x94,0x02, 0x14,0x01,0x87,0x02,0x62,0x01,0x0d,0x03, // 14160
0x90,0x00,0xdf,0xfe,0x85,0xff,0xbd,0x00, 0x65,0x01,0x03,0xff,0x1d,0x00,0x33,0xfe, // 14176
0x28,0x00,0x5a,0xfe,0x25,0xff,0x94,0x00, 0x9e,0xfe,0x80,0x00,0x43,0x00,0x4a,0xfe, // 14192
0x74,0xff,0x4d,0x01,0x51,0x01,0xcd,0xfe, 0xce,0xfe,0x22,0xff,0xb6,0x00,0xcd,0xff, // 14208
0xa7,0xfe,0x3e,0x00,0x5d,0x01,0x42,0xff, 0xcc,0xfe,0x9a,0xff,0xf4,0xfe,0x4f,0x00, // 14224
0x97,0xff,0x5f,0xfe,0xf4,0xff,0x65,0xfe, 0x81,0xff,0xbe,0x00,0x8f,0x01,0x93,0xfe, // 14240
0x69,0xfe,0x03,0x01,0x43,0xff,0x65,0xff, 0xa1,0x00,0xea,0xfe,0x18,0xff,0x2c,0xfe, // 14256
0x66,0x01,0xce,0x00,0xc7,0xfe,0x13,0xff, 0xb5,0xff,0x57,0xfe,0xf7,0xff,0x44,0x00, // 14272
0x4b,0x01,0xfb,0xfe,0x27,0x01,0xcc,0xfe, 0xbf,0xfe,0x13,0x01,0xa9,0xff,0x79,0x01, // 14288
0x5a,0x00,0x69,0x01,0xed,0xff,0xbf,0xfe, 0x90,0x01,0x3d,0xfe,0x44,0xff,0xc8,0xfe, // 14304
0x8d,0xff,0xf6,0x00,0x68,0xff,0x6b,0xff, 0x1c,0xff,0xdd,0x00,0x1d,0xff,0x3b,0x01, // 14320
0x3f,0x00,0x8a,0xfe,0x56,0xff,0xa0,0xff, 0xd0,0xfe,0xe7,0x00,0x98,0xfe,0x7d,0x00, // 14336
0x70,0x01,0x37,0xfe,0x83,0x01,0x76,0xff, 0xfa,0xff,0xfc,0xfe,0x83,0xfe,0x19,0x00, // 14352
0x05,0x01,0x15,0x00,0x8d,0x00,0x30,0x00, 0xa6,0xff,0x9e,0xff,0x2f,0x00,0x8a,0xfe, // 14368
0xe7,0xfe,0xe7,0xff,0x66,0x01,0xa1,0xff, 0x98,0x01,0xf9,0xff,0xc9,0xfe,0x7c,0x00, // 14384
0x41,0xff,0x8e,0xff,0x9a,0xff,0x87,0x00, 0xfc,0xff,0x8e,0x01,0x16,0x01,0x9e,0x00, // 14400
0x28,0xff,0x89,0x00,0x0d,0xff,0xf3,0xfe, 0xc2,0x00,0x3b,0x01,0x84,0x00,0x98,0x01, // 14416
0xba,0x00,0x90,0x03,0x7a,0x03,0x22,0x03, 0xf5,0xff,0xfa,0xff,0x28,0x02,0x5d,0x01, // 14432
0xf4,0x02,0x45,0x02,0x78,0x02,0x44,0x12, 0xf5,0x00,0x27,0x00,0x44,0x01,0x5f,0x03, // 14448
0x6a,0x00,0x76,0x03,0xab,0x00,0x9e,0x00, 0x8c,0x01,0xcf,0xfe,0x17,0x01,0x6d,0x02, // 14464
0xb8,0x02,0x04,0x00,0xc7,0xf5,0xc1,0x01, 0xe9,0x01,0x8a,0x01,0x53,0x00,0x9c,0x17, // 14480
0xff,0x00,0xf6,0xfe,0x0e,0x02,0x3f,0x01, 0x38,0x00,0xfd,0x01,0x35,0x03,0x03,0x01, // 14496
0x75,0x02,0x22,0x00,0xb8,0xff,0x17,0x02, 0x0d,0x01,0x21,0x01,0x7e,0x00,0xf4,0x00, // 14512
0x0f,0x03,0xdd,0xff,0x48,0x00,0xcc,0x00, 0x11,0x01,0xca,0x02,0x75,0x00,0xf7,0x00, // 14528
0xcf,0x02,0x5d,0x00,0xa7,0x0f,0x49,0x01, 0x00,0x00,0xc5,0x02,0x6e,0x00,0x50,0x03, // 14544
0xfc,0xff,0x01,0x00,0x65,0x00,0x9f,0xff, 0x98,0xfe,0x33,0x00,0xcd,0xff,0xda,0x00, // 14560
0xd8,0x00,0x5a,0xfe,0x37,0xfe,0xe6,0x00, 0xe0,0xfe,0x86,0xfe,0x4a,0x01,0xc9,0xff, // 14576
0x0a,0x00,0xfa,0xff,0x8d,0xfe,0xe1,0xff, 0x9c,0xff,0x48,0x01,0x07,0xff,0x7b,0xff, // 14592
0xbc,0xff,0x31,0x00,0x1c,0x01,0x5d,0x00, 0xee,0x00,0xf8,0xfe,0x4f,0x00,0x9b,0x00, // 14608
0xf9,0xfe,0x5f,0x00,0x31,0xfe,0xf8,0xfe, 0x03,0xff,0xcb,0x00,0xff,0xfe,0x78,0x00, // 14624
0xa6,0xff,0x1e,0x00,0x77,0xfe,0x9f,0xfe, 0x7c,0xfe,0x93,0x01,0x08,0x00,0xc0,0xff, // 14640
0x83,0x01,0x0a,0xff,0xd4,0xff,0xbb,0xfe, 0xaa,0xff,0x5c,0x01,0x14,0x01,0x64,0x01, // 14656
0xe1,0xfe,0x56,0x00,0xde,0xfe,0x98,0xfe, 0x9d,0x00,0x3a,0x01,0x30,0xfe,0x70,0x01, // 14672
0x0e,0x03,0xe9,0x00,0x3d,0x02,0xc4,0x00, 0xfc,0x01,0xac,0x00,0x32,0x01,0x55,0x03, // 14688
0x14,0x01,0x0b,0x01,0x86,0x00,0x73,0x10, 0xeb,0x02,0x1f,0x02,0xba,0x02,0xb1,0x00, // 14704
0xc9,0x00,0x0a,0x02,0x1d,0x02,0x2f,0x01, 0xe8,0x02,0x16,0x01,0xce,0x01,0x83,0x01, // 14720
0xef,0xff,0x2e,0x02,0xe2,0xf8,0xae,0x01, 0xb3,0x01,0xc0,0x02,0xf8,0x00,0x4b,0x18, // 14736
0x45,0x03,0x92,0xfe,0xd3,0x00,0x1d,0x03, 0x2e,0x00,0x01,0xff,0x86,0x02,0x4a,0x01, // 14752
0x80,0x00,0xed,0x01,0x5c,0xff,0xb9,0x02, 0x59,0x02,0xd4,0x02,0x0f,0x01,0xa4,0x00, // 14768
0x0f,0x00,0x31,0x00,0x9b,0x01,0xe4,0x02, 0x82,0x02,0xf7,0x02,0xcb,0x00,0x48,0x01, // 14784
0xbf,0x00,0x6e,0x01,0x26,0x0c,0x71,0x00, 0x1b,0x03,0x17,0x03,0x82,0x02,0xbc,0x02, // 14800
0x71,0x01,0x85,0x00,0xc0,0x00,0xf2,0xfe, 0x39,0xfe,0x12,0x01,0x20,0x00,0x3c,0x01, // 14816
0xa6,0xff,0x35,0xfe,0x8e,0x00,0xf3,0x00, 0x62,0x00,0x3a,0xfe,0xb8,0x00,0x34,0x01, // 14832
0xc4,0xff,0xdb,0xfe,0x49,0x01,0xe7,0xfe, 0x2d,0xff,0x3f,0xfe,0xfc,0xff,0xfd,0xff, // 14848
0x95,0x00,0x58,0x00,0xb7,0xfe,0xc2,0x00, 0x63,0xff,0x11,0x01,0x75,0x00,0xc7,0x00, // 14864
0x68,0x00,0xb9,0xfe,0x8c,0x00,0x41,0xfe, 0x4f,0xfe,0x2b,0x00,0x3f,0xff,0xcf,0x00, // 14880
0xae,0xff,0x31,0xff,0xd6,0xfe,0xb1,0xff, 0x38,0xfe,0x78,0x00,0x3d,0xff,0x70,0xff, // 14896
0x5b,0x00,0x0b,0x00,0xf6,0xff,0xe4,0xfe, 0xbf,0xfe,0x8f,0xfe,0x25,0xfe,0x95,0xfe, // 14912
0x9a,0x00,0xcc,0xff,0xd1,0xff,0x01,0x01, 0xed,0xff,0xb4,0x00,0x18,0xff,0x5e,0x01, // 14928
0x37,0x00,0x7d,0xfe,0x7b,0xfe,0x7f,0xfe, 0x1a,0x01,0xb7,0xfe,0x6b,0xfe,0x67,0xff, // 14944
0x45,0x01,0x92,0xff,0x90,0xfe,0x66,0xfe, 0x10,0xff,0x05,0x00,0x18,0x01,0x21,0x00, // 14960
0xbb,0xff,0x97,0x00,0x8c,0xfe,0x8d,0xff, 0xdf,0xff,0xb7,0xfe,0x3d,0x00,0x3d,0xff, // 14976
0x97,0xff,0x88,0xfe,0x01,0x00,0x79,0xff, 0x5e,0xff,0x65,0xfe,0x94,0xff,0xc2,0xff, // 14992
0x7c,0xff,0x4e,0xff,0x08,0x00,0xd7,0xfe, 0x92,0x00,0xf5,0x00,0xd7,0xff,0x06,0x01, // 15008
0x60,0xfe,0x89,0xff,0xa0,0xfe,0x11,0x01, 0xe7,0x00,0x47,0x00,0x01,0xff,0x23,0x00, // 15024
0xa4,0x00,0xb8,0x00,0x67,0xff,0x20,0xfe, 0xa4,0xff,0xd2,0x00,0xe3,0xfe,0x0e,0x01, // 15040
0x4c,0x00,0x3b,0x01,0x45,0xff,0x81,0xff, 0x28,0xff,0x5a,0x00,0x4c,0xfe,0x2e,0x01, // 15056
0x32,0x01,0xb5,0xff,0x23,0x01,0x12,0x01, 0xf6,0xfe,0xa9,0x00,0x1d,0xfe,0xb2,0x00, // 15072
0x70,0xfe,0xc0,0xff,0xc6,0x00,0x12,0xfe, 0x76,0xff,0xe5,0x00,0x26,0xff,0x38,0x01, // 15088
0x38,0xfe,0xa2,0xfe,0x16,0x01,0x16,0x01, 0x1d,0x01,0x53,0x00,0x77,0xfe,0x26,0x00, // 15104
0x15,0xfe,0xfc,0xff,0x32,0xff,0xd1,0xff, 0x0a,0x01,0x67,0x00,0x63,0x01,0x73,0xfe, // 15120
0xa4,0xfe,0x21,0xfe,0x16,0xff,0x10,0x00, 0x09,0x00,0xcd,0xff,0x34,0x01,0x40,0x00, // 15136
0xc3,0xff,0xe9,0x00,0xc4,0xfe,0x62,0xfe, 0x1e,0xff,0x8f,0xff,0x53,0xff,0x48,0xfe, // 15152
0xf5,0x00,0x5f,0xfe,0x70,0xfe,0xba,0xff, 0x67,0x00,0x82,0xfe,0x75,0xff,0x18,0x00, // 15168
0x70,0xfe,0x1d,0xff,0x0a,0x00,0xa2,0x00, 0x16,0x00,0x13,0x00,0xc5,0xff,0xf0,0xfd, // 15184
0xf5,0x01,0xf4,0xfe,0x82,0x02,0xdc,0x01, 0xb5,0x02,0xb3,0x03,0xf7,0x04,0xba,0xf9, // 15200
0x23,0x07,0x8c,0x02,0x2a,0x03,0x0c,0xf5, 0x73,0x02,0x18,0x03,0xb2,0x04,0x3d,0x02, // 15216
0x46,0xff,0x68,0xf9,0x5f,0x04,0xe8,0x02, 0x2b,0x02,0x96,0xfe,0x0a,0x03,0x23,0x05, // 15232
0xd9,0x05,0xbe,0x03,0x7e,0x07,0x82,0x02, 0x5c,0x05,0xfb,0x01,0xa3,0x02,0x2e,0xf2, // 15248
0xe4,0x03,0xc6,0xfe,0xa2,0x05,0x9b,0xff, 0x6d,0x02,0x25,0xff,0xda,0x03,0x1b,0x02, // 15264
0x25,0x02,0x5c,0x02,0xf1,0xff,0xe4,0x01, 0xd2,0xfd,0xfb,0x04,0xfc,0x03,0x73,0x00, // 15280
0x70,0x01,0x14,0x03,0x38,0x05,0xc7,0x03, 0x28,0x04,0x13,0x02,0x42,0xff,0x97,0x02, // 15296
0xb0,0x05,0x04,0x06,0x35,0xf6,0x12,0x03, 0xd5,0x01,0xc5,0x03,0x20,0x05,0xd6,0x01, // 15312
0x1c,0xfe,0x35,0xfe,0x30,0x00,0x2a,0x01, 0x31,0xfe,0xce,0xff,0x68,0xfe,0x5d,0xfe, // 15328
0x8b,0x00,0x20,0x01,0x20,0xff,0x9d,0xfe, 0xe2,0xfe,0x23,0x01,0x42,0x00,0x0c,0x01, // 15344
0x82,0x01,0x31,0xff,0x0e,0xff,0x7f,0xff, 0x3b,0x01,0xf0,0x00,0x47,0xff,0x61,0x00, // 15360
0xae,0xfe,0xa2,0xfe,0x57,0x01,0x9f,0xff, 0x53,0xff,0x06,0x01,0x41,0x00,0xe6,0xfe, // 15376
0x59,0xfe,0x6f,0xff,0x44,0xfe,0xaa,0xff, 0x46,0xfe,0x9b,0xff,0x70,0x01,0xd8,0x00, // 15392
0x07,0x01,0x22,0xfe,0x9f,0x00,0x2b,0xff, 0x6f,0xfe,0x87,0xff,0x0f,0x01,0x35,0x01, // 15408
0xd3,0xff,0x8d,0x00,0xa6,0xfe,0x3c,0xfe, 0x1d,0x00,0xf1,0xff,0x5b,0x01,0x8d,0x00, // 15424
0x5a,0xfe,0x36,0x01,0x07,0xff,0x32,0xff, 0x77,0x00,0x31,0x01,0x4a,0x00,0x93,0xff, // 15440
0xa5,0x00,0xbc,0x00,0x0c,0x03,0x60,0x01, 0xf9,0xff,0x5e,0x02,0xdf,0x01,0x0f,0x01, // 15456
0x21,0x01,0x69,0x02,0xfd,0x01,0x41,0x0f, 0x18,0x01,0x3b,0x02,0xe6,0xff,0xd8,0x02, // 15472
0xba,0x01,0xc0,0x00,0xf9,0x00,0xf8,0x01, 0x0e,0x03,0x27,0x01,0x80,0x01,0x2b,0x00, // 15488
0x76,0x02,0xea,0x01,0x13,0xf9,0xe3,0x02, 0x24,0x01,0x69,0x01,0xf7,0x02,0xab,0x16, // 15504
0xd1,0x02,0x5a,0x00,0xcd,0x00,0xc5,0x01, 0xb2,0x02,0xaf,0xfe,0x02,0x01,0xd9,0x00, // 15520
0x26,0x03,0x39,0x01,0xdb,0x00,0xe1,0xff, 0x64,0x02,0xc0,0x01,0x09,0x03,0x03,0x03, // 15536
0x22,0x03,0x52,0x00,0x6a,0x01,0xe4,0x02, 0xe5,0x01,0x16,0x03,0x6a,0x00,0xe6,0x01, // 15552
0xe3,0x02,0x5a,0x00,0xe9,0x0b,0x72,0x01, 0xd2,0x02,0x3f,0x01,0x28,0x03,0xfb,0x01, // 15568
0x4f,0xff,0x99,0xff,0x6d,0x00,0xe5,0xff, 0x22,0x01,0x2f,0xff,0xfa,0x00,0xc8,0xfe, // 15584
0xed,0xfe,0x2e,0xff,0x00,0x00,0x52,0xfe, 0x28,0xff,0x0c,0xff,0x23,0xfe,0xf2,0xff, // 15600
0x0f,0x01,0xe3,0x00,0x44,0x00,0x6d,0x00, 0x67,0xfe,0xa9,0xfe,0x54,0xff,0xb1,0x00, // 15616
0x34,0xfe,0xd7,0xfe,0x33,0x01,0x51,0x01, 0x8e,0x00,0xdc,0x00,0x38,0x00,0x11,0x00, // 15632
0xda,0xff,0x31,0x01,0x56,0xff,0x94,0xfe, 0x25,0x00,0x25,0x01,0x43,0xfe,0x22,0xfe, // 15648
0xf1,0xfe,0xb9,0xfe,0x82,0xff,0x13,0x01, 0xfb,0xff,0xbd,0xff,0x4c,0x00,0x51,0x01, // 15664
0xf8,0xff,0x83,0x01,0xcd,0x00,0x7f,0x00, 0xbe,0x00,0x88,0xfe,0xed,0xff,0x58,0x01, // 15680
0x74,0x01,0x24,0xff,0x40,0x00,0x67,0xfe, 0x96,0xfe,0x6c,0x01,0x70,0xff,0x6a,0xff, // 15696
0x4f,0x01,0x4e,0x00,0xbf,0x00,0x43,0x03, 0x0c,0x01,0x6c,0x02,0x0b,0x03,0xf8,0x00, // 15712
0xf5,0x02,0x1c,0x02,0xcf,0x02,0x74,0x11, 0x4a,0x02,0xbd,0x00,0x75,0x02,0x81,0x01, // 15728
0xd0,0x02,0x5b,0x03,0x22,0x03,0xd0,0x01, 0xe5,0x02,0xb7,0xff,0x18,0x00,0x62,0x02, // 15744
0x3f,0x01,0x33,0x00,0x24,0xf9,0xcb,0x01, 0x30,0x02,0x45,0x03,0x13,0x03,0x9a,0x16, // 15760
0xed,0xff,0x77,0xff,0x59,0x02,0x6b,0x00, 0x7f,0x00,0x8a,0x00,0x1b,0x02,0x08,0x01, // 15776
0xa7,0x01,0x2c,0x03,0xc9,0xff,0x37,0x01, 0x65,0x01,0x6b,0x01,0x40,0x00,0xe8,0x01, // 15792
0xf9,0x01,0x23,0x03,0x68,0x01,0x79,0x00, 0x2f,0x03,0x05,0x00,0x9a,0x02,0x28,0x01, // 15808
0xe2,0xff,0xc7,0x00,0xaf,0x0c,0xff,0x00, 0x32,0x03,0x43,0x01,0xf1,0x01,0xfb,0xff, // 15824
0x1f,0xfe,0x18,0x00,0x2a,0xfe,0xb0,0xfe, 0xdc,0x00,0x64,0x01,0xd8,0xfe,0x45,0xff, // 15840
0x45,0x00,0x45,0x00,0x21,0x01,0x1a,0x01, 0x88,0xfe,0xb2,0xff,0x54,0x00,0x0a,0x01, // 15856
0x31,0x00,0xff,0x00,0x04,0xff,0x07,0x00, 0x28,0x00,0xb8,0x00,0x91,0x00,0x20,0xff, // 15872
0x1c,0xfe,0xb1,0x00,0x67,0x01,0xad,0xff, 0xb1,0xff,0x7c,0xff,0xa8,0xfe,0xe6,0xfe, // 15888
0x7d,0xff,0x33,0xfe,0x52,0xfe,0x80,0xff, 0x80,0x00,0x26,0x00,0x61,0x00,0x4c,0xfe, // 15904
0xe4,0xfe,0x51,0xff,0x85,0x00,0x3e,0x00, 0x44,0xff,0xa1,0x00,0x9b,0xfe,0x07,0x00, // 15920
0xaf,0x00,0x08,0x01,0x03,0x01,0x68,0xff, 0x37,0xff,0xea,0xff,0x7a,0x01,0x71,0xff, // 15936
0x3e,0xff,0x37,0xff,0x28,0x01,0x55,0x01, 0xc8,0xff,0xb3,0xfe,0x4e,0xff,0x2e,0xff, // 15952
0x99,0xfe,0x35,0xff,0xfe,0xff,0x89,0x01, 0xdc,0x00,0x31,0xfe,0xa8,0x00,0xf8,0xfe, // 15968
0x23,0x01,0x26,0x01,0x01,0x01,0x6e,0x01, 0x04,0xff,0xaf,0xff,0x6f,0xfe,0x64,0xff, // 15984
0x0d,0xff,0x9d,0xfe,0x69,0x01,0xf9,0xff, 0x87,0x00,0xc1,0xff,0x96,0xff,0x57,0x01, // 16000
0xd6,0xfe,0x41,0xff,0x43,0x00,0xd9,0xfe, 0x26,0x00,0x7d,0xfe,0x8a,0x00,0x82,0x00, // 16016
0x77,0x00,0x78,0x00,0x5b,0x00,0xcc,0xfe, 0x07,0x01,0xc3,0xfe,0x3e,0x01,0x6e,0xff, // 16032
0xbb,0x00,0x8e,0xff,0xdb,0xff,0x5f,0xfe, 0x18,0x01,0x72,0x00,0xbc,0xff,0x33,0xff, // 16048
0x15,0x00,0x73,0xfe,0xb1,0x00,0x1a,0x00, 0xb0,0xfe,0x9c,0xff,0x73,0x00,0xe8,0xff, // 16064
0xba,0xfe,0x89,0x01,0x83,0x00,0x68,0xfe, 0xfe,0xfe,0x5b,0xff,0x1c,0x01,0xf3,0xff, // 16080
0x3d,0x00,0x6e,0x01,0x3b,0xff,0xf7,0x00, 0x53,0xff,0x8c,0x00,0xf9,0x00,0x95,0xff, // 16096
0xd9,0x00,0x08,0x01,0x56,0xfe,0x92,0xff, 0x3b,0xff,0x98,0x00,0x1f,0x00,0x2a,0x00, // 16112
0x59,0xfe,0xc9,0x00,0x08,0xfe,0x60,0x00, 0xdd,0x00,0xd0,0xff,0x8b,0x00,0x17,0x01, // 16128
0x43,0xff,0xd6,0xff,0x2f,0xff,0x56,0x01, 0x89,0xfe,0x00,0xff,0xf4,0xff,0x65,0x01, // 16144
0x4f,0x01,0x46,0xff,0x7a,0xff,0x44,0xff, 0x65,0x01,0xbf,0x00,0xc1,0xff,0xe8,0xfe, // 16160
0xa0,0x00,0x0a,0xff,0x95,0xff,0xab,0x00, 0xd9,0xff,0x78,0x00,0x85,0xfe,0x2f,0xfe, // 16176
0xa7,0xff,0x8c,0x00,0x96,0x00,0x42,0xff, 0x77,0xff,0xf4,0x00,0x87,0xff,0x01,0x00, // 16192
0x49,0xff,0x42,0x00,0xd2,0xff,0x75,0xfe, 0x62,0xfe,0x0b,0x01,0x0d,0x01,0x98,0x00, // 16208
0x91,0x01,0x2b,0x02,0x65,0x03,0xe3,0x00, 0x1c,0x02,0x4c,0x01,0x44,0x00,0x25,0x00, // 16224
0x2d,0x02,0x74,0x00,0xf6,0x00,0xa2,0x11, 0x4a,0x02,0xa5,0x02,0x17,0x01,0x31,0x02, // 16240
0xb1,0x01,0x7d,0x01,0x59,0x02,0xde,0x02, 0xba,0x01,0x92,0xfe,0x13,0x03,0xb9,0x00, // 16256
0x35,0x03,0xa1,0x00,0x5d,0xf9,0xd7,0x01, 0xfd,0x00,0xf3,0xff,0x7f,0x00,0xe4,0x15, // 16272
0xb0,0x00,0x13,0x00,0x0a,0x02,0xb0,0x00, 0x7d,0x02,0x03,0x00,0xc5,0x02,0xfd,0x02, // 16288
0xa9,0x01,0x25,0x03,0x34,0xff,0xd5,0xff, 0x0e,0x03,0x1f,0x03,0xc2,0x00,0xf4,0x01, // 16304
0x1e,0x02,0x22,0x03,0x02,0x03,0x61,0x01, 0xbc,0x01,0x02,0x00,0x8f,0x00,0x38,0x02, // 16320
0xaf,0x01,0x4f,0x01,0x23,0x0b,0x19,0x02, 0x0d,0x00,0x5d,0x02,0xe7,0x02,0xbf,0x01, // 16336
0xeb,0xff,0x04,0xff,0x61,0x01,0x7d,0xff, 0x8f,0x00,0xd7,0xff,0x6c,0x01,0xdd,0xff, // 16352
0x96,0x00,0x5b,0x01,0x9e,0x00,0x7a,0xff, 0x45,0x00,0x6f,0xff,0x16,0x01,0xcd,0xff, // 16368
0x75,0xfe,0xd8,0x00,0x23,0x00,0xc4,0xff, 0x2f,0x00,0xb7,0xff,0x3d,0x01,0x4f,0x01, // 16384
0x30,0x01,0x50,0x01,0x51,0x00,0x33,0xfe, 0x38,0x01,0x5c,0xff,0xe1,0xff,0xa9,0xff, // 16400
0xfe,0x00,0xce,0xfe,0x6f,0x00,0xdb,0xfe, 0x75,0xfe,0x3d,0x01,0xff,0x00,0xef,0xff, // 16416
0x69,0xff,0x3c,0xfe,0xc8,0xfe,0xf3,0xff, 0xbb,0x00,0x24,0x00,0xe8,0xff,0xbd,0xff, // 16432
0x53,0x00,0xb9,0xfe,0xb0,0xfe,0xd6,0x00, 0x05,0x00,0xaa,0xfe,0x4d,0x00,0xf4,0xfe, // 16448
0x2d,0xfe,0x2c,0xff,0x91,0xfe,0x17,0xfe, 0x34,0x01,0x05,0xff,0x8f,0xfe,0x42,0x00, // 16464
0xa7,0xff,0x22,0xff,0x52,0x01,0x46,0x01, 0x8f,0xff,0xa2,0x00,0x3f,0x01,0x50,0xfe, // 16480
0x4e,0xfe,0x0f,0x00,0x7c,0xff,0x84,0x00, 0x2d,0xff,0x89,0x01,0xf8,0xfe,0xfb,0xff, // 16496
0xcf,0x00,0x83,0x00,0x7a,0xfe,0x78,0x00, 0x3b,0x01,0xd1,0xff,0x8b,0xff,0xf2,0xfe, // 16512
0x9b,0xfe,0x0a,0x01,0x4b,0xfe,0xc5,0xff, 0x25,0xfe,0x39,0xff,0xdd,0xff,0xe8,0xfe, // 16528
0x65,0xff,0x37,0x00,0x33,0x00,0x20,0x01, 0xc0,0xfe,0x2e,0xfe,0xa6,0xff,0xa3,0x00, // 16544
0xb8,0xfe,0xdf,0xfe,0xf5,0xfe,0xfd,0xfe, 0x40,0x01,0x90,0xff,0xc8,0xfe,0xdf,0xfe, // 16560
0x82,0x00,0x58,0xff,0x25,0x00,0x4f,0x01, 0x60,0xfe,0xb3,0xfe,0xb5,0xff,0x89,0x00, // 16576
0x63,0x00,0x2a,0xfe,0x5a,0x00,0x5b,0xff, 0x9a,0xfe,0xaf,0xfe,0xd8,0x00,0x22,0x01, // 16592
0x22,0x00,0x33,0x00,0x5e,0x01,0x32,0x01, 0xa2,0x00,0x50,0x01,0x67,0x00,0xb4,0x03, // 16608
0x94,0x00,0x55,0x01,0xf3,0x01,0xc2,0x10, 0x82,0x00,0x31,0x00,0xff,0x00,0xde,0x01, // 16624
0xb8,0x02,0x7e,0x01,0x4f,0x03,0x21,0x00, 0x4a,0x02,0x90,0xfe,0x52,0x01,0x54,0x02, // 16640
0x0e,0x02,0x93,0x01,0x9f,0xf5,0x6b,0x02, 0x57,0x01,0x7c,0x02,0xa4,0x00,0xea,0x17, // 16656
0x42,0x02,0x53,0xff,0x08,0x03,0xa2,0x01, 0xea,0xff,0xe8,0xff,0x35,0x01,0x1f,0x01, // 16672
0x6d,0x01,0x7d,0x02,0xe8,0xfe,0x0a,0x01, 0xbd,0x00,0xe0,0x00,0x64,0x01,0xae,0x00, // 16688
0xce,0x00,0x73,0x01,0xf1,0x00,0x86,0x00, 0x05,0x01,0xb7,0xff,0xb8,0x00,0xec,0x00, // 16704
0x8b,0x02,0x90,0x01,0x3e,0x0f,0x58,0x02, 0x2d,0x00,0x2b,0x01,0x36,0x00,0xbd,0x00, // 16720
0x58,0x02,0xa0,0x02,0xb4,0x01,0x49,0x02, 0x43,0x00,0x57,0x03,0x69,0x02,0xab,0x02, // 16736
0x0a,0x02,0xe1,0x00,0xb4,0x01,0xa8,0x12, 0x9a,0x01,0xe1,0xff,0x44,0x02,0x3d,0x02, // 16752
0x09,0x03,0x90,0x01,0xa6,0x01,0xb3,0x00, 0x12,0x00,0xa7,0xfe,0xf7,0x01,0xb7,0x00, // 16768
0xbd,0x01,0x1e,0x00,0xd6,0xf6,0x0c,0x01, 0xf1,0xff,0x41,0x03,0x1a,0x03,0x7b,0x19, // 16784
0x91,0x01,0x23,0xff,0x83,0x00,0x4b,0x03, 0x02,0x01,0xc3,0x00,0xb6,0x00,0xc4,0x00, // 16800
0x14,0x03,0x6c,0x02,0x94,0x01,0xc3,0x00, 0x8c,0x00,0x8e,0x00,0xd2,0x00,0x97,0x01, // 16816
0x34,0x00,0x85,0x00,0x09,0x03,0x08,0x00, 0x5f,0x01,0xcd,0x00,0x5e,0x00,0xe0,0xff, // 16832
0xf1,0xff,0x1a,0x01,0x73,0x0c,0x78,0x00, 0xf6,0x02,0x14,0x01,0x8b,0x02,0x21,0x03, // 16848
0xb5,0x00,0x9e,0xff,0x4f,0x01,0x52,0x01, 0x68,0xff,0xa0,0x00,0x79,0xff,0xf6,0xff, // 16864
0x94,0xfe,0x61,0xff,0xc9,0xfe,0x92,0xfe, 0xb1,0xfe,0xe6,0xfe,0xb2,0x00,0x51,0xff, // 16880
0xcd,0xfe,0xb8,0x00,0xa7,0xff,0x6c,0x01, 0xab,0xfe,0x52,0x01,0xef,0xff,0xbc,0x00, // 16896
0xda,0x00,0x38,0x01,0x91,0x00,0x5b,0x01, 0x99,0x00,0x7f,0xff,0x9d,0xfe,0xdf,0xff, // 16912
0x7f,0x00,0x8d,0xff,0x69,0xfe,0x0f,0x00, 0x91,0xfe,0xce,0x00,0x8c,0xff,0xa2,0xff, // 16928
0xc4,0x00,0xff,0xff,0xf3,0xff,0x5b,0x01, 0xea,0x00,0x7b,0x01,0x63,0x01,0x56,0x01, // 16944
0x7f,0xff,0x3f,0xff,0x2d,0xfe,0xa4,0xfe, 0xc1,0x00,0x93,0x00,0x74,0xff,0x36,0xfe, // 16960
0x5d,0x00,0x69,0x00,0xc7,0xfe,0x5b,0xff, 0x2a,0xfe,0xa0,0xfe,0x46,0xfe,0xd5,0xff, // 16976
0xd7,0x00,0x75,0x02,0xd0,0x02,0x12,0x02, 0x4b,0x00,0xff,0x00,0x60,0x01,0x24,0x02, // 16992
0x87,0x01,0x6e,0x02,0x26,0x03,0x86,0x10, 0x88,0x01,0x2a,0x01,0x5d,0x00,0x12,0x02, // 17008
0xa1,0x00,0x2d,0x01,0xc7,0x00,0x15,0x02, 0xa9,0x02,0x8d,0xfe,0xf9,0x01,0x1f,0x01, // 17024
0x39,0x02,0xe6,0x00,0x2f,0xfb,0x42,0x01, 0xdf,0x01,0x8e,0x00,0xcc,0x02,0xa6,0x15, // 17040
0xd6,0x02,0xf2,0xfe,0x38,0x03,0x14,0x02, 0xb7,0x01,0x9d,0x01,0x1a,0x00,0x11,0x01, // 17056
0xfe,0x02,0x20,0x00,0xfc,0xfe,0x60,0x02, 0xd9,0x00,0x1c,0x02,0xc2,0x01,0xd9,0x01, // 17072
0x55,0x00,0x6c,0x01,0x1b,0x02,0x23,0x01, 0x36,0x01,0x6e,0x02,0xc0,0x00,0x65,0x02, // 17088
0x4a,0x01,0x2c,0x01,0x10,0x0c,0x63,0x00, 0xf3,0x02,0x79,0x02,0xd0,0x01,0x7a,0x00, // 17104
0x83,0xff,0x31,0x00,0x80,0x01,0x1a,0xff, 0xf9,0x00,0xae,0x01,0x27,0xfe,0x70,0xff, // 17120
0x63,0xff,0xc7,0xfe,0xb9,0xfe,0x79,0x01, 0xea,0xff,0x59,0xff,0xb3,0xff,0x8b,0x00, // 17136
0x3b,0x00,0x6a,0x00,0x6e,0x00,0x82,0x00, 0xea,0xfe,0xb8,0xff,0x6e,0x00,0x27,0xff, // 17152
0xee,0xfe,0xca,0x00,0xe6,0xff,0x99,0xff, 0xc8,0xfe,0xc3,0xfe,0xa9,0x00,0x6a,0xfe, // 17168
0x89,0xfe,0x16,0x00,0x69,0xff,0x5b,0x00, 0x8b,0x01,0x34,0x01,0x84,0xfe,0x7d,0xfe, // 17184
0x87,0x00,0xe9,0xfe,0xd6,0x00,0x47,0xfe, 0x8b,0x00,0xc7,0xff,0x6b,0x01,0x9f,0xff, // 17200
0xfe,0x00,0x2e,0x00,0xcd,0xff,0x7f,0xff, 0x0d,0x01,0x4c,0xff,0x75,0xfe,0xfa,0xff, // 17216
0x30,0xff,0x91,0xfe,0x26,0xfe,0x69,0xff, 0x80,0xfe,0xfe,0x00,0x38,0xff,0x47,0xff, // 17232
0x54,0x01,0x68,0x00,0x39,0x03,0x90,0x00, 0x6e,0x00,0x6c,0x00,0xa9,0x00,0xdc,0x02, // 17248
0xd3,0x00,0x82,0x00,0x6f,0x01,0x07,0x12, 0x34,0x02,0x2b,0x00,0xab,0x01,0xf0,0x01, // 17264
0x09,0x03,0x88,0x02,0x31,0x01,0xce,0x02, 0x11,0x01,0x6c,0x01,0xf3,0x02,0xc5,0x00, // 17280
0x78,0x00,0xb3,0x00,0x6d,0xf8,0x1f,0x01, 0xf5,0x00,0x63,0x03,0x43,0x00,0x3c,0x18, // 17296
0x3d,0x02,0xb5,0x01,0x7a,0x00,0x0d,0x01, 0xaf,0x00,0xba,0xff,0x7b,0x02,0xc0,0x01, // 17312
0x1e,0x00,0x57,0x03,0x02,0x00,0x9e,0x02, 0x70,0x01,0xe2,0x02,0xdd,0x02,0x24,0x00, // 17328
0x22,0x00,0x29,0x00,0x87,0x02,0x38,0x00, 0xde,0x02,0x54,0x02,0x8c,0x01,0xa1,0x02, // 17344
0xac,0x00,0x6e,0x02,0x50,0x0d,0x06,0x03, 0x74,0x01,0xaf,0x02,0x47,0x01,0x67,0x02, // 17360
0xf3,0x00,0x3a,0x02,0x2e,0x01,0x15,0x02, 0x6b,0x02,0x48,0x03,0xba,0x02,0x26,0x00, // 17376
0xf7,0xff,0x22,0x01,0x56,0x00,0x58,0x11, 0x5d,0x02,0xdb,0x01,0xa6,0x00,0x36,0x02, // 17392
0x1f,0x02,0x97,0x03,0x3b,0x00,0x57,0x00, 0x24,0x00,0xe9,0x00,0x36,0x03,0xc6,0x02, // 17408
0x40,0x02,0xad,0x00,0x70,0xfa,0x92,0x02, 0x33,0x02,0x56,0x01,0x8c,0x02,0xea,0x17, // 17424
0xab,0x02,0x73,0x00,0xcd,0x00,0x5f,0x00, 0xb3,0x01,0x0c,0x01,0x1e,0x03,0x81,0x00, // 17440
0x51,0x01,0x84,0x01,0xbb,0xff,0x8c,0x00, 0xc3,0x00,0x20,0x02,0x41,0x03,0x0a,0x03, // 17456
0xa5,0x00,0x04,0x02,0xa7,0x01,0x1d,0x00, 0x72,0x02,0x37,0x01,0xed,0x00,0xb3,0x00, // 17472
0xf1,0x00,0xd7,0xff,0xc3,0x0d,0x65,0x00, 0xec,0x00,0x2a,0x01,0x9a,0x02,0xad,0x02, // 17488
0x52,0xff,0xc9,0x00,0x90,0x00,0x09,0x01, 0xf0,0x00,0xbd,0xfe,0x5d,0xfe,0x42,0x00, // 17504
0x65,0xfe,0xae,0x01,0x55,0xff,0x5a,0xff, 0x6b,0x01,0xe1,0xfe,0x55,0x00,0x0f,0x00, // 17520
0x38,0xfe,0x0a,0xff,0x05,0xff,0x84,0x00, 0x72,0xfe,0xf2,0x00,0x98,0xff,0xa5,0x00, // 17536
0x25,0xfe,0x6d,0x00,0xe9,0x00,0x36,0x00, 0x8b,0x00,0x0b,0x01,0x71,0x01,0x9b,0x00, // 17552
0x40,0x00,0x20,0x01,0x3f,0x00,0xa9,0xfe, 0x8e,0xfe,0xbb,0xfe,0xa5,0xfe,0xdf,0xfe, // 17568
0x7d,0xff,0x3d,0xff,0x51,0xff,0x05,0x00, 0x3d,0x01,0xf8,0xfe,0x23,0xfe,0xb9,0xfe, // 17584
0xe0,0x00,0xdb,0x00,0x0a,0x00,0x4f,0x00, 0x74,0x01,0x4b,0x00,0xf6,0xff,0x29,0xfe, // 17600
0x2d,0x01,0x51,0x00,0x1f,0xff,0x0a,0xff, 0x44,0xfe,0xf7,0xff,0x83,0xff,0x8b,0xff, // 17616
0x77,0x00,0x57,0xff,0x8c,0x00,0x96,0xff, 0x55,0x00,0x88,0xfe,0xf2,0x00,0x0c,0x01, // 17632
0xb1,0xfe,0x30,0x01,0xbb,0x00,0xa2,0x00, 0x45,0xfe,0xb0,0xff,0xcc,0xff,0x8f,0xfe, // 17648
0x7b,0xfe,0x22,0xfe,0x1f,0xfe,0xd4,0xfe, 0xaa,0xfe,0x6b,0xfe,0xc4,0x00,0x93,0xfe, // 17664
0x82,0x00,0xa5,0x00,0x7d,0x00,0x57,0x00, 0x55,0xff,0xda,0x00,0x50,0x00,0xb3,0xff, // 17680
