#include "model.nncu.h"

const unsigned char element_model[] __ALIGNED(16) = {
0x4e,0x4e,0x43,0x55,0x01,0x00,0x01,0x00, 0x01,0x0e,0x02,0x00,0x0d,0x00,0x00,0x00, // 16
0x06,0x00,0x00,0x00,0x00,0x00,0x00,0x00, 0x80,0x00,0x00,0x00,0x02,0x00,0x00,0x00, // 32
0x9a,0x00,0x00,0x00,0x1a,0x00,0x00,0x00, 0x80,0x00,0x00,0x00,0x00,0x00,0x00,0x00, // 48
0x00,0x00,0x00,0x00,0x00,0x00,0x00,0x00, 0x00,0x00,0x00,0x00,0x00,0x00,0x00,0x00, // 64
0x00,0x00,0x00,0x00,0x00,0x00,0x00,0x00, 0xff,0xff,0xff,0xff,0xff,0xff,0xff,0xff, // 80
0x43,0x4d,0x44,0x00,0x20,0x00,0x80,0x00, 0x50,0x00,0x00,0x00,0x00,0xfe,0x00,0x00, // 96
0x73,0x74,0x61,0x74,0x65,0x2e,0x68,0x35, 0x0d,0x0a,0x54,0x68,0x75,0x20,0x46,0x65, // 112
0x62,0x20,0x20,0x34,0x20,0x31,0x33,0x3a, 0x30,0x33,0x3a,0x32,0x36,0x20,0x32,0x30, // 128
0x32,0x31,0x0d,0x0a,0x31,0x34,0x20,0x62, 0x69,0x74,0x73,0x0d,0x0a,0x6e,0x6e,0x63, // 144
0x75,0x20,0x76,0x65,0x72,0x20,0x31,0x2e, 0x30,0x62,0x20,0x32,0x30,0x32,0x30,0x2e, // 160
0x30,0x37,0x2e,0x31,0x34,0x0d,0x0a,0x00, 0x00,0x00,0x00,0x00,0x00,0x00,0x00,0x00, // 176
0x00,0x00,0x00,0x00,0x00,0x00,0x00,0x00, 0x00,0x00,0x00,0x00,0x00,0x00,0x00,0x00, // 192
0x00,0x00,0x00,0x00,0x00,0x00,0x00,0x00, 0x00,0x00,0x00,0x00,0x00,0x00,0x00,0x00, // 208
0x43,0x4d,0x44,0x00,0x20,0x01,0x01,0x00, 0xd0,0x00,0x00,0x00,0x10,0x02,0x00,0x00, // 224
0x00,0x01,0x00,0x04,0x07,0x0b,0x06,0x0e, 0x00,0x00,0x00,0x00,0x00,0x00,0x00,0x00, // 240
0x01,0x00,0x0d,0x00,0x01,0x00,0x01,0x00, 0x40,0x00,0x01,0x00,0x00,0x00,0x00,0x00, // 256
0x0a,0x00,0x0f,0xff,0xff,0xff,0xff,0xff, 0x00,0x01,0x01,0x00,0x80,0x00,0x00,0x00, // 272
0x00,0x00,0x03,0x00,0x1a,0x00,0x00,0x00, 0x00,0x00,0x00,0x00,0x00,0x00,0x00,0x00, // 288
0x00,0x00,0x00,0x00,0x00,0x00,0x00,0x00, 0x00,0x00,0x00,0x00,0x00,0x00,0x00,0x00, // 304
0x00,0x00,0x00,0x00,0x00,0x00,0x00,0x00, 0x00,0x00,0x00,0x00,0x00,0x00,0x00,0x00, // 320
0x00,0x00,0x00,0x00,0x00,0x00,0x00,0x00, 0x80,0x06,0x00,0x00,0x80,0x00,0x00,0x00, // 336
0x4b,0x03,0xa9,0x05,0x51,0x0c,0x81,0x07, 0x68,0x0b,0x32,0x08,0xb6,0x03,0xaf,0xff, // 352
0x2a,0xf8,0x67,0x10,0xe2,0x05,0x8b,0xf8, 0xde,0x08,0xe2,0xf8,0x96,0x11,0xc0,0x09, // 368
0xf9,0xfa,0xe1,0x0d,0xbf,0xf2,0x6d,0xe8, 0x2c,0xf5,0x06,0xed,0xd3,0xfc,0xe8,0xe8, // 384
0xe7,0xec,0x50,0x10,0x1a,0xf7,0x68,0xed, 0xfd,0x00,0xb3,0x00,0x0b,0xf1,0xd2,0xf8, // 400
0x7c,0xfc,0x10,0x0a,0x55,0x08,0x48,0xed, 0xea,0x08,0xb9,0x0c,0x70,0xe6,0x19,0xf8, // 416
0xc7,0xef,0xc5,0x01,0xf8,0xec,0xb4,0xf4, 0x50,0xf6,0x7b,0xf5,0xf1,0x04,0x2f,0xf6, // 432
0x16,0xf9,0x59,0xf9,0x0a,0x04,0x70,0x12, 0x6d,0xed,0x49,0x01,0x39,0xee,0xe0,0x14, // 448
0xe6,0xea,0xf3,0x0d,0x18,0x0a,0x1f,0xf6, 0x88,0xf0,0xdf,0x09,0x23,0xef,0x07,0x08, // 464
0x8f,0xed,0xcf,0xe9,0x4f,0xfc,0x36,0xfa, 0xf9,0x12,0xdd,0x0c,0x26,0xfd,0x54,0x03, // 480
0x8e,0x0a,0xdb,0x0e,0xf3,0x02,0x32,0xf5, 0x9f,0x0a,0x70,0x0f,0x8b,0x08,0xd9,0x10, // 496
0xdb,0x07,0x72,0x09,0xe5,0xfa,0x49,0xf2, 0x0d,0x00,0x14,0x01,0xcc,0xfb,0xb3,0xf5, // 512
0x8b,0xf9,0x3b,0x03,0xf9,0x03,0xfa,0xfd, 0x42,0xfb,0x72,0x0a,0xf8,0xf5,0x07,0x0e, // 528
0x5c,0xed,0xcc,0xfa,0xda,0xf2,0xd8,0xfb, 0x5b,0xfe,0x15,0xf3,0x36,0xe9,0x38,0xf3, // 544
0xfe,0x16,0xa6,0x0a,0x96,0x0a,0xfb,0xf6, 0x73,0xf6,0xa1,0xfa,0xac,0x0c,0x35,0x0b, // 560
0x09,0x04,0x18,0x0d,0xce,0x01,0xcc,0x0d, 0xcf,0x0b,0xfc,0xf6,0xbe,0xea,0xb7,0xfa, // 576
0x99,0xec,0xde,0x02,0xe4,0xfd,0x1f,0xf4, 0x19,0x0b,0xed,0xf4,0x6c,0xf0,0x27,0x0c, // 592
0xbc,0x0e,0x5c,0xf8,0x0b,0xf9,0xf0,0xfb, 0xb3,0x04,0xd9,0xf3,0xec,0xf1,0x16,0x0e, // 608
0xe8,0xfa,0x91,0xf8,0xe4,0x0c,0x6a,0x02, 0x34,0x0a,0x99,0xfc,0xa4,0x0a,0x9d,0x05, // 624
0xa5,0xff,0x21,0x0b,0xd4,0x05,0x26,0xfd, 0xda,0x04,0xf1,0xef,0x7f,0xf8,0x6f,0x00, // 640
0xa8,0xf9,0x30,0x01,0x5f,0xef,0xe7,0xfa, 0x56,0x0d,0x86,0xf5,0x8b,0xf8,0xae,0xfc, // 656
0xba,0x06,0x2b,0xfe,0xb2,0xfc,0x47,0x09, 0x05,0xf2,0x6e,0x09,0x1b,0x05,0x12,0xf2, // 672
0x3f,0x06,0xb1,0x0d,0xb9,0x03,0xfc,0xf5, 0x5d,0xfa,0x82,0x00,0x0c,0xf7,0x07,0x09, // 688
0xba,0x15,0x2a,0xea,0xab,0x0c,0xe1,0xe9, 0x85,0xff,0x57,0xf6,0x33,0xf8,0xbe,0xe9, // 704
0x36,0xef,0x2b,0x04,0x37,0xf7,0xae,0x0d, 0x83,0x02,0x93,0x00,0x0f,0x0f,0xb1,0xfc, // 720
0x76,0x0f,0x56,0x11,0x42,0xfc,0xe1,0xf9, 0x7b,0x03,0xf5,0x0c,0xce,0xeb,0x1c,0x11, // 736
0x81,0x11,0x1c,0x09,0x66,0xef,0x86,0x06, 0x86,0xff,0x65,0x08,0x4c,0x06,0xb6,0x14, // 752
0x37,0x00,0x65,0xfb,0x7f,0xf3,0x37,0x03, 0x14,0xf3,0xb0,0xfc,0x71,0x00,0x44,0x01, // 768
0x92,0x05,0xd7,0x06,0x72,0x00,0xcb,0x01, 0x54,0x15,0x6e,0xee,0x60,0x09,0x29,0xef, // 784
0x85,0x14,0xe0,0x04,0x42,0xf4,0xaa,0x08, 0xc5,0x01,0x1a,0x0d,0xf7,0xf2,0x72,0x11, // 800
0x54,0x02,0x15,0xfc,0xcb,0xfa,0xfe,0xeb, 0x74,0xeb,0xde,0x04,0xbc,0x12,0xc4,0x0b, // 816
0xc7,0x01,0x5c,0x0a,0xbb,0xee,0x75,0xee, 0x23,0xff,0xd5,0xee,0xbc,0x00,0xa2,0xe8, // 832
0xf7,0x0e,0x6b,0x0b,0x33,0xf5,0x6c,0xed, 0x77,0x0d,0x9e,0x0d,0x88,0x06,0xbc,0x08, // 848
0x6d,0xf5,0xf7,0x0d,0x7c,0xf7,0x9d,0xe9, 0x91,0xff,0x44,0x05,0xcd,0x02,0x6a,0xfd, // 864
0x62,0x04,0xf5,0xec,0x5f,0xf6,0xaa,0xf4, 0x56,0x05,0xc1,0x13,0x4d,0xec,0xb5,0xff, // 880
0xcf,0xf7,0x00,0x11,0xd8,0x0c,0x30,0x0b, 0x29,0xfc,0xce,0xf0,0x58,0xf9,0x74,0xeb, // 896
0xa6,0x10,0xd7,0xe9,0xa3,0xfd,0xe3,0xf7, 0x2a,0xfa,0x23,0xfc,0xd1,0x00,0x8c,0xf4, // 912
0xbd,0xf3,0x8b,0xf0,0xcc,0xf5,0xe7,0xf4, 0x3c,0xf5,0x72,0xf2,0xff,0xf9,0x02,0x13, // 928
0xfb,0x0e,0x0f,0xf8,0x98,0xfa,0x80,0xff, 0x12,0xfe,0xd7,0xf4,0x75,0xf8,0x5a,0x0f, // 944
0xb6,0x0b,0x64,0x07,0x45,0xf0,0x04,0x09, 0x66,0x06,0x20,0xfb,0x10,0xfe,0x39,0x0d, // 960
0xa9,0x11,0xd3,0x0d,0xe9,0x11,0xae,0xfb, 0x85,0x0a,0xe3,0x09,0xd5,0xee,0xbf,0x00, // 976
0xb7,0x00,0xef,0x0e,0xb4,0xf9,0x84,0xea, 0xe4,0xed,0x3d,0x0d,0xde,0xf7,0xcc,0xfc, // 992
0x21,0xea,0xa3,0x09,0x5e,0x0b,0x78,0x0f, 0x25,0x0d,0x2b,0xf3,0xa2,0xf9,0xd7,0xf4, // 1008
0x9f,0xf5,0x01,0xfd,0xf8,0x18,0x68,0x07, 0x63,0x00,0x47,0x06,0x2c,0xf7,0x9c,0x15, // 1024
0x47,0x0a,0xef,0xf2,0x8c,0xfe,0x45,0xf3, 0x41,0xf8,0x81,0x12,0xf0,0x07,0x9c,0x14, // 1040
0xe8,0x08,0x86,0x17,0xf2,0xf1,0xfd,0xfc, 0x92,0x15,0x0c,0xfa,0xf2,0x02,0x2a,0xf2, // 1056
0x6d,0xfe,0xfd,0xf7,0x92,0xf9,0x89,0xfe, 0x01,0xf9,0xe4,0x00,0x7b,0xf7,0x1a,0x0b, // 1072
0x6c,0xfa,0x85,0x00,0x99,0xfe,0x49,0x08, 0x19,0xfd,0x48,0x0f,0x6e,0xf4,0x2e,0xfb, // 1088
0x78,0x10,0x43,0x0f,0xac,0x02,0xfb,0xf7, 0xdb,0xf4,0xfa,0xfc,0xb8,0x04,0xa9,0x02, // 1104
0x23,0x03,0x09,0xeb,0x97,0xf8,0x7e,0xea, 0x99,0xfd,0x2a,0x04,0x34,0xfd,0x32,0xfb, // 1120
0x22,0xf9,0x8d,0xf5,0x63,0xf5,0xf2,0x03, 0xa2,0xee,0x4f,0x14,0xd6,0xec,0x90,0xef, // 1136
0x4c,0x05,0x43,0xf1,0x4d,0xf6,0xab,0xeb, 0x84,0x08,0x35,0xf5,0x35,0xfe,0xdb,0x11, // 1152
0x47,0x00,0x35,0xf3,0x20,0xfa,0xb9,0x11, 0x98,0xea,0x6a,0x0e,0x60,0x05,0xfb,0xfd, // 1168
0xeb,0x06,0xb8,0x02,0xac,0x07,0x0a,0x15, 0x49,0x08,0xd8,0xec,0x05,0xf8,0xb7,0x0a, // 1184
0x53,0xee,0x76,0x0d,0x3e,0x0c,0x78,0x04, 0x1a,0xec,0xd0,0x0a,0x98,0xf0,0x9c,0x01, // 1200
0x86,0x07,0x4c,0x0c,0x4d,0x0f,0xfd,0x06, 0x5b,0x02,0xb6,0xf9,0x88,0x06,0xd8,0xf8, // 1216
0xa9,0x0c,0xbd,0x18,0xd2,0x0a,0xd1,0xf5, 0x5d,0xeb,0x9d,0x08,0x32,0xeb,0x37,0x07, // 1232
0xc5,0xf7,0xd5,0x00,0x9d,0xf4,0x6c,0xeb, 0x6f,0xf5,0xd1,0xff,0xb5,0xf1,0xaf,0xee, // 1248
0xe0,0xe7,0xe0,0xfb,0x82,0x16,0x7c,0x05, 0xa6,0xf1,0xae,0xfe,0x42,0xfb,0xc0,0x10, // 1264
0xb3,0xf8,0xd5,0x0c,0x88,0x0b,0x54,0xeb, 0xe9,0x01,0xa1,0x07,0xb6,0x03,0x49,0xfc, // 1280
0xc2,0xf9,0xbf,0x06,0x48,0xe8,0x6a,0x12, 0x62,0xfb,0x08,0x06,0xd8,0x04,0x0a,0x08, // 1296
0xf6,0xf0,0xd7,0xf2,0xc5,0xeb,0x69,0xed, 0xab,0x03,0xd2,0xf3,0x69,0xed,0x57,0x07, // 1312
0xd0,0xf1,0x24,0x00,0xd3,0xea,0xd4,0x14, 0xa4,0x00,0x9c,0xe9,0x55,0xe7,0xbd,0x05, // 1328
0x76,0xf1,0x3d,0x02,0xb0,0xe4,0x79,0xf8, 0x06,0x11,0xda,0x06,0x45,0xfb,0xe0,0xee, // 1344
0x83,0xf3,0xa0,0x0d,0x4b,0xe2,0x1f,0x07, 0x26,0x0e,0x87,0x08,0x99,0xf3,0x1c,0xf6, // 1360
0x90,0x0f,0x63,0xee,0x42,0xfc,0xe1,0x10, 0x62,0xfb,0xe3,0x0b,0x04,0x01,0xb3,0x02, // 1376
0xbd,0xf2,0x99,0x01,0x3b,0xf7,0x7e,0x03, 0x92,0x0e,0x22,0x00,0x39,0xfe,0x2e,0xfa, // 1392
0x7f,0xed,0x18,0xec,0x03,0x01,0x7d,0x09, 0xe3,0x0c,0x8d,0x05,0x5f,0xfc,0xdb,0x05, // 1408
0x3a,0x09,0x0a,0xf6,0xfe,0xff,0xf2,0xfd, 0xc0,0xf5,0xfe,0xfc,0x4a,0x15,0x4a,0xfa, // 1424
0x55,0xeb,0x39,0xfc,0x6b,0xf5,0x9a,0xfb, 0xf9,0xeb,0x31,0xed,0xfe,0xf8,0x5e,0x09, // 1440
0xef,0xf6,0x72,0xf2,0xc4,0x05,0x02,0xfd, 0xdd,0x0a,0x14,0x02,0x45,0xfc,0xe5,0xea, // 1456
0xeb,0xf7,0x09,0xfa,0xba,0x05,0xea,0xe8, 0x84,0xff,0x69,0x06,0xaf,0x11,0xbb,0x09, // 1472
0x5b,0x0a,0x6d,0x06,0x0e,0x03,0x6f,0x04, 0x0d,0x13,0x45,0x0b,0x38,0x09,0x27,0xfc, // 1488
0x6d,0xff,0x67,0xf4,0xf9,0x13,0x16,0x0d, 0xbd,0x0c,0x80,0xfe,0xd7,0xfd,0xe0,0x11, // 1504
0x4d,0x04,0xc7,0x04,0x55,0x03,0xa7,0x01, 0x2f,0x09,0x0e,0x01,0xb7,0xf5,0x4c,0xf7, // 1520
0x66,0xfe,0x48,0x04,0xbf,0xf5,0xd9,0xf2, 0xc2,0xf8,0x97,0xf7,0x32,0x09,0xae,0x0b, // 1536
0xee,0xef,0x34,0x0d,0x38,0x0d,0xc4,0xfc, 0x5c,0xf6,0x7f,0xfa,0xbb,0xf5,0x06,0xf5, // 1552
0x83,0x06,0x9a,0xef,0x8e,0xea,0x13,0xf4, 0x07,0xf3,0x95,0xfa,0xd9,0x07,0xa5,0x01, // 1568
0xa8,0xf7,0x71,0xff,0xc1,0xff,0x04,0x05, 0x96,0xf4,0x7f,0x0c,0x7b,0xf7,0xcb,0xea, // 1584
0x88,0x05,0xa1,0xf0,0xbc,0x04,0x73,0xf3, 0xa5,0xf5,0x20,0xf9,0x44,0xfc,0x39,0xfa, // 1600
0xf6,0x08,0xed,0xfd,0x77,0xf6,0xfd,0xfb, 0x60,0x0d,0x19,0x09,0xa0,0x05,0x4f,0x0b, // 1616
0x99,0xff,0x59,0x00,0xd6,0x04,0xf8,0xe8, 0x66,0x00,0x3c,0xef,0x32,0x11,0x01,0x02, // 1632
0x4c,0xf8,0x0b,0x06,0x7b,0xf4,0x62,0x0b, 0x2c,0xf7,0xa1,0xf4,0xcb,0x13,0x1a,0xf3, // 1648
0x59,0x08,0x02,0xee,0x2c,0x05,0x88,0xf8, 0x1e,0xf3,0xfe,0xff,0xd2,0xed,0xa5,0xfa, // 1664
0x3a,0xf9,0x0b,0x09,0x16,0xf6,0xfc,0x0e, 0x9d,0xec,0xd8,0xeb,0x89,0xf3,0x20,0x06, // 1680
0xb9,0x0b,0x4d,0xf3,0x2f,0xf9,0x73,0xf1, 0x6c,0xfc,0x2c,0xfc,0x6c,0xfd,0x8f,0x0f, // 1696
0x80,0xec,0x90,0x0f,0xa3,0x05,0x13,0x05, 0xc2,0xf9,0xf9,0xf7,0x7a,0x05,0x7a,0xff, // 1712
0xf8,0xf8,0x64,0xec,0x91,0xfe,0x21,0x05, 0xb8,0xf8,0xde,0xf8,0x14,0x0c,0xed,0xf2, // 1728
0x3d,0xee,0x22,0x11,0x22,0x05,0x16,0xfa, 0x75,0xf8,0xa3,0xf4,0x49,0xeb,0xae,0x09, // 1744
0x8f,0xfd,0x46,0xf9,0xbb,0xf8,0x86,0x03, 0x5c,0x00,0x37,0xf8,0xd5,0xf3,0x57,0xe8, // 1760
0x2a,0x0c,0xc8,0xed,0x6d,0xf3,0xb5,0x17, 0x12,0xf9,0x6e,0x11,0x2f,0xf5,0x30,0x13, // 1776
0xaa,0x0a,0xf8,0x17,0x9d,0xf5,0x88,0xf8, 0xe0,0xf2,0x8b,0x11,0x22,0x0c,0xf2,0x04, // 1792
0xd6,0xf3,0x88,0xfa,0xd3,0xfc,0x97,0x10, 0xdb,0x10,0x62,0x09,0x5c,0x0e,0xd1,0xee, // 1808
0xe9,0xff,0xa7,0xfe,0x74,0x00,0x47,0x05, 0x4d,0xf6,0x02,0xfc,0x3f,0x08,0x43,0xf5, // 1824
0x8d,0x05,0x71,0x05,0xd1,0xfb,0x4d,0x09, 0x6e,0xfa,0x0f,0x08,0x1c,0x04,0xbb,0x05, // 1840
0xea,0xef,0xdc,0x0b,0x5c,0x10,0xae,0x05, 0x50,0x0b,0xf9,0xf6,0x63,0x06,0x3f,0x0c, // 1856
0x65,0x0c,0x89,0x0f,0x01,0xfa,0xd1,0xf9, 0x30,0x04,0x38,0x04,0x8b,0xf7,0xa6,0x11, // 1872
0x25,0xf9,0xdb,0x08,0x5a,0xec,0xb5,0x0c, 0x90,0x14,0x1b,0x0f,0xad,0xf2,0xe8,0xfd, // 1888
0x9a,0x0e,0x34,0x0d,0x78,0x01,0xd7,0xf5, 0x20,0x08,0x60,0x0d,0x9f,0x00,0x62,0x13, // 1904
0x7c,0xf0,0xbb,0x09,0x80,0x01,0xfc,0x0a, 0x32,0xf0,0x95,0x01,0xaa,0xf8,0x79,0xf5, // 1920
0x02,0xfe,0xfd,0x04,0xd4,0xfd,0x6a,0xf9, 0x5e,0xf4,0xf0,0xf6,0xef,0x06,0x4d,0xf9, // 1936
0x31,0xfb,0x51,0xfb,0x66,0xf9,0xa5,0xf8, 0x6c,0x0e,0x4c,0x18,0x08,0x02,0x3b,0x0e, // 1952
0x2e,0xe9,0xa3,0xfa,0xf2,0x0d,0x8f,0xfb, 0xbf,0x0d,0x67,0xf5,0x45,0xf5,0xcf,0xfb, // 1968
0x4b,0x06,0x26,0x11,0x5a,0xe9,0xde,0x16, 0xee,0xf6,0x1f,0xf8,0x99,0xfb,0xea,0x08, // 1984
0x23,0x0c,0xa2,0xf4,0x1a,0x07,0xd6,0xfd, 0xf5,0x0d,0xc3,0xe5,0x3d,0xff,0xea,0xf7, // 2000
0x62,0xfb,0xbc,0x02,0x38,0x12,0x1b,0xfc, 0xe7,0x07,0x73,0x04,0x1b,0xfc,0x66,0x09, // 2016
0x7f,0x0d,0x11,0x06,0x6e,0x02,0xe8,0xfc, 0x9b,0xff,0x29,0x08,0xb8,0x0c,0x43,0x0c, // 2032
0xe5,0xfe,0xf6,0x0a,0xc2,0x09,0x74,0x08, 0x7b,0x05,0x88,0x09,0xf4,0xf7,0xaf,0x09, // 2048
0xe4,0x08,0xc4,0x00,0x0c,0x10,0x83,0x0b, 0xd0,0xfc,0xbe,0x04,0x54,0x0a,0xa8,0x02, // 2064
0x1a,0x09,0xc7,0x07,0x09,0x01,0x1d,0x11, 0x19,0x07,0x41,0x0f,0xf9,0x11,0xb6,0xf6, // 2080
0xdf,0xf7,0xcc,0x06,0x6b,0x0d,0xe1,0x07, 0x33,0x08,0x96,0xfc,0x4d,0x0c,0xed,0x0b, // 2096
0x85,0xfd,0xff,0x07,0xee,0xff,0xf3,0x0c, 0xa7,0x07,0x5c,0xff,0x81,0x0b,0x5c,0x0f, // 2112
0x44,0x03,0x3c,0xfc,0x79,0xfa,0x33,0x0b, 0xb4,0x07,0xd5,0x06,0x16,0x0a,0x44,0x08, // 2128
0x43,0x4d,0x44,0x00,0x20,0x02,0x05,0x00, 0x50,0x08,0x00,0x00,0x10,0x02,0x00,0x00, // 2144
0x01,0x00,0x00,0x09,0x0a,0x13,0x05,0x0e, 0x00,0x00,0x00,0x00,0x00,0x00,0x00,0x00, // 2160
0x01,0x00,0x40,0x00,0x01,0x00,0x01,0x00, 0x03,0x00,0x01,0x00,0x00,0x00,0x00,0x00, // 2176
0x05,0x00,0x13,0xff,0xff,0xff,0xff,0xff, 0x00,0x00,0x01,0x00,0x06,0x00,0x00,0x00, // 2192
0x00,0x01,0x02,0x00,0x80,0x00,0x00,0x00, 0x00,0x00,0x00,0x00,0x00,0x00,0x00,0x00, // 2208
0x00,0x00,0x00,0x00,0x00,0x00,0x00,0x00, 0x00,0x00,0x00,0x00,0x00,0x00,0x00,0x00, // 2224
0x00,0x00,0x00,0x00,0x00,0x00,0x00,0x00, 0x00,0x00,0x00,0x00,0x00,0x00,0x00,0x00, // 2240
0x00,0x00,0x00,0x00,0x00,0x00,0x00,0x00, 0x80,0x01,0x00,0x00,0x06,0x00,0x00,0x00, // 2256
0x3d,0xf1,0xda,0xfb,0x1d,0x05,0x05,0xf0, 0x8d,0xec,0x12,0x03,0x9a,0x04,0xe9,0xe7, // 2272
0xd2,0x13,0x0e,0x0d,0x64,0x0c,0x1e,0x01, 0xa9,0xf1,0x8d,0xed,0xc6,0x03,0x36,0x16, // 2288
0xd2,0x0b,0x22,0xea,0xa3,0xed,0x73,0xeb, 0xff,0xfe,0x29,0x07,0x25,0x0b,0x60,0x05, // 2304
0x0c,0xf9,0x25,0x0a,0x49,0x08,0x4c,0x00, 0xe3,0x06,0x70,0x02,0x37,0xf9,0x90,0xee, // 2320
0x5e,0xf0,0x37,0x0d,0x18,0xff,0xc9,0x04, 0xf9,0xe8,0xc1,0x03,0x4b,0xf5,0x47,0x01, // 2336
0x3a,0xfa,0x30,0xf9,0xb1,0x0b,0xd0,0xee, 0x08,0x15,0xd4,0xf2,0x12,0xef,0x2e,0x05, // 2352
0x25,0x0c,0x23,0x00,0xdb,0x02,0x95,0x06, 0xea,0xe6,0x94,0xf7,0xed,0xe7,0x2a,0x0c, // 2368
0xa7,0x07,0xcc,0x0d,0xdd,0x04,0x5a,0x16, 0x18,0xec,0x92,0x14,0xf7,0x05,0x9d,0x04, // 2384
0x7b,0xf3,0x89,0xf8,0x5c,0x16,0x69,0xef, 0x03,0x01,0xb0,0x11,0xdc,0xf2,0xc1,0xf6, // 2400
0xa7,0xeb,0x4f,0x12,0x12,0x02,0x24,0xff, 0x39,0xf9,0xae,0xf9,0xa5,0x17,0x34,0xf0, // 2416
0xe6,0xfb,0x99,0x00,0x81,0x12,0x21,0x0d, 0xcf,0xf0,0x50,0x0b,0x8f,0xf4,0xa7,0xf5, // 2432
0x24,0xf4,0xd7,0xf2,0x6f,0xf3,0x1e,0xf1, 0xc1,0xeb,0x68,0xf6,0x70,0x0c,0xa1,0xfe, // 2448
0xd0,0x02,0x67,0xf0,0x24,0x11,0x9e,0x1a, 0xe6,0x00,0x98,0x16,0xcf,0x01,0x92,0x0d, // 2464
0x77,0x0c,0x80,0xfe,0xee,0x13,0xb8,0x17, 0xc8,0x04,0x99,0xf4,0x98,0x0e,0x4a,0x16, // 2480
0x3a,0xf2,0xd4,0xf7,0x2c,0x0f,0x28,0x0e, 0x8f,0x0c,0x1b,0x0e,0x7b,0x00,0x81,0x02, // 2496
0xfb,0x15,0xa9,0xfd,0x30,0xfa,0xf7,0xee, 0xe0,0xf2,0x4f,0xfa,0xe2,0x12,0xc8,0xff, // 2512
0xdc,0x0f,0xe1,0x03,0x50,0xe6,0xd1,0xee, 0xdd,0x02,0x3a,0xf3,0x33,0x06,0xfc,0x15, // 2528
0x67,0xf4,0x99,0xef,0xac,0x00,0x65,0x0e, 0x53,0x10,0x6e,0x04,0x01,0xeb,0x2f,0xeb, // 2544
0x1f,0x0c,0xed,0xf1,0x95,0x0d,0x09,0xf3, 0x27,0x13,0x63,0x14,0x96,0xfc,0x52,0xeb, // 2560
0xf5,0x03,0xf7,0xf0,0x79,0xea,0xc0,0xfc, 0x3c,0x06,0x65,0x0d,0x6d,0x06,0xb4,0xf1, // 2576
0x0e,0x0b,0x8a,0x0a,0xc9,0xf5,0x24,0x02, 0xd9,0x12,0xa3,0xf1,0x40,0xf6,0x03,0xfa, // 2592
0x96,0x0c,0xce,0x11,0x82,0xf7,0x37,0xfb, 0x01,0xf0,0x4f,0xf5,0xd0,0x03,0x15,0x02, // 2608
0x9b,0xfa,0xf2,0x16,0x6a,0xf7,0xeb,0x16, 0x63,0xfc,0x68,0xf3,0x9e,0xf5,0x02,0xf0, // 2624
0x92,0x05,0x05,0x08,0xe8,0x06,0x3b,0xe8, 0x40,0xfd,0x06,0xed,0x48,0xe8,0xe9,0x0a, // 2640
0xd7,0x01,0x02,0x1d,0x01,0xe5,0x00,0x00, 0x00,0x00,0x00,0x00,0x00,0x00,0x00,0x00, // 2656
0x00,0x00,0x00,0x00,0x00,0x00,0x00,0x00, 0x00,0x00,0x00,0x00,0x00,0x00,0x00,0x00, // 2672
};
