#include "model.nncu.h"

const unsigned char model1[] __ALIGNED(16) = {
0x4e,0x4e,0x43,0x55,0x01,0x00,0x01,0x00, 0x01,0x0e,0x0a,0x00,0x07,0x00,0x00,0x00, // 16
0x02,0x00,0x00,0x00,0x00,0x00,0x00,0x00, 0xc0,0x00,0x00,0x00,0x02,0x00,0x00,0x00, // 32
0x40,0x01,0x00,0x00,0x80,0x00,0x00,0x00, 0xc0,0x00,0x00,0x00,0x00,0x00,0x00,0x00, // 48
0x00,0x00,0x00,0x00,0x00,0x00,0x00,0x00, 0x00,0x00,0x00,0x00,0x00,0x00,0x00,0x00, // 64
0x00,0x00,0x00,0x00,0x00,0x00,0x00,0x00, 0xff,0xff,0xff,0xff,0xff,0xff,0xff,0xff, // 80
0x43,0x4d,0x44,0x00,0x20,0x00,0x80,0x00, 0x50,0x00,0x00,0x00,0x00,0xfe,0x00,0x00, // 96
0x6d,0x6f,0x64,0x65,0x6c,0x31,0x2e,0x31, 0x34,0x28,0x56,0x33,0x5f,0x32,0x29,0x2e, // 112
0x68,0x35,0x0d,0x0a,0x53,0x61,0x74,0x20, 0x4d,0x61,0x72,0x20,0x31,0x33,0x20,0x31, // 128
0x36,0x3a,0x32,0x34,0x3a,0x31,0x37,0x20, 0x32,0x30,0x32,0x31,0x0d,0x0a,0x31,0x34, // 144
0x20,0x62,0x69,0x74,0x73,0x0d,0x0a,0x6e, 0x6e,0x63,0x75,0x20,0x76,0x65,0x72,0x20, // 160
0x31,0x2e,0x30,0x62,0x20,0x32,0x30,0x32, 0x30,0x2e,0x30,0x37,0x2e,0x31,0x34,0x0d, // 176
0x0a,0x00,0x00,0x00,0x00,0x00,0x00,0x00, 0x00,0x00,0x00,0x00,0x00,0x00,0x00,0x00, // 192
0x00,0x00,0x00,0x00,0x00,0x00,0x00,0x00, 0x00,0x00,0x00,0x00,0x00,0x00,0x00,0x00, // 208
0x43,0x4d,0x44,0x00,0x20,0x02,0x00,0x00, 0xd0,0x00,0x00,0x00,0x10,0x02,0x00,0x00, // 224
0x00,0x01,0x00,0x04,0x07,0x0a,0x05,0x0d, 0x00,0x00,0x00,0x00,0x00,0x00,0x00,0x00, // 240
0x01,0x00,0x07,0x00,0x01,0x00,0x01,0x00, 0x60,0x00,0x01,0x00,0x00,0x00,0x00,0x00, // 256
0x0a,0x00,0x0f,0xff,0xff,0xff,0xff,0xff, 0x00,0x01,0x01,0x00,0xc0,0x00,0x00,0x00, // 272
0x00,0x00,0x03,0x00,0x0e,0x00,0x00,0x00, 0x00,0x00,0x00,0x00,0x00,0x00,0x00,0x00, // 288
0x00,0x00,0x00,0x00,0x00,0x00,0x00,0x00, 0x00,0x00,0x00,0x00,0x00,0x00,0x00,0x00, // 304
0x00,0x00,0x00,0x00,0x00,0x00,0x00,0x00, 0x00,0x00,0x00,0x00,0x00,0x00,0x00,0x00, // 320
0x00,0x00,0x00,0x00,0x00,0x00,0x00,0x00, 0x40,0x05,0x00,0x00,0xc0,0x00,0x00,0x00, // 336
0x6f,0xfb,0x0d,0xfc,0x39,0x16,0x9c,0x0c, 0xf4,0x00,0xd5,0x02,0xba,0x06,0x7d,0x11, // 352
0x51,0xfb,0xb5,0xfd,0x0a,0xfb,0x42,0x02, 0xc1,0x07,0x68,0x04,0x05,0xfd,0x67,0x07, // 368
0xe9,0xfe,0x66,0xfa,0x8b,0xfc,0x0a,0xf8, 0xf2,0x05,0x36,0x11,0x31,0x0a,0xf5,0x02, // 384
0x65,0x07,0x4b,0xfa,0x8c,0x0d,0x60,0xfb, 0x6f,0xf9,0x5b,0x10,0x2b,0xf9,0x7b,0x02, // 400
0x2e,0xfe,0xfc,0xf7,0x55,0xfd,0x5c,0x01, 0x4a,0xfa,0x38,0xfc,0xf4,0x01,0x2b,0x07, // 416
0xa1,0x01,0x33,0xf7,0x35,0xff,0x71,0xfe, 0xc8,0x02,0x4f,0xf9,0x45,0x09,0x0b,0x06, // 432
0xc1,0xfe,0xb9,0x0c,0xff,0x02,0xb1,0xf6, 0x31,0xfc,0xfc,0x08,0x39,0xf9,0x86,0x03, // 448
0xb2,0x06,0x44,0x0c,0xe7,0x06,0x4c,0xf6, 0xb8,0x09,0x52,0xff,0x2b,0xfc,0xd2,0xf5, // 464
0x44,0x02,0x68,0x0d,0x94,0x03,0xa7,0x04, 0x31,0x06,0x99,0xfd,0xef,0x01,0xd0,0x02, // 480
0xd4,0x00,0x97,0xf8,0xce,0x09,0x8d,0xfa, 0x21,0xfa,0xe1,0xfc,0x08,0x06,0xb7,0x03, // 496
0x60,0xf7,0xe1,0x08,0xdd,0xff,0xd3,0xff, 0x59,0xfb,0x90,0x01,0xdd,0x0d,0xaf,0x07, // 512
0x45,0x00,0x5e,0xf9,0x08,0xfd,0x50,0x01, 0x90,0xfe,0xf2,0x00,0xca,0x07,0xa0,0xf5, // 528
0x87,0xfe,0xb6,0xfc,0x5e,0x04,0x95,0xfd, 0x35,0x0a,0x58,0x02,0x07,0xfb,0x6a,0xfb, // 544
0xa9,0xff,0x23,0xff,0xfd,0x07,0x83,0xfe, 0x78,0xf9,0x36,0x09,0x33,0xfb,0x5a,0xfa, // 560
0xd1,0x03,0xa7,0xff,0xc4,0x06,0x38,0xf9, 0xe1,0x06,0x36,0x04,0x5d,0x03,0xd2,0xfe, // 576
0x5b,0xff,0x2b,0x03,0x64,0x11,0x07,0x07, 0x7f,0x03,0x7b,0xf5,0x75,0xff,0x82,0xff, // 592
0x5c,0x0e,0x24,0x01,0x65,0x0f,0xb1,0x00, 0x40,0x08,0xd0,0x02,0xef,0x05,0xf1,0x06, // 608
0x46,0x04,0x7b,0x03,0xd5,0xff,0x13,0x02, 0x10,0x06,0xc5,0xfc,0x86,0x04,0xee,0xf8, // 624
0x38,0xff,0xb2,0xf9,0x53,0x07,0x04,0xf7, 0xba,0x02,0x67,0xfb,0x50,0xfd,0xdc,0xfd, // 640
0x3d,0x02,0x74,0x00,0x02,0x04,0x45,0xf9, 0xe7,0xfd,0x75,0x07,0x7e,0xf7,0x09,0xfe, // 656
0x00,0xfe,0x55,0xff,0x66,0xfe,0xf3,0x02, 0xeb,0xfd,0x0d,0xfd,0xe4,0x02,0xe9,0x08, // 672
0xcc,0xf5,0x93,0x0a,0x83,0x00,0x59,0xfb, 0x3f,0x03,0x3d,0xfe,0xe0,0xfd,0x10,0xff, // 688
0xd2,0xf9,0x50,0xff,0x60,0x0a,0x42,0xf8, 0x8b,0x02,0xb3,0xfa,0xa7,0x00,0x64,0xff, // 704
0x78,0x01,0x66,0x06,0x67,0xf7,0x41,0xfe, 0xd1,0xf9,0xe9,0xf5,0x00,0xfa,0x7f,0x09, // 720
0xae,0x05,0xfb,0x03,0x87,0x08,0x91,0x01, 0x01,0xff,0x6f,0x09,0xbd,0x03,0x0b,0xfc, // 736
0x24,0xfe,0x7b,0xfa,0x38,0x00,0xbe,0xfc, 0xfb,0xfa,0x2c,0xff,0xc3,0xff,0x1a,0xfd, // 752
0x48,0x09,0x33,0x09,0xbb,0x06,0xea,0x03, 0x00,0x01,0x26,0x00,0x52,0xff,0x5e,0x07, // 768
0xa7,0x05,0x69,0xfb,0x8c,0xfb,0xc1,0xfb, 0xb1,0x06,0x89,0xf9,0x9c,0x08,0x20,0x07, // 784
0xf9,0x04,0xf2,0x06,0x6f,0xf8,0xd2,0x03, 0x5d,0x02,0xb0,0xf4,0xa9,0xfa,0x3a,0x06, // 800
0x2f,0x02,0x5f,0xff,0x86,0x02,0x16,0x04, 0xe3,0x06,0x7a,0xff,0x25,0xfa,0xf9,0xfc, // 816
0xb0,0xfd,0x82,0xfa,0x58,0x02,0xb2,0x0a, 0x06,0x09,0x15,0x06,0xdb,0x02,0xd4,0x01, // 832
0x9a,0xfa,0xfe,0x06,0x36,0xfd,0x7e,0x03, 0x36,0xff,0x01,0x04,0x04,0x01,0x5a,0x03, // 848
0x76,0x00,0x03,0x01,0x93,0xfe,0xdd,0xfa, 0x57,0xfc,0xa6,0x1a,0xf4,0x0d,0x21,0xff, // 864
0x45,0x02,0x2e,0x05,0x8e,0x0b,0x77,0xf8, 0xd6,0xf6,0x8b,0x04,0x1e,0x06,0xd1,0xfc, // 880
0xc3,0xfb,0x86,0xf5,0x2e,0x08,0xad,0xfd, 0x4e,0xfb,0x78,0xff,0x68,0x01,0x3c,0x02, // 896
0x6c,0x04,0x39,0xfe,0xba,0x03,0xbe,0x04, 0xa4,0xfa,0x29,0xfb,0x89,0x00,0xe8,0x02, // 912
0xa7,0xf6,0x72,0xf9,0x1b,0x04,0xea,0x06, 0x0b,0x09,0xbc,0xf7,0xd4,0x05,0xe9,0xf9, // 928
0xf9,0x00,0xc8,0x03,0xb0,0xf9,0x41,0xfb, 0xfb,0x05,0x83,0x04,0x0f,0xfe,0x4f,0xfa, // 944
0xb5,0xfe,0xb6,0x07,0x7e,0x05,0xb4,0x03, 0xc8,0xfd,0x9c,0x07,0x48,0xfe,0xea,0xf9, // 960
0x5f,0xfa,0xe5,0x05,0x02,0x01,0x05,0xff, 0x85,0x0a,0xf4,0x1c,0xab,0xfd,0xac,0x01, // 976
0xf0,0xf9,0x23,0x13,0xa6,0xfc,0xb6,0xf9, 0x06,0xf9,0xac,0xfc,0xf2,0x04,0x16,0x0b, // 992
0xc8,0x08,0xd8,0x05,0x1e,0x05,0xa2,0x03, 0xaf,0xfb,0x90,0x07,0xfd,0xff,0x41,0xfd, // 1008
0x1a,0x00,0x05,0x05,0xc1,0x02,0x68,0xfd, 0x21,0xf6,0xbb,0x01,0xd3,0x08,0xee,0xf5, // 1024
0xc7,0x07,0x33,0x0a,0xbc,0xf6,0xe3,0x09, 0x45,0x00,0xde,0x00,0x18,0x02,0x0d,0xfc, // 1040
0x9c,0xfa,0xa0,0x08,0x6e,0x01,0xe0,0xfd, 0x8a,0x04,0x80,0x01,0x50,0xf8,0x4a,0xff, // 1056
0x6b,0x0d,0x61,0x10,0x64,0x0b,0xcb,0x03, 0x15,0x07,0x2d,0x02,0x58,0x02,0xfe,0xf7, // 1072
0x7b,0x0a,0x86,0xfe,0xa1,0xfe,0xdb,0xf8, 0x36,0x00,0xfe,0x01,0xfb,0xf8,0x6b,0x09, // 1088
0x0b,0x06,0xd1,0xf9,0x30,0xfb,0xcd,0xff, 0x76,0xf9,0x56,0x03,0x1f,0xf9,0xbe,0x02, // 1104
0xd8,0x01,0xc2,0x01,0x63,0x11,0xde,0x17, 0x61,0xff,0x37,0xfe,0x79,0xfa,0x17,0x05, // 1120
0x64,0xfc,0x87,0xff,0x3c,0xfb,0x99,0x01, 0x86,0xf8,0x03,0x00,0xfa,0x01,0x06,0x07, // 1136
0xb2,0xfa,0xbe,0x0d,0x33,0xff,0xbe,0x0b, 0xdb,0xff,0xa8,0x06,0xb1,0x06,0xfb,0xfb, // 1152
0xa8,0xf8,0x23,0xfd,0x16,0x0d,0xc9,0xfc, 0xfa,0x02,0x01,0xfd,0x0a,0xff,0x50,0x05, // 1168
0x17,0x0a,0x5a,0x00,0x28,0x0a,0xeb,0xf8, 0x3a,0x09,0x2c,0xf8,0xd5,0xff,0x7c,0x08, // 1184
0x52,0xfa,0x40,0xfe,0x36,0xff,0x9b,0xfa, 0x62,0x07,0xb2,0xf6,0x8d,0x0b,0xce,0xfb, // 1200
0x66,0xfb,0x48,0xfe,0xce,0x03,0x22,0x04, 0xd2,0x01,0xb1,0x07,0x45,0x06,0x4f,0xff, // 1216
0xb5,0x05,0xb7,0xf8,0x79,0x04,0x85,0xfa, 0xdf,0x01,0xfc,0xf9,0x3e,0x00,0x03,0xff, // 1232
0x2d,0x09,0x79,0xff,0x7e,0x0b,0xa8,0x08, 0xcc,0xf7,0xf8,0xfe,0xe1,0xf9,0xff,0x06, // 1248
0xa4,0x03,0xc2,0x04,0x00,0xfa,0x50,0x05, 0xb7,0xfd,0x47,0x02,0x1a,0xfd,0x55,0x02, // 1264
0x64,0x12,0x7b,0x07,0x74,0x05,0xf8,0xfa, 0x5a,0x0f,0x8f,0x06,0x14,0x01,0xfe,0xff, // 1280
0x91,0x0a,0x4f,0xff,0x45,0xfd,0xd3,0xf4, 0x88,0xf9,0xd3,0x05,0x88,0x00,0x11,0xf7, // 1296
0x0a,0x07,0x07,0xfe,0x81,0xfb,0x82,0xfd, 0x05,0x06,0xa6,0x02,0x6e,0x04,0x4c,0xfd, // 1312
0x4d,0x02,0xb1,0x03,0xa8,0xfa,0xd4,0x07, 0x38,0xfe,0xb4,0xf7,0xbe,0x08,0x2c,0x03, // 1328
0x88,0xfc,0x93,0x03,0x5b,0x09,0xf1,0xfe, 0x3f,0xf7,0x0f,0x02,0xb2,0xf8,0x85,0x08, // 1344
0xfd,0x0c,0xd9,0x03,0xae,0xfa,0xfe,0xff, 0x49,0x05,0x3c,0x09,0x45,0xfa,0x65,0xfc, // 1360
0xa9,0x06,0x95,0xfc,0x81,0x01,0x72,0x04, 0x9f,0x07,0x05,0x03,0xc7,0x02,0x3a,0xfd, // 1376
0xd9,0x06,0xff,0xfc,0xf1,0x06,0x16,0xff, 0x4f,0xff,0x8a,0xf6,0x09,0x09,0xe1,0xff, // 1392
0x0f,0xfa,0xe7,0x03,0xb7,0x00,0xe8,0x00, 0xc0,0x00,0x48,0xff,0x28,0x03,0xc5,0x08, // 1408
0xa7,0x0c,0xae,0xf9,0x9c,0x0e,0x4a,0x0c, 0x90,0x12,0xb8,0x04,0x61,0x00,0xc0,0xf8, // 1424
0x4e,0xfa,0x06,0x02,0xbf,0xf9,0xc6,0x00, 0x1e,0x07,0xa8,0x03,0x4b,0x03,0xdd,0xf8, // 1440
0x3c,0xfb,0xfc,0xfe,0xd8,0xfa,0xa5,0x04, 0x92,0x07,0xe5,0x13,0xcb,0x09,0xff,0xfd, // 1456
0xa9,0xfd,0xda,0x04,0x0f,0x01,0xb8,0x0b, 0x4b,0x16,0x3c,0xfd,0x0f,0x02,0xc9,0xfa, // 1472
0xc8,0x05,0x79,0xfe,0x21,0xfb,0xf7,0xf9, 0x0c,0x05,0x09,0x02,0x47,0x06,0x84,0xfb, // 1488
0x39,0x02,0x0c,0x01,0xc9,0x05,0x91,0x02, 0x51,0x01,0xe8,0x04,0x57,0x0a,0x62,0x09, // 1504
0x5e,0xfe,0x62,0x00,0x40,0xff,0xc6,0xf9, 0xee,0x07,0xe5,0xf8,0x3c,0xfd,0x47,0x07, // 1520
0x60,0x01,0xd1,0xfb,0x61,0xfd,0x12,0x06, 0xad,0xf4,0xa6,0xfe,0xa0,0x01,0x12,0xfa, // 1536
0x2d,0x00,0x4a,0x01,0x1c,0xfe,0x4d,0x05, 0x6f,0x03,0xc7,0xff,0xc2,0x04,0x3c,0x01, // 1552
0x2f,0xff,0x72,0x06,0xb1,0x03,0xe3,0xf6, 0x85,0x06,0x6d,0xff,0xf8,0xf7,0x64,0xfb, // 1568
0x81,0x05,0xef,0xf7,0x1c,0x09,0xdc,0x04, 0xfd,0xf6,0x83,0x02,0x71,0xfe,0x7f,0x03, // 1584
0x9d,0xfd,0x09,0x01,0x47,0x05,0xad,0xfd, 0x15,0x00,0xe9,0x06,0x2d,0x08,0xd5,0xfd, // 1600
0x8c,0xfd,0xd4,0xf5,0x18,0x02,0xfe,0xfd, 0x8e,0x19,0x5a,0x01,0x5c,0xf9,0x25,0x08, // 1616
0x6d,0xfd,0x57,0xf5,0xd6,0x02,0x11,0x08, 0x2f,0x02,0x33,0x01,0xbd,0xfb,0xce,0x01, // 1632
0x34,0xfc,0xaf,0xf7,0xb7,0xfd,0xab,0xf9, 0xb5,0x06,0x83,0x01,0x53,0xf8,0xab,0x06, // 1648
0xbb,0xfe,0xac,0xfc,0x4a,0xfa,0x5d,0xfc, 0x8a,0xfe,0xa7,0x06,0x7c,0x02,0xdf,0x00, // 1664
0x82,0xfa,0x23,0x00,0x72,0x02,0x3d,0xf9, 0x18,0xfc,0x08,0xfb,0x68,0xfa,0xce,0x0a, // 1680
0xec,0x08,0xcf,0xfc,0x3a,0xf4,0x51,0xfe, 0xc9,0xf5,0xbd,0xf1,0xbf,0x0b,0x0b,0x04, // 1696
0x8f,0x08,0x3f,0x00,0xe6,0xfb,0xf3,0x08, 0xea,0xed,0x81,0xea,0x09,0xf6,0x5c,0xfa, // 1712
0x00,0x00,0x22,0x00,0xf0,0x0e,0x00,0x00, 0x08,0xff,0x89,0xef,0xbb,0xee,0xd1,0x0a, // 1728
0x7c,0xf3,0x1d,0xee,0xf1,0xe3,0xe1,0xfc, 0x6f,0xfa,0xd7,0x05,0x00,0x00,0xed,0x00, // 1744
0x27,0xfb,0x00,0x00,0xb2,0x06,0x00,0x00, 0x00,0x00,0x76,0xfe,0x0c,0xf3,0xb2,0xf5, // 1760
0x49,0xfd,0x31,0xfc,0x1a,0xfc,0x00,0x00, 0x1d,0xe9,0x09,0x00,0x8f,0x02,0x00,0x00, // 1776
0x24,0xf8,0x68,0xfe,0xcb,0xfb,0x81,0x08, 0x87,0x09,0x27,0xfc,0xaf,0xf2,0x18,0x07, // 1792
0xde,0xee,0x87,0x13,0x27,0xf8,0xcf,0xf7, 0x17,0x03,0x8a,0xf1,0x00,0x00,0xa8,0xec, // 1808
0x5b,0xf7,0x66,0xff,0xb8,0xff,0xb8,0xff, 0x90,0xf0,0x00,0x00,0x69,0x00,0xd6,0x03, // 1824
0x50,0x01,0x00,0x00,0xe2,0xfe,0x2f,0xfd, 0xdb,0xf6,0xb1,0xfc,0x98,0xe1,0x6c,0x06, // 1840
0x0a,0x02,0x75,0xe9,0x00,0x00,0x29,0xff, 0xd3,0xfe,0x8c,0xf3,0x00,0x00,0xf6,0xff, // 1856
0x75,0xf0,0x00,0x00,0xa8,0xfe,0xb1,0xf0, 0x58,0xea,0x50,0xf7,0x2f,0xf2,0xb9,0xe8, // 1872
0x43,0x4d,0x44,0x00,0x20,0x03,0x80,0x00, 0x50,0x07,0x00,0x00,0x10,0x04,0x00,0x00, // 1888
0x01,0x01,0x00,0x00,0x0a,0x00,0x00,0x00, 0x00,0x00,0x00,0x00,0x00,0x00,0x00,0x00, // 1904
0x01,0x00,0x60,0x00,0x01,0x00,0x01,0x00, 0x60,0x00,0x01,0x00,0x00,0x00,0x00,0x00, // 1920
0x0a,0x00,0xff,0xff,0xff,0xff,0xff,0xff, 0x00,0x00,0x00,0x00,0x00,0x00,0x00,0x00, // 1936
0x00,0x00,0x00,0x00,0x00,0x00,0x00,0x00, 0x00,0x00,0x00,0x00,0x00,0x00,0x00,0x00, // 1952
0x00,0x00,0x00,0x00,0x00,0x00,0x00,0x00, 0x00,0x00,0x00,0x00,0x00,0x00,0x00,0x00, // 1968
0x00,0x00,0x00,0x00,0x00,0x00,0x00,0x00, 0x00,0x00,0x00,0x00,0x00,0x00,0x00,0x00, // 1984
0x00,0x00,0x00,0x00,0x00,0x00,0x00,0x00, 0x00,0x00,0x00,0x00,0x00,0x00,0x00,0x00, // 2000
0x43,0x4d,0x44,0x00,0x20,0x05,0x00,0x00, 0xd0,0x07,0x00,0x00,0x10,0x02,0x00,0x00, // 2016
0x01,0x00,0x00,0x04,0x0a,0x0c,0x06,0x0c, 0x00,0x00,0x00,0x00,0x00,0x00,0x00,0x00, // 2032
0x01,0x00,0x60,0x00,0x01,0x00,0x01,0x00, 0x40,0x00,0x01,0x00,0x00,0x00,0x00,0x00, // 2048
0x0a,0x00,0x10,0xff,0xff,0xff,0xff,0xff, 0x00,0x00,0x01,0x00,0x80,0x00,0x00,0x00, // 2064
0x00,0x01,0x02,0x00,0xc0,0x00,0x00,0x00, 0x00,0x00,0x00,0x00,0x00,0x00,0x00,0x00, // 2080
0x00,0x00,0x00,0x00,0x00,0x00,0x00,0x00, 0x00,0x00,0x00,0x00,0x00,0x00,0x00,0x00, // 2096
0x00,0x00,0x00,0x00,0x00,0x00,0x00,0x00, 0x00,0x00,0x00,0x00,0x00,0x00,0x00,0x00, // 2112
0x00,0x00,0x00,0x00,0x00,0x00,0x00,0x00, 0x00,0x30,0x00,0x00,0x80,0x00,0x00,0x00, // 2128
0x23,0x00,0x8d,0xfc,0x60,0xec,0x25,0xfd, 0x81,0xf3,0x32,0xfb,0xc8,0xf8,0x31,0xfe, // 2144
0x05,0x01,0x70,0x01,0x4a,0xfe,0x9b,0xff, 0x6e,0x01,0x78,0x01,0x98,0xff,0x93,0xfd, // 2160
0x4c,0x00,0x3c,0x02,0x43,0xfe,0x35,0xfe, 0x96,0xf0,0x97,0xf8,0x59,0xfe,0xf0,0xf5, // 2176
0x8c,0xff,0xb9,0xff,0x5f,0x00,0x58,0xf5, 0x4a,0x00,0xf3,0xff,0xbc,0x00,0xb2,0xff, // 2192
0xdb,0xfa,0xf6,0xfc,0x6c,0x00,0xbc,0x01, 0x7c,0xff,0x7b,0x01,0x6e,0xff,0xcd,0xfe, // 2208
0xb8,0xff,0xbb,0xfe,0x69,0xfa,0xcc,0x02, 0x07,0x00,0x69,0x01,0x6f,0xfc,0x44,0x00, // 2224
0xe7,0x01,0xca,0x00,0x14,0x01,0xe7,0x01, 0xb1,0x00,0xa8,0xff,0xba,0xf9,0x93,0x02, // 2240
0x1c,0xfe,0xa5,0x01,0x42,0x00,0xa9,0xff, 0xdf,0xfe,0x2e,0xff,0x17,0x03,0x98,0x00, // 2256
0x60,0x00,0x24,0xfe,0x83,0xfe,0x99,0xff, 0xa7,0xfe,0xd4,0xfe,0x49,0xff,0x3b,0xfc, // 2272
0x60,0xfc,0xbd,0xfe,0x86,0xff,0x8c,0xfe, 0x78,0xfe,0x44,0x05,0x7a,0xf6,0x1d,0x02, // 2288
0xe1,0xfd,0xeb,0xfe,0x3e,0x00,0xb1,0x00, 0x7b,0xfe,0xe4,0xfd,0xc1,0xff,0x87,0xfd, // 2304
0x03,0x00,0x4b,0xff,0x3c,0xff,0x85,0x01, 0xa4,0xf9,0x9f,0xff,0x6c,0xf0,0x19,0xff, // 2320
0x51,0xf5,0x1a,0x02,0xf1,0x00,0x28,0xff, 0x57,0x07,0x99,0xfb,0xa5,0x04,0xce,0xff, // 2336
0x0d,0x06,0x4f,0xff,0xaf,0x00,0xcc,0x02, 0x2d,0x00,0xcb,0xfc,0xd6,0x00,0x17,0xff, // 2352
0x77,0xfd,0xba,0xfa,0x9c,0x02,0xb0,0xfe, 0xca,0x00,0xf8,0xfc,0x62,0x00,0x28,0xff, // 2368
0x27,0x10,0x84,0xfd,0x91,0xff,0xdd,0x02, 0x47,0x00,0x81,0xfb,0xf0,0x01,0xdf,0xfc, // 2384
0xb0,0xff,0xdb,0x01,0x78,0xff,0x2a,0xfe, 0xe8,0xfd,0x21,0xf8,0x30,0xf9,0x32,0x00, // 2400
0x8a,0x00,0x15,0x00,0x62,0x00,0xd3,0xff, 0x38,0x01,0x5f,0x00,0xbe,0x00,0xf3,0x01, // 2416
0x44,0xfc,0x12,0x06,0x3c,0xff,0xbe,0xfa, 0x9b,0x07,0x26,0xf9,0x62,0xfc,0x63,0xf4, // 2432
0x4e,0x00,0xf4,0x01,0xc1,0x00,0x1a,0xfb, 0x07,0x00,0x2f,0xfc,0x81,0x02,0xc5,0x02, // 2448
0x34,0xfe,0x0a,0xff,0x3a,0xfe,0x37,0xff, 0x7f,0xfe,0x54,0x00,0xcc,0x01,0xb3,0xfb, // 2464
0x52,0xff,0xb3,0x00,0xfb,0x01,0xe2,0x01, 0x3f,0x01,0xb9,0xf9,0xc7,0x03,0xc1,0xf9, // 2480
0x63,0x04,0x85,0xff,0xd8,0x00,0x26,0x01, 0xb9,0xfc,0x4f,0x00,0x07,0x01,0x2a,0x00, // 2496
0xba,0xf7,0xd1,0x02,0x78,0xf4,0xac,0xfb, 0xab,0x01,0x11,0x00,0x02,0x00,0xf2,0xee, // 2512
0xdd,0xee,0xeb,0xfe,0xf2,0xff,0x3b,0xff, 0x42,0xff,0xf9,0xfd,0x47,0x00,0x93,0x02, // 2528
0x51,0xff,0x44,0xfe,0x4f,0xf9,0xbf,0xf1, 0x29,0xf8,0x9a,0xff,0xc2,0xfc,0x41,0xfd, // 2544
0xbc,0xfe,0x41,0x00,0x40,0x00,0x87,0xfd, 0x43,0x00,0x7e,0x00,0xbc,0xff,0x69,0x00, // 2560
0x51,0xee,0x1e,0x02,0x2f,0x00,0x75,0xfd, 0xfa,0xfe,0xa7,0xf9,0xd4,0x01,0x3d,0xf7, // 2576
0xf5,0xfe,0xb6,0x00,0x91,0xf4,0xd8,0x01, 0xd0,0x00,0xee,0xfa,0x0b,0xf1,0x27,0x04, // 2592
0xd3,0xff,0x70,0x00,0x4f,0x00,0x27,0x00, 0x7f,0xff,0xd3,0xf8,0x14,0xf3,0x9a,0xfe, // 2608
0xde,0x06,0x11,0xf7,0x9b,0x01,0xdd,0x02, 0x1d,0xfc,0x26,0x00,0x6d,0x00,0x17,0xf5, // 2624
0x41,0x00,0x44,0x00,0x3a,0xfe,0x12,0x02, 0xcd,0xff,0x71,0x02,0x1a,0xfd,0x43,0x00, // 2640
0xb8,0xfd,0xc3,0xfe,0x17,0xfd,0x1b,0xff, 0xa8,0xfd,0xa5,0x00,0x70,0x01,0x64,0x01, // 2656
0x7f,0xff,0x69,0xff,0x41,0x01,0xcc,0x02, 0x40,0xff,0x37,0x04,0xd6,0x00,0xec,0xfd, // 2672
0x98,0x02,0x84,0x00,0x30,0xfd,0x42,0xff, 0xf9,0xff,0x4a,0x00,0x59,0xfe,0x6f,0xff, // 2688
0x14,0x00,0x51,0xfd,0xb1,0x00,0x8c,0x00, 0x00,0x00,0x91,0xfd,0x43,0xff,0x28,0x02, // 2704
0x56,0xfe,0x5b,0x01,0x34,0x00,0xef,0x02, 0xf0,0xf8,0xdb,0x02,0xb4,0x01,0x1d,0x03, // 2720
0xa6,0x00,0xfe,0xfb,0x75,0xff,0xb8,0xff, 0xad,0xfd,0xec,0xf9,0xaa,0xff,0x57,0x00, // 2736
0x82,0xfd,0x73,0xf9,0x40,0xf5,0xa6,0x00, 0x0b,0x01,0x29,0x00,0x2f,0x00,0xac,0x00, // 2752
0x5a,0xf7,0x91,0x01,0xf1,0xf8,0x44,0xff, 0x75,0xed,0x66,0x00,0x64,0xfe,0x0f,0x04, // 2768
0x85,0xfd,0x85,0xfe,0x3c,0x00,0x93,0x00, 0x41,0xff,0xae,0xfa,0xe0,0x08,0x29,0x02, // 2784
0x16,0xfe,0x32,0x00,0x62,0x01,0x8c,0xff, 0x06,0x00,0xcb,0xff,0xa6,0x02,0xb8,0x00, // 2800
0x0a,0xee,0xc1,0x05,0x45,0x00,0xcd,0xf9, 0xee,0x06,0x1f,0x03,0x48,0x00,0xb9,0xfd, // 2816
0x2e,0x00,0x78,0xf6,0x79,0x00,0xad,0xf6, 0x3f,0x00,0x42,0xff,0xec,0x01,0x0d,0x00, // 2832
0x65,0x00,0x07,0xff,0xf8,0x04,0xe0,0x00, 0x02,0x00,0x4e,0xff,0x51,0x02,0x5e,0x02, // 2848
0x00,0x00,0x26,0xfd,0xee,0x00,0x3d,0xff, 0x02,0x06,0xc0,0xf2,0x11,0x01,0xf8,0xf9, // 2864
0xaf,0xfd,0x88,0x00,0x14,0x01,0xa1,0x02, 0x8e,0x00,0x17,0x00,0xb3,0x00,0xb4,0xff, // 2880
0x8c,0x03,0x4e,0x01,0xd3,0x00,0x30,0xfb, 0xd0,0xfe,0x31,0x01,0x12,0xff,0x3d,0x00, // 2896
0xe1,0x01,0x81,0xfd,0x79,0xf2,0x19,0xfe, 0x45,0xfd,0xfe,0xff,0x13,0x01,0x8c,0xfe, // 2912
0xec,0xf9,0xcb,0x01,0x56,0x00,0xc4,0x00, 0xa5,0x02,0x4f,0x04,0x51,0x01,0x61,0x01, // 2928
0x4e,0xfe,0xcf,0xff,0xa8,0x04,0x14,0x03, 0x2f,0xf5,0x28,0xff,0x2c,0x02,0x32,0xfa, // 2944
0xae,0x03,0x0f,0x01,0xf2,0x01,0x99,0xfe, 0xa3,0x01,0x60,0x02,0x1e,0x02,0x44,0x00, // 2960
0xb7,0xfe,0x51,0x00,0xd5,0x03,0x4a,0x00, 0x9c,0x02,0x72,0x01,0x41,0x00,0x79,0xfc, // 2976
0xbd,0x02,0xfa,0x02,0xaf,0xf9,0xe0,0xfd, 0x00,0x01,0xb9,0xff,0xfa,0xff,0xf1,0xfe, // 2992
0x7d,0xfa,0x5f,0x02,0x5d,0x00,0xb8,0x07, 0xef,0xfd,0x50,0x00,0x8c,0xf9,0x32,0x05, // 3008
0x9f,0xfc,0x86,0x01,0xcc,0x04,0x55,0x00, 0xdb,0xff,0x02,0xfd,0x3b,0xff,0xff,0xef, // 3024
0x74,0x01,0xe0,0xfe,0x48,0xfe,0x2e,0x00, 0x0e,0xfc,0x1d,0x00,0x61,0x02,0x2a,0xfe, // 3040
0x87,0xfe,0x16,0x02,0xc3,0x01,0x1a,0xfa, 0xe8,0x00,0xd3,0xff,0xf2,0xf9,0xe2,0xff, // 3056
0x18,0x03,0xc9,0x00,0x33,0xfe,0xef,0x00, 0x34,0x04,0xc3,0x01,0x93,0x00,0xa3,0xfb, // 3072
0x33,0x05,0x8c,0x02,0xfe,0xff,0x02,0x00, 0x11,0xfb,0x95,0xfe,0xdb,0xfe,0x00,0x02, // 3088
0x2d,0x00,0x9f,0x00,0x21,0xee,0x90,0x01, 0x56,0xfd,0x97,0xfc,0x0e,0x01,0x0f,0xf5, // 3104
0x2b,0xfb,0xb3,0xff,0x59,0xf4,0x52,0xff, 0x84,0x03,0xd2,0x03,0xf7,0x01,0x77,0xfe, // 3120
0xde,0xfd,0xe2,0xf7,0x4c,0x02,0xbc,0x02, 0xfc,0xf0,0x10,0x00,0x80,0x00,0x83,0xf5, // 3136
0xb1,0x02,0x7c,0x01,0x97,0x05,0x77,0xfe, 0xb9,0xfe,0xe4,0xf2,0xaa,0x02,0xd0,0xf7, // 3152
0xd4,0xf3,0xf9,0xfc,0x93,0xf7,0x0f,0x00, 0x24,0x01,0xd5,0x02,0xce,0xfc,0x9e,0xf8, // 3168
0x06,0x02,0x38,0x01,0x48,0xfa,0xbd,0xfe, 0xc9,0xff,0x2e,0xff,0x04,0xf6,0x3c,0x01, // 3184
0x6d,0x03,0x61,0x03,0xd5,0xfc,0x63,0x00, 0xcb,0xf7,0x3d,0x00,0x14,0x05,0x83,0x05, // 3200
0xfa,0x01,0x0f,0xfe,0x62,0xff,0x57,0x03, 0xf2,0xff,0xf1,0xfe,0x53,0x00,0x31,0x01, // 3216
0x45,0xff,0x34,0xfe,0x21,0x02,0x17,0x01, 0x93,0x00,0xa6,0x01,0x5b,0x01,0xb9,0x02, // 3232
0x9f,0x00,0x24,0x01,0x86,0xfe,0xfb,0xf9, 0x96,0xff,0x12,0x03,0x4b,0xff,0x1b,0x00, // 3248
0x17,0xff,0x64,0x00,0x46,0x00,0x3a,0xff, 0x51,0xff,0x1e,0x00,0x09,0x03,0x4a,0xfe, // 3264
0xd9,0x00,0xd3,0x01,0x09,0x01,0x33,0x00, 0xde,0xfe,0x00,0xfe,0x93,0xff,0xda,0x00, // 3280
0x2d,0x07,0xb8,0xfd,0x14,0x00,0xc8,0x03, 0x87,0x00,0x3b,0x04,0xe1,0xfc,0x89,0x07, // 3296
0x19,0x05,0x09,0xfa,0xbe,0x00,0x19,0x03, 0x00,0x00,0x8f,0xfd,0x26,0x02,0xed,0x0b, // 3312
0x9a,0xff,0xc8,0xfe,0x1c,0xfc,0x86,0x02, 0xf3,0xff,0xfa,0xff,0xcf,0xfe,0xb7,0xff, // 3328
0x3c,0x04,0xab,0xfb,0x41,0xff,0x22,0x01, 0x5f,0x00,0xca,0xf7,0x56,0xff,0x7d,0xf5, // 3344
0xbc,0x01,0x53,0x01,0x2a,0x01,0x81,0x00, 0xc5,0xff,0x44,0x03,0x6c,0xff,0x19,0x00, // 3360
0x33,0x00,0x4c,0xf4,0x94,0xff,0x37,0x02, 0xfb,0xf9,0x1c,0x0b,0xd4,0x00,0x39,0xff, // 3376
0x5b,0x00,0x80,0x04,0x7c,0xfd,0x78,0xfc, 0xee,0x05,0x74,0x00,0xd7,0xff,0x72,0xf5, // 3392
0xa1,0xff,0x29,0xfe,0x3b,0x01,0x07,0xff, 0x71,0xff,0xd3,0xfe,0x6f,0xfd,0x35,0x00, // 3408
0xae,0x04,0x20,0x02,0x81,0xfe,0x62,0x01, 0x0a,0x00,0x33,0xfe,0xa7,0xf7,0x86,0x01, // 3424
0x05,0x01,0xed,0x01,0x6a,0x00,0xd0,0x00, 0x2f,0x01,0xd2,0x03,0xb3,0x00,0xf7,0xfb, // 3440
0x9e,0xfa,0xa6,0xf7,0xc3,0x01,0x05,0x02, 0xf4,0xff,0x53,0xff,0xdd,0x01,0xe3,0x00, // 3456
0xc5,0x05,0x0e,0x00,0xff,0xfa,0x3e,0x02, 0xef,0xff,0xb5,0x01,0xc7,0xff,0xfe,0xff, // 3472
0xf4,0xfe,0xd6,0xf9,0x0b,0xff,0xbc,0xeb, 0x76,0xfd,0xe9,0xfe,0x5a,0x01,0x2b,0x05, // 3488
0x58,0xfd,0x65,0xfb,0xa0,0x02,0xad,0xfe, 0xd5,0xf1,0x9a,0xf7,0xe3,0xff,0xec,0xfe, // 3504
0xfc,0x01,0x0c,0xf9,0x07,0xfd,0x9a,0x00, 0x00,0x04,0x50,0x00,0xe6,0x01,0xae,0x00, // 3520
0xa9,0xf9,0x14,0x01,0x73,0xfc,0x2a,0xfb, 0xbf,0xfd,0xea,0xfc,0xf1,0xff,0x6c,0xf0, // 3536
0x87,0xfe,0x51,0x01,0x70,0xff,0x3d,0x01, 0xfe,0xfd,0x75,0xfe,0xfb,0xfd,0x0a,0x00, // 3552
0xbb,0xfd,0x9c,0xff,0x17,0xff,0x53,0x02, 0xdd,0xff,0xce,0xff,0x3e,0xfe,0x32,0xff, // 3568
0xcf,0x01,0xeb,0xf9,0xdc,0xfe,0x2f,0x00, 0xc1,0x04,0x04,0x01,0x37,0xff,0x86,0xfe, // 3584
0x2c,0xff,0x4b,0x02,0x2e,0x02,0x10,0x01, 0xd9,0xff,0xda,0xfe,0xd0,0x01,0xd4,0xff, // 3600
0xaf,0xfa,0xb8,0xfe,0xb3,0x01,0xaf,0xfd, 0xb1,0x01,0x39,0xff,0x57,0x03,0xe5,0xfe, // 3616
0x4b,0xf5,0x25,0xff,0xf4,0x02,0x9d,0xff, 0x03,0x01,0xa9,0xfd,0xea,0xf3,0x11,0xfd, // 3632
0x6c,0xff,0x93,0x05,0x64,0x00,0xcc,0xfe, 0xb0,0x00,0x99,0xff,0x07,0x01,0xd0,0xff, // 3648
0xf6,0xfe,0xbe,0xfd,0x0c,0xfe,0xdf,0x05, 0x11,0x00,0x46,0xff,0x3c,0x01,0xfa,0x00, // 3664
0x7e,0xf3,0x46,0x00,0xb2,0x00,0x49,0x00, 0x9c,0xfe,0x19,0x01,0x75,0x00,0x5d,0xfd, // 3680
0x93,0x03,0x38,0x01,0xb1,0x00,0x9c,0x03, 0x4a,0x04,0x66,0xfa,0xef,0xff,0x7c,0xfb, // 3696
0xac,0xff,0x8b,0xfc,0xf3,0xff,0x76,0xfd, 0x15,0x03,0x0b,0x00,0x06,0xff,0x72,0xfc, // 3712
0xa9,0x00,0x93,0xff,0x97,0xf5,0x96,0x00, 0xc6,0x01,0xba,0x01,0x6c,0xfe,0x5c,0x01, // 3728
0x47,0xf2,0x5d,0xff,0x66,0x00,0x75,0xfe, 0x0a,0xfd,0xc7,0xf5,0x7a,0x04,0x9b,0x04, // 3744
0x88,0xff,0x99,0xff,0x16,0xf7,0xe9,0x00, 0x5f,0xff,0xed,0xff,0x8f,0xff,0xac,0xff, // 3760
0x38,0x01,0x5f,0x00,0xb9,0xf7,0x95,0xfa, 0x69,0x07,0x16,0x01,0xe9,0xff,0xbe,0x00, // 3776
0x9c,0xfe,0x0a,0xfe,0xf2,0xfc,0xd2,0xfd, 0x62,0xff,0x0a,0xf5,0x5a,0x02,0xf7,0xfc, // 3792
0xbd,0xf6,0xfe,0xfc,0x88,0xfd,0x70,0xfd, 0x53,0x01,0xb8,0x00,0x3c,0x03,0xf9,0xf9, // 3808
0xa6,0x05,0xbd,0xfd,0xf3,0x02,0x0b,0x05, 0x17,0xff,0x9d,0xf6,0x01,0xfe,0x8e,0xfb, // 3824
0x7b,0xff,0x04,0xff,0x07,0x00,0x56,0xfd, 0xbc,0xf8,0x9a,0xff,0xe2,0xff,0xa3,0xfe, // 3840
0x77,0xfd,0x1a,0x02,0x84,0xfd,0xf9,0xfa, 0xf8,0xfc,0x20,0x03,0x2e,0xff,0x8b,0xfd, // 3856
0x80,0x02,0xa7,0xfd,0xc7,0xfe,0xa3,0xff, 0x58,0xfa,0x7f,0xfd,0x7b,0x00,0xd7,0x01, // 3872
0xe0,0xfd,0x12,0x02,0x5b,0xff,0x07,0x03, 0x37,0xff,0x19,0x00,0x69,0xfe,0x5b,0xfc, // 3888
0xd9,0xfe,0x7a,0xfe,0x50,0xfb,0x7d,0x00, 0x1a,0xff,0x1c,0x01,0x2d,0x00,0xfc,0xfe, // 3904
0x15,0x04,0xfe,0xff,0x3d,0xfe,0xe7,0xfe, 0x7d,0xf7,0x2c,0x07,0x1f,0x01,0x24,0x05, // 3920
0x29,0xfe,0x8f,0xff,0x19,0x03,0x5d,0xff, 0x4d,0xfe,0xe4,0x0b,0x6c,0x00,0x92,0x02, // 3936
0x10,0xff,0x56,0xff,0xc1,0xff,0x93,0xfd, 0x8f,0xfc,0x0b,0x05,0x2b,0x00,0xc3,0xff, // 3952
0xe4,0xfd,0x42,0xff,0x92,0xfd,0x72,0xfd, 0xd3,0xfb,0x77,0x00,0xbf,0x00,0x23,0xf7, // 3968
0x2c,0x01,0x84,0xfe,0xf5,0xff,0x23,0xfc, 0xdb,0xfb,0x79,0x01,0xdf,0x00,0xc7,0xff, // 3984
0xf0,0xf7,0xa1,0x02,0xa1,0x00,0xf9,0xfd, 0x51,0x00,0xec,0x00,0x79,0xfe,0x30,0x00, // 4000
0x05,0xfe,0x93,0x00,0x22,0xfe,0x62,0x04, 0x4d,0xf6,0x9c,0xfd,0x2e,0xfe,0x35,0x00, // 4016
0x7d,0xf3,0x01,0x00,0x0d,0xff,0x97,0xfc, 0x72,0x00,0xc0,0xff,0xf9,0xff,0xbc,0xff, // 4032
0x24,0xfd,0x9d,0xfe,0x38,0xfc,0x63,0x05, 0x92,0xff,0x4e,0x02,0xa1,0x02,0x2b,0x04, // 4048
0x01,0xfb,0xe3,0x00,0x37,0x00,0x66,0x02, 0x27,0x02,0x88,0x00,0x58,0xff,0x1e,0xff, // 4064
0x94,0x0b,0xb6,0x04,0xc6,0xfe,0x9a,0xff, 0x04,0x00,0xa3,0x00,0xbe,0x00,0x7f,0xff, // 4080
0xaa,0x01,0x01,0xfd,0x42,0xfe,0x9c,0x01, 0x2a,0x00,0x7f,0x00,0xf7,0xfd,0x39,0xff, // 4096
0x17,0xfe,0xbb,0xfe,0x9c,0xfe,0x07,0xfc, 0x70,0x00,0xe2,0xff,0x9e,0xfd,0x77,0x01, // 4112
0x60,0xfb,0xbe,0x00,0xdb,0x01,0x2d,0x02, 0x0d,0x03,0x24,0xf6,0x38,0xfb,0x51,0x01, // 4128
0x6f,0x00,0x17,0x03,0x89,0xff,0x74,0xfe, 0xce,0x00,0x5d,0xfd,0x50,0x01,0x05,0x03, // 4144
0xc3,0x03,0x6c,0xfe,0xd0,0xff,0xde,0xf9, 0xc4,0xff,0xbc,0xfe,0xc2,0xfe,0x07,0xff, // 4160
0x8b,0xff,0x36,0xfb,0xd1,0xfd,0x13,0xfb, 0xa7,0xee,0x3e,0xfe,0xc1,0xfd,0xf9,0x00, // 4176
0x87,0xff,0xc7,0xff,0x68,0x06,0x63,0xfb, 0x2b,0xff,0x0c,0x01,0xd0,0x02,0xfc,0xfe, // 4192
0x2d,0x04,0xc4,0xfd,0xde,0xff,0x03,0x03, 0x1d,0x03,0xbe,0xf5,0x29,0x02,0x91,0xfb, // 4208
0x94,0xff,0x5a,0x01,0x65,0xff,0xda,0xfe, 0xa5,0xfd,0x71,0xfb,0x46,0x02,0xd9,0xee, // 4224
0x6c,0xfe,0x98,0x01,0xa8,0x03,0x2d,0x02, 0x1f,0x01,0x24,0xff,0xd6,0x00,0xe5,0xfe, // 4240
0xea,0xfe,0x25,0x00,0x4d,0xf8,0x7a,0xff, 0xfc,0xfb,0xbf,0x02,0x2a,0x00,0x73,0xfc, // 4256
0xe3,0xfe,0xe0,0x01,0xd0,0xfc,0xef,0x01, 0xc8,0xf5,0xe4,0x04,0xec,0xf6,0x5e,0xf9, // 4272
0x65,0xfd,0x91,0xff,0x0b,0xfd,0x19,0xfe, 0x06,0xfc,0x03,0x01,0xac,0x00,0x06,0x04, // 4288
0xd7,0xef,0xae,0xfe,0x07,0x03,0x5f,0xff, 0x17,0x00,0xf7,0xfb,0xe1,0xfd,0x10,0xf8, // 4304
0x35,0xfe,0xa1,0xfd,0x67,0xfb,0x37,0x01, 0x7b,0xfd,0x30,0xfe,0x3e,0xff,0xba,0x03, // 4320
0x48,0xf6,0xa0,0xfe,0x17,0xfc,0x4e,0x02, 0x91,0x04,0xf3,0xfe,0xc2,0xf7,0x94,0x00, // 4336
0x5f,0x04,0x86,0xf4,0xbe,0x04,0xb3,0x01, 0xc4,0xf9,0x3c,0x00,0xcb,0x00,0xee,0x00, // 4352
0xdd,0x01,0xe5,0x01,0x2e,0xfe,0xa4,0x08, 0xd9,0xff,0x2c,0x04,0x2d,0x02,0xef,0xff, // 4368
0xe2,0x00,0xe8,0xfc,0xfb,0x01,0x7b,0xff, 0xa6,0x02,0x8d,0x00,0x84,0x00,0xbc,0x00, // 4384
0xe7,0xff,0xb8,0x02,0xb9,0x01,0xa1,0x03, 0x88,0xfd,0x83,0x0e,0x97,0xff,0xcf,0xf9, // 4400
0xf7,0xf9,0x91,0x00,0x7c,0xfe,0x30,0x00, 0x7d,0x05,0x86,0x00,0x3b,0xff,0xe5,0xff, // 4416
0x0e,0x02,0x06,0x01,0xd3,0xfe,0x31,0x03, 0xce,0xfe,0x7b,0x04,0xf5,0x00,0x9c,0x00, // 4432
0x16,0xfd,0x1a,0x00,0x68,0xfe,0xb3,0xf7, 0xdb,0xfe,0x23,0x00,0xac,0xfe,0x35,0xff, // 4448
0xd8,0x04,0x27,0x01,0x53,0xff,0x13,0x01, 0x47,0x00,0xe4,0xf6,0x53,0xf7,0x8e,0x03, // 4464
0xc9,0x01,0x44,0xff,0x7b,0xf7,0x81,0xfd, 0xfa,0xfe,0x53,0x00,0x2f,0x00,0xb5,0xfe, // 4480
0x90,0x04,0x7a,0xff,0xf0,0xfc,0x9e,0xff, 0xbf,0x00,0x52,0x06,0xec,0x01,0x7a,0x05, // 4496
0x68,0xff,0xe5,0x00,0xa7,0x06,0x16,0xff, 0x3c,0x02,0xcf,0xfc,0x12,0xf9,0xa3,0x01, // 4512
0xab,0xfa,0x89,0xff,0x25,0xff,0x91,0x01, 0x89,0xf8,0xb9,0x02,0xfa,0x03,0xc0,0x01, // 4528
0x6a,0xfc,0xf0,0xf8,0x02,0x01,0xe1,0xf3, 0x93,0xfc,0xd8,0xff,0x62,0x00,0x0b,0xfc, // 4544
0x00,0x00,0x1f,0xf8,0x4e,0x02,0xdf,0xfd, 0x29,0xfa,0x32,0x01,0x96,0xff,0x0a,0x01, // 4560
0xc0,0xfe,0xae,0xfe,0xf7,0xfe,0x69,0xf8, 0x74,0x01,0x2e,0xfe,0xef,0x01,0xa7,0x03, // 4576
0xe5,0xfe,0x1a,0x01,0xa0,0xff,0x58,0x01, 0xa8,0x00,0xfd,0x00,0xc1,0x01,0xda,0xf7, // 4592
0x68,0x00,0x8b,0xfb,0x73,0xfe,0x76,0x01, 0x13,0x01,0x15,0xff,0x66,0xfe,0x6d,0xff, // 4608
0x25,0x00,0xd1,0x01,0x9a,0x02,0x4c,0xfb, 0x6d,0xfe,0x06,0x03,0xa6,0xff,0x3b,0x02, // 4624
0x01,0x06,0x1e,0x00,0x5f,0xff,0x00,0x05, 0x24,0x05,0xd0,0x05,0x3c,0xff,0xc8,0x02, // 4640
0x1e,0xfc,0xea,0xfe,0x3a,0xff,0xbd,0xfc, 0x79,0xff,0x5b,0x02,0xd5,0x02,0xae,0xff, // 4656
0xd7,0x00,0x4c,0x02,0xc5,0xfd,0x53,0x00, 0x16,0xff,0x4a,0x01,0xcb,0x00,0x46,0xff, // 4672
0xf1,0xfe,0xc4,0x00,0xd3,0xfe,0x04,0x06, 0x0f,0x02,0x6c,0x00,0xd3,0x01,0xff,0x00, // 4688
0xe1,0xfe,0x10,0xfd,0x3f,0xff,0x1f,0x01, 0xb5,0xfe,0x5b,0x08,0xca,0x06,0x40,0xfd, // 4704
0x9e,0xff,0x49,0x01,0x81,0xff,0xf2,0xfc, 0x94,0xfe,0xcd,0x00,0xa4,0xfe,0x48,0x02, // 4720
0xc3,0xf7,0x60,0xff,0x24,0x00,0xbb,0xfa, 0xb8,0xff,0x43,0x01,0xeb,0x01,0xd0,0xf4, // 4736
0x70,0xfe,0x68,0x05,0x63,0xfe,0xc6,0xf8, 0x12,0x01,0xd2,0x01,0x07,0x00,0x04,0x01, // 4752
0x0c,0xff,0x1b,0x02,0xcb,0xff,0x57,0x00, 0x66,0x00,0xd2,0xfe,0x0e,0xff,0x22,0xf8, // 4768
0x11,0x00,0x19,0xff,0x0d,0x01,0xce,0xfe, 0xf1,0x00,0x13,0xfc,0x29,0x03,0x17,0xfe, // 4784
0x49,0x02,0xca,0xfc,0x9e,0xff,0x2a,0x00, 0x6c,0x01,0xa4,0xff,0x7a,0x02,0x69,0xfe, // 4800
0xc4,0xfc,0x42,0x01,0xfb,0xf8,0xf0,0xff, 0x44,0xfd,0xc7,0xff,0x1e,0x01,0x6c,0xf9, // 4816
0x8e,0xf5,0x5e,0x02,0xea,0x00,0xac,0x02, 0x3b,0x01,0xd3,0x00,0x8d,0x01,0x39,0xfe, // 4832
0x35,0x0a,0x59,0x00,0xe8,0xff,0xef,0xfd, 0x6f,0xfb,0x48,0x00,0xf9,0x00,0x18,0xfd, // 4848
0x8d,0x00,0x62,0xfa,0xfd,0x00,0x65,0x00, 0x63,0x01,0x53,0x00,0xed,0xfe,0x5f,0xfd, // 4864
0xd9,0x00,0x83,0xff,0x06,0xff,0x2f,0x01, 0x09,0x00,0x9d,0x00,0x9b,0xfd,0xad,0x01, // 4880
0xee,0xf7,0xc8,0x00,0x15,0x01,0xd6,0x01, 0xd8,0xfd,0x82,0xf6,0xb2,0xfc,0x4d,0x00, // 4896
0x7f,0x00,0x5b,0x00,0xb2,0xfc,0x9d,0xfe, 0x5d,0x03,0x59,0x05,0xc8,0x01,0x26,0xfd, // 4912
0xea,0xfc,0x82,0xf3,0x34,0xf9,0xcd,0xfe, 0x1a,0x03,0xc0,0xff,0x24,0x01,0x54,0x04, // 4928
0x10,0x00,0x99,0x00,0xb1,0xfd,0x85,0xfb, 0x69,0xf5,0xe3,0xfa,0xb0,0x00,0xad,0x00, // 4944
0x63,0xfd,0x5c,0xff,0x55,0xfd,0x18,0xf9, 0x00,0x00,0xca,0x02,0xbb,0xff,0xe7,0xfc, // 4960
0x7f,0x00,0x27,0x02,0x94,0x02,0xab,0x01, 0x28,0xfd,0x38,0xf9,0xd7,0x06,0xc1,0xf9, // 4976
0xbf,0xfc,0x69,0xff,0xec,0xfc,0x6c,0xfd, 0x74,0xfa,0x72,0xfc,0x2d,0x02,0x2b,0xf0, // 4992
0x3e,0xfd,0xab,0x00,0xfa,0xfb,0xa9,0x02, 0x96,0x00,0xba,0xff,0x0b,0x00,0x14,0xfb, // 5008
0xa3,0x02,0x2d,0xf7,0xa3,0xff,0x7d,0xf5, 0x59,0x00,0x93,0xfa,0x57,0x00,0x0c,0x01, // 5024
0x57,0xfb,0x04,0xff,0xf5,0x01,0xd8,0xfe, 0x27,0xfe,0xaf,0xfc,0xc0,0x00,0x6a,0xf6, // 5040
0x79,0x01,0x63,0x00,0x9c,0x01,0x51,0x01, 0x72,0xff,0x42,0xff,0x71,0xff,0xb7,0xfe, // 5056
0xbc,0xff,0x9c,0xfd,0x49,0xfd,0xaf,0xec, 0xde,0xff,0xcb,0xff,0x34,0x01,0x11,0xfc, // 5072
0x0c,0x00,0xbb,0xfe,0xfc,0xfe,0x76,0x02, 0x59,0x00,0xff,0x04,0x19,0xff,0x2a,0xf9, // 5088
0xe2,0xff,0xbb,0xff,0xef,0xfd,0xff,0xfe, 0x88,0x00,0xe3,0xfb,0xab,0xfe,0xd8,0x01, // 5104
0xf9,0xfd,0xae,0x03,0xb6,0x05,0x8a,0xfd, 0x1d,0xfd,0xf4,0xff,0xd6,0x00,0xbf,0x03, // 5120
0x3b,0xff,0xe4,0x02,0x70,0xfc,0x1d,0xff, 0x7d,0xff,0x00,0xf8,0x49,0xfd,0xe4,0xff, // 5136
0x11,0xfd,0x3b,0xfd,0x9d,0xfe,0x7b,0xff, 0x9f,0xfb,0x8c,0x00,0xbf,0x00,0x3d,0xfe, // 5152
0xde,0xf7,0x43,0xfe,0xc6,0x02,0xfa,0xf8, 0x81,0xf9,0xfe,0x02,0xf9,0xf4,0x58,0x02, // 5168
0x98,0x00,0x95,0x02,0xd7,0xfd,0xd5,0xfe, 0x89,0x02,0xb1,0xff,0x96,0xff,0xea,0xff, // 5184
0x53,0xff,0xc0,0xfe,0xf3,0x02,0x78,0xfe, 0x6b,0xff,0x2f,0xfd,0x5d,0xe7,0xb3,0x04, // 5200
0xa0,0xf5,0x97,0x03,0xea,0xff,0x9c,0xfa, 0x14,0x01,0x8c,0x00,0x47,0xff,0x52,0x02, // 5216
0x63,0x00,0x14,0x01,0x71,0x00,0x59,0x00, 0xbd,0xfa,0x9b,0xfd,0x4e,0x00,0x1b,0xff, // 5232
0xa4,0x00,0x96,0x01,0x93,0xfc,0xc4,0x02, 0xfc,0xff,0xe7,0xff,0x13,0x00,0x6b,0xff, // 5248
0xff,0x06,0x45,0x01,0x06,0xff,0xf0,0xff, 0x26,0x00,0x50,0x06,0x86,0xff,0xa7,0x00, // 5264
0x28,0x01,0xe9,0x01,0xac,0x00,0x56,0x02, 0xe0,0xff,0x9d,0xf9,0xad,0x01,0xa6,0x00, // 5280
0x83,0x00,0x28,0x01,0xf5,0xff,0x5f,0xfe, 0x09,0xfe,0x9c,0xfb,0x71,0x00,0x83,0x00, // 5296
0x75,0xfe,0xa7,0xfb,0xef,0xfb,0x71,0xfb, 0x66,0x05,0x96,0xff,0x65,0x01,0x8b,0xf5, // 5312
0x60,0x00,0x78,0xff,0x01,0xff,0x95,0xfb, 0xd8,0xfe,0x3f,0xfe,0x73,0x01,0xc1,0x00, // 5328
0xe0,0xfd,0xf1,0xfc,0x7a,0xfb,0x54,0xff, 0xdf,0x00,0x47,0x01,0x4a,0xfe,0x3f,0x01, // 5344
0x2c,0x02,0x44,0xfe,0xa0,0x02,0x91,0x01, 0xf7,0xf4,0x95,0xf5,0xcb,0xfc,0xba,0xfe, // 5360
0x8d,0xf8,0xe1,0xfb,0x1d,0x02,0x84,0xff, 0x06,0xfd,0x1a,0x00,0xb4,0xfe,0xad,0x01, // 5376
0x0f,0xf6,0x66,0x01,0x19,0xfd,0x4b,0xfe, 0x26,0x00,0x10,0x02,0x69,0x00,0x73,0xfe, // 5392
0x27,0xfc,0xaa,0xfd,0x0e,0xf4,0x49,0xfd, 0x33,0xf3,0xf6,0xfc,0x70,0xfb,0xa8,0xff, // 5408
0x43,0x03,0xb2,0xfc,0xd8,0x00,0xe9,0xfc, 0x7b,0x02,0x21,0x01,0x73,0xfd,0x21,0x01, // 5424
0xb6,0x01,0x1e,0x01,0xba,0xfd,0x17,0xfd, 0x9d,0xf9,0xae,0xf5,0xd8,0xfe,0xe5,0x00, // 5440
0x42,0xf7,0x56,0xf9,0x62,0x00,0x30,0x01, 0x02,0x01,0xca,0x00,0x3f,0x00,0xb0,0x00, // 5456
0xbc,0x00,0x52,0x00,0xb8,0xfd,0x2e,0x02, 0x3f,0x00,0xc1,0x01,0x8d,0xfd,0x85,0xf9, // 5472
0x6d,0xfa,0x8d,0xfc,0x24,0xfd,0x9b,0x01, 0x1f,0x01,0x0d,0x01,0x0f,0x00,0x5d,0xfe, // 5488
0xda,0x04,0xd8,0xf8,0x00,0x01,0xb9,0xfd, 0x80,0x01,0xb1,0xfd,0x32,0x00,0xff,0xf9, // 5504
0xd5,0x01,0xf4,0xff,0x5b,0x02,0x44,0x02, 0x3f,0xfe,0x30,0x01,0x95,0xfd,0xd1,0x01, // 5520
0xcf,0x00,0x60,0x00,0x64,0xfd,0x0e,0x00, 0xa8,0xfd,0x8d,0x01,0x4c,0x00,0x32,0xfe, // 5536
0x12,0xfc,0x99,0xfd,0xe1,0x02,0x31,0xf8, 0x91,0xfe,0xc2,0xfe,0x04,0x01,0xdd,0x01, // 5552
0x41,0xfd,0x2e,0x01,0x77,0x01,0x95,0x00, 0x82,0x01,0x90,0xff,0x08,0x00,0xdb,0xff, // 5568
0x5e,0x01,0xc3,0x02,0xef,0xfd,0x0a,0x01, 0x34,0xfe,0x81,0xfd,0xf4,0xfe,0x73,0xfc, // 5584
0x4c,0xef,0x6e,0xff,0x1c,0xfb,0x9b,0xfc, 0x0d,0xfd,0xb2,0x00,0xfa,0x00,0xeb,0xfc, // 5600
0x05,0xfb,0xa4,0xff,0x44,0xff,0x83,0x01, 0xee,0xff,0xfe,0xfd,0x83,0xfd,0x40,0x03, // 5616
0x73,0x01,0x39,0xfc,0xbf,0xfc,0x66,0x00, 0xdc,0xf7,0xdd,0xff,0x98,0xfd,0xc0,0xf3, // 5632
0x41,0x00,0x86,0x00,0xb4,0xff,0x90,0xff, 0x0e,0x00,0x1a,0x04,0x44,0x01,0x8f,0x02, // 5648
0x22,0x00,0x92,0xff,0xfa,0x01,0x76,0x02, 0xb0,0x02,0x1a,0xfa,0x8f,0xfb,0xd7,0xff, // 5664
0xba,0xfb,0xdf,0xfe,0xf6,0xf7,0x26,0xfe, 0xe2,0xf2,0x1c,0x01,0x82,0xff,0xeb,0x02, // 5680
0xcc,0xf9,0x2f,0x05,0x1d,0xff,0xff,0xf7, 0x8e,0x00,0x03,0x00,0xa2,0xfc,0x52,0xff, // 5696
0x27,0xf7,0x3b,0xfd,0x49,0x01,0x82,0xfe, 0x34,0xf3,0xb7,0x01,0x2c,0x02,0x4c,0xff, // 5712
0xe3,0xff,0x39,0xff,0xae,0xfe,0x1a,0x00, 0x96,0xff,0xe8,0xff,0xc0,0x01,0x65,0x00, // 5728
0xec,0xff,0xc5,0x00,0xf4,0x00,0x6d,0x00, 0x0d,0x00,0x58,0xff,0xcb,0x02,0xad,0xf8, // 5744
0xf8,0xff,0x1e,0xf2,0x3d,0x01,0xbe,0x00, 0x05,0x00,0xe4,0xf2,0xfc,0xfd,0x47,0x00, // 5760
0x1a,0x01,0x3b,0x00,0xb1,0xff,0xed,0xfb, 0x1e,0xf2,0x32,0x00,0xff,0xff,0x79,0xff, // 5776
0xce,0xfc,0x9e,0xf7,0x69,0xff,0xe7,0xfb, 0x2b,0xfe,0xbe,0x00,0x58,0xfd,0x51,0x05, // 5792
0x88,0xfe,0xf6,0xff,0x3d,0xff,0x69,0x02, 0xeb,0xff,0x5d,0xfd,0x2c,0x01,0x39,0xff, // 5808
0x73,0xff,0x7a,0x02,0x5f,0x05,0x4d,0xfd, 0x20,0x00,0xd7,0xfb,0x34,0xfe,0x50,0x00, // 5824
0x36,0xfe,0x1d,0xff,0xcd,0xfb,0x29,0x01, 0x23,0x00,0xa9,0xfd,0x83,0xfe,0x9e,0xfe, // 5840
0xd7,0xf9,0x41,0x00,0xf1,0x00,0x4e,0xfe, 0xae,0xff,0x89,0xf8,0xf4,0x04,0xeb,0xf5, // 5856
0x48,0x00,0x6f,0xfd,0x5b,0x00,0x3e,0xff, 0x60,0xfe,0x96,0x01,0xdd,0x02,0x20,0xfe, // 5872
0xa3,0xfe,0xc2,0xfe,0x4d,0xfd,0xa8,0x08, 0xe5,0xff,0xa8,0xff,0x1c,0xfd,0x3c,0x0c, // 5888
0x2a,0xf8,0x95,0x08,0xcb,0x02,0x17,0xfb, 0x28,0x00,0xad,0xf9,0xc7,0x02,0xa1,0xf5, // 5904
0xde,0x02,0x2d,0x02,0x55,0x03,0x71,0x00, 0x2e,0xfc,0x28,0xfe,0xb0,0xfd,0x44,0x00, // 5920
0x9e,0xfc,0x8c,0xfd,0x75,0x00,0x9c,0xfd, 0xca,0xff,0xdb,0x0b,0x14,0xff,0xa2,0x02, // 5936
0x2b,0x05,0xa6,0xfc,0x7e,0xfe,0xff,0x00, 0x62,0xfd,0x1c,0xfb,0x0d,0xff,0x2d,0xfb, // 5952
0x06,0xfe,0x09,0xfd,0xec,0x01,0xdc,0x02, 0xc9,0xfb,0x6f,0xff,0x58,0xff,0x5f,0xfe, // 5968
0x33,0xfd,0x39,0xfb,0xda,0xf4,0x0e,0xf6, 0x56,0xf5,0x32,0xfb,0xb2,0x00,0xd6,0x01, // 5984
0x72,0x02,0xee,0x02,0x97,0xfe,0x8e,0x04, 0x9b,0x02,0x37,0x01,0xa0,0xf7,0xf7,0xf8, // 6000
0x49,0xfe,0xd1,0xfe,0xfd,0xfc,0xcc,0x01, 0xba,0xf8,0x27,0x01,0x96,0x00,0x65,0x02, // 6016
0xfb,0xeb,0xc4,0xfe,0xfe,0x03,0xea,0xf8, 0x3e,0xff,0x0c,0xff,0x17,0x02,0x3f,0xfb, // 6032
0xce,0xfd,0x0c,0x01,0x24,0x00,0x46,0x02, 0xa9,0x02,0x60,0xfe,0x4e,0xfb,0x76,0x02, // 6048
0x78,0xf8,0x3e,0xfe,0xe1,0x01,0x34,0x01, 0x05,0x01,0x64,0xfe,0x67,0xfa,0xb7,0x00, // 6064
0x54,0x04,0x96,0xf7,0xb0,0x01,0x73,0xfe, 0x7e,0xf6,0x14,0x00,0xe2,0xfe,0x29,0x00, // 6080
0x4f,0x00,0x94,0xfe,0xe3,0xff,0x83,0x03, 0xd5,0x01,0x9e,0xfe,0x3d,0xff,0x4b,0x00, // 6096
0x60,0x00,0x5a,0x02,0x75,0xfe,0x18,0x00, 0x27,0x03,0xf4,0xfc,0x9d,0x01,0x46,0xf9, // 6112
0x40,0xf8,0xc5,0xfe,0x1f,0xff,0xe8,0x05, 0xcb,0xfe,0x8b,0x08,0xdc,0xfc,0x4b,0xfe, // 6128
0x0b,0xfd,0x69,0x02,0x79,0xfd,0x52,0x00, 0xeb,0xfd,0x35,0x01,0xfa,0xfd,0x6e,0xfe, // 6144
0x99,0xfe,0x43,0xff,0x7f,0xff,0x0b,0x03, 0xef,0xfd,0xb2,0x03,0x75,0xfb,0x37,0xfe, // 6160
0x4b,0xfe,0x4e,0x00,0xbf,0xfa,0x06,0xff, 0x64,0xfc,0x69,0x00,0xe0,0x00,0xe0,0x00, // 6176
0x2b,0x03,0x45,0xfd,0x24,0x02,0xe3,0xff, 0xb9,0xfa,0x6e,0xff,0xfb,0xf3,0x22,0xfe, // 6192
0x85,0xfd,0x92,0xfc,0x6a,0xf9,0x76,0x00, 0x3a,0xfe,0x58,0xfe,0xe4,0xff,0x2f,0xfd, // 6208
0x03,0x0b,0x31,0xff,0xd6,0xfe,0x1f,0xff, 0x9b,0xe0,0x77,0x10,0x31,0xff,0xe2,0x0d, // 6224
0x5a,0x00,0x73,0xff,0x26,0x09,0x93,0x00, 0x81,0xfe,0xec,0x00,0x95,0x04,0x0b,0xff, // 6240
0x27,0xf7,0x7f,0xff,0x82,0xff,0x4d,0x02, 0x07,0x00,0x7d,0xff,0x3f,0x0a,0x35,0xfd, // 6256
0x3e,0xf7,0xef,0x00,0x4c,0x01,0x79,0xff, 0x16,0x06,0x58,0x00,0xd2,0xfe,0xd9,0x01, // 6272
0x14,0xff,0x51,0xfc,0x00,0xff,0xe7,0xfa, 0x4a,0x00,0x85,0x02,0x56,0xff,0xd0,0xfc, // 6288
0x7b,0x02,0x30,0x00,0x72,0x02,0x04,0x01, 0x29,0xfd,0x57,0xfd,0x70,0x00,0x97,0xf7, // 6304
0x2b,0x00,0x98,0x01,0x01,0x00,0x43,0x00, 0x31,0xfb,0x1b,0xf5,0x13,0xfe,0x4d,0xfd, // 6320
0x38,0xff,0x5c,0xff,0xb6,0xfd,0xa3,0x00, 0x81,0x03,0xbf,0xff,0x09,0xff,0x6d,0x00, // 6336
0xfd,0xff,0x89,0xff,0xa2,0xfb,0xf5,0xf7, 0x25,0x00,0x07,0x01,0x83,0x01,0x19,0xfb, // 6352
0x97,0x00,0x1f,0xfd,0xe0,0x00,0x28,0xfc, 0x8b,0x02,0x30,0xfe,0x4a,0xfc,0x0a,0x02, // 6368
0x8c,0x0a,0x8e,0xf4,0x75,0x02,0xb2,0x00, 0x08,0x03,0x4f,0xfc,0xc0,0x02,0x95,0x0a, // 6384
0xa2,0xfd,0x6f,0x02,0xcb,0x02,0x1a,0x00, 0xb9,0x00,0x7b,0xff,0xdd,0xff,0xd6,0x00, // 6400
0xa2,0xfc,0xf4,0xfa,0x5e,0xfe,0xf0,0xf2, 0xd8,0x00,0xd2,0x05,0x1d,0x01,0x23,0x04, // 6416
0x31,0x00,0xb8,0x02,0xc4,0xff,0xd4,0x00, 0xf0,0x00,0xcb,0x00,0x98,0x03,0x94,0xff, // 6432
0x8d,0x00,0x90,0xf0,0x11,0x00,0xb6,0x01, 0xf4,0xff,0x82,0x04,0x04,0xff,0xb7,0xfe, // 6448
0x2a,0x02,0xb6,0x06,0xde,0xfb,0xdf,0xfe, 0xea,0x09,0x7e,0xf9,0x3d,0x01,0xff,0xfb, // 6464
0x9d,0xff,0x51,0xfe,0x61,0xfe,0x59,0xff, 0x9b,0xff,0xce,0xfa,0xa7,0xfd,0x48,0xff, // 6480
0xcb,0x00,0x45,0x00,0xaa,0xfa,0xde,0x00, 0x7f,0xff,0xd3,0xfe,0x86,0x02,0x32,0x04, // 6496
0x50,0x01,0x6f,0xff,0x31,0xfd,0xd7,0xfd, 0x58,0xfe,0x69,0x01,0xdd,0xfe,0x81,0x03, // 6512
0x6e,0x02,0xf2,0x00,0xbe,0xfe,0xae,0xff, 0x70,0xfe,0xd4,0xff,0x6d,0x02,0xc6,0xff, // 6528
0xd9,0xfe,0x23,0x01,0x95,0x04,0x13,0x03, 0x17,0x00,0xbd,0xfb,0x43,0xf7,0x2d,0x04, // 6544
0xb8,0xf6,0x30,0xf9,0x24,0x00,0xcc,0xf5, 0x88,0xff,0x31,0x03,0x85,0xff,0x3f,0x00, // 6560
0xdb,0xfd,0xe6,0xfc,0x26,0x00,0x90,0xfe, 0x3f,0xec,0xc2,0xfa,0xc1,0x01,0x2b,0xff, // 6576
0x6d,0x00,0x83,0xf8,0x97,0xfe,0x1c,0xfe, 0xde,0xff,0x8c,0x00,0xfe,0xfd,0x8b,0x01, // 6592
0xe4,0xfa,0xdb,0xfe,0xa0,0xfe,0x50,0xff, 0x16,0xff,0x31,0xf5,0x30,0x00,0x2b,0xfd, // 6608
0xc8,0xff,0xf1,0xff,0xcf,0xfc,0x24,0xfe, 0xb1,0xff,0x85,0xfb,0xdd,0xfe,0xd7,0xff, // 6624
0xee,0x01,0x32,0xf7,0xb4,0x00,0x99,0x02, 0x5f,0x00,0x86,0xf9,0xc6,0x01,0x7b,0xff, // 6640
0x71,0x00,0x47,0xf4,0x96,0x01,0xc1,0xff, 0xf5,0xf6,0x36,0x03,0x5d,0x01,0x8e,0xfe, // 6656
0x1d,0xff,0xa4,0xff,0xae,0xff,0x1a,0x02, 0xb1,0x03,0xa5,0xff,0xad,0xfe,0xb8,0xfd, // 6672
0x08,0xff,0xee,0x01,0x05,0x00,0x4e,0xfd, 0x95,0x01,0xf9,0x00,0xd7,0xff,0x79,0x01, // 6688
0x18,0xf9,0xf1,0xfc,0xce,0x01,0x9b,0x00, 0xff,0xf9,0x28,0xff,0xf9,0xfb,0x37,0xfe, // 6704
0x83,0xf8,0xef,0x01,0xf3,0x00,0xae,0xff, 0x8c,0xff,0xdd,0xff,0xe0,0x01,0xbc,0xfe, // 6720
0x0f,0xff,0x4b,0x01,0x51,0x00,0xe6,0xfd, 0x7f,0xff,0x7e,0x00,0xe6,0x00,0x4f,0xff, // 6736
0x6f,0xf5,0x44,0x02,0xec,0xff,0xa4,0x00, 0x48,0xff,0x7d,0xfc,0x4d,0x01,0x12,0x0b, // 6752
0xd6,0x00,0xf2,0xff,0xb9,0xfd,0x5e,0xfe, 0xab,0xfe,0xec,0xfb,0x36,0x00,0xd0,0xfd, // 6768
0xc2,0xff,0x17,0x02,0xab,0x03,0xb6,0x02, 0x11,0x00,0xd5,0x00,0x14,0x00,0x33,0x00, // 6784
0xf5,0xfa,0xd8,0xf9,0xe2,0xfa,0xfb,0xfc, 0xb6,0x00,0xed,0x02,0x01,0x01,0x6e,0x02, // 6800
0x24,0x00,0xfa,0xfd,0x20,0x01,0x2e,0x02, 0x89,0xff,0x78,0x01,0x87,0x03,0x1c,0x01, // 6816
0x16,0x00,0x81,0xff,0xe0,0x07,0xa8,0x01, 0x04,0x00,0xf6,0xfa,0xc2,0x00,0x68,0x00, // 6832
0x5f,0x04,0x75,0xfe,0xf4,0xff,0x61,0x08, 0x0e,0x08,0xc4,0xfe,0x7d,0xff,0x86,0xfe, // 6848
0x45,0x00,0x22,0x02,0x17,0x01,0x88,0xfc, 0x62,0x00,0x34,0x00,0x1a,0x02,0x6d,0x00, // 6864
0x04,0xff,0x01,0x03,0x2c,0xfc,0x09,0x00, 0x9f,0xff,0xf6,0xfd,0xe5,0xff,0x47,0x03, // 6880
0x46,0x00,0x5d,0x00,0x53,0xff,0xeb,0x01, 0x76,0xfe,0x4b,0x09,0x2b,0x00,0x57,0x0a, // 6896
0x6e,0x04,0xae,0xfe,0xdd,0xfe,0x17,0xfb, 0xdb,0xfd,0x2b,0x00,0x86,0xfe,0xeb,0xff, // 6912
0xeb,0xfb,0xd1,0x00,0xcd,0xfe,0x19,0xff, 0x42,0x00,0xd5,0xfc,0x35,0xff,0xcc,0x00, // 6928
0x19,0x01,0x31,0xfe,0xaa,0xff,0x63,0xff, 0x05,0x01,0xc0,0xfd,0x58,0x02,0xc5,0xfc, // 6944
0xe2,0x04,0xb6,0xf1,0xe2,0xfd,0x63,0x02, 0x94,0xfe,0x30,0xfa,0x8e,0xfd,0x95,0xfa, // 6960
0x3b,0x01,0xe2,0xfb,0x42,0x03,0xee,0xfd, 0xa4,0xff,0x21,0x00,0x6f,0xff,0x6a,0x00, // 6976
0xaa,0xfd,0x4d,0xf2,0x8d,0xf5,0xe3,0x02, 0xb4,0xfe,0xf9,0xfb,0x14,0x01,0x28,0x09, // 6992
0x69,0xff,0xfe,0xff,0x4c,0xfe,0xe2,0xfe, 0x7a,0x00,0x6a,0xfe,0x33,0xff,0x6e,0x03, // 7008
0x58,0x02,0x58,0xf0,0xf9,0xff,0x57,0x00, 0xcd,0xff,0xa4,0xfd,0x61,0x00,0x58,0x02, // 7024
0x2a,0x02,0xe0,0xfd,0x85,0x00,0x9d,0x04, 0x51,0x09,0x77,0x00,0x05,0x01,0xd1,0x02, // 7040
0xc7,0xfe,0xd9,0x08,0x08,0x00,0x2b,0xfc, 0x29,0x00,0x6e,0x02,0x6a,0x01,0x91,0xf8, // 7056
0xda,0xff,0x1f,0x02,0x02,0x02,0xf4,0xfa, 0x82,0xff,0xf8,0xfe,0x24,0x00,0xc9,0xf3, // 7072
0x36,0xff,0x5c,0xfd,0x14,0xfd,0xf7,0x02, 0x88,0x00,0x8a,0x04,0x11,0x02,0x98,0x06, // 7088
0x7f,0xfe,0x63,0x00,0x31,0xfd,0xc1,0xff, 0x96,0x00,0x3e,0xfc,0x02,0xfe,0xbe,0xfe, // 7104
0x2b,0x00,0xaf,0xfe,0x92,0xf6,0xbd,0xfb, 0x50,0xff,0xe8,0xff,0xe6,0xff,0xa5,0xfc, // 7120
0xf6,0xff,0x15,0x03,0x7d,0x00,0xc6,0xf9, 0xe3,0x01,0x9e,0x06,0x37,0xfe,0x3e,0x09, // 7136
0x47,0xfc,0x03,0xfc,0xc9,0x01,0x27,0xfe, 0x67,0x00,0x51,0xff,0xcf,0x01,0x06,0x08, // 7152
0x89,0xfd,0xad,0xff,0xd3,0xfb,0x97,0x02, 0xdf,0x00,0x14,0x00,0x00,0xff,0x1c,0x02, // 7168
0xed,0x01,0xd7,0x01,0x8e,0xff,0xfb,0xf1, 0x6e,0x00,0xa7,0xf3,0xbd,0xfe,0xd7,0xf1, // 7184
0xee,0x00,0x50,0x02,0x2a,0x00,0x51,0xff, 0x67,0x02,0x3e,0xfb,0xf9,0xff,0xde,0x00, // 7200
0xcd,0x07,0x38,0xfc,0xf2,0xfe,0x8c,0xff, 0xde,0xff,0x30,0x04,0x0d,0x00,0x54,0xfd, // 7216
0xab,0x07,0xb4,0x09,0x33,0xfe,0x07,0xff, 0x57,0xfe,0xd0,0x02,0xae,0xff,0x67,0x09, // 7232
0xe8,0xff,0x55,0xfc,0xb7,0x01,0xf9,0xff, 0x7f,0xfe,0x1e,0x00,0xb3,0xfd,0x1e,0x00, // 7248
0x4b,0x02,0xbc,0x01,0xa6,0xfb,0x81,0x03, 0x62,0x02,0x8e,0x00,0x80,0xf6,0xb5,0x00, // 7264
0xd2,0xfc,0x08,0x01,0x2d,0x02,0x4f,0x00, 0xf2,0xfd,0x90,0x06,0x2a,0xf1,0x79,0x01, // 7280
0x50,0xff,0x9c,0x01,0xd4,0x01,0x4d,0x02, 0xeb,0x02,0x6c,0xff,0x14,0xff,0xfb,0xff, // 7296
0xc1,0x03,0xa9,0xff,0x3f,0xfc,0x2e,0x00, 0x06,0x00,0x1f,0x03,0x28,0xff,0xe8,0xff, // 7312
0x0b,0x03,0xfb,0xfd,0x0d,0x00,0xd3,0x01, 0x59,0x00,0xf6,0xf5,0x89,0xef,0x80,0xf5, // 7328
0x92,0xfb,0x82,0x00,0xb1,0x00,0x74,0x02, 0xf4,0x00,0x36,0x00,0x0b,0x01,0x6f,0xf6, // 7344
0xde,0xff,0xf5,0xfe,0x4a,0xfb,0x63,0xfd, 0x62,0x00,0x13,0x00,0x9b,0xf3,0x33,0x00, // 7360
0x2c,0xfa,0xb0,0xfd,0x5c,0xfa,0xdf,0xfb, 0xd4,0xff,0xba,0xfb,0x49,0x00,0x5d,0xf7, // 7376
0xc2,0x00,0x2a,0xfe,0x59,0x00,0x8c,0x01, 0x01,0xfd,0x58,0xfb,0x63,0xfe,0xba,0x00, // 7392
0x4d,0x00,0xbb,0xfe,0x40,0x00,0x5f,0xff, 0x12,0xf9,0xb0,0xfd,0xeb,0x00,0x72,0x02, // 7408
0xe8,0xfe,0x3c,0xff,0x87,0x00,0xf1,0xfd, 0x00,0xf5,0xfd,0xfd,0x09,0xff,0x34,0x03, // 7424
0x92,0xff,0x85,0xf6,0xd1,0x02,0x71,0xfe, 0x62,0xf8,0xd1,0x00,0x13,0x02,0x62,0xfe, // 7440
0xef,0x04,0x64,0xfd,0xb5,0xff,0x10,0xf8, 0x32,0x00,0x20,0x01,0x63,0xf0,0x8e,0x00, // 7456
0x87,0xfe,0x2f,0xfd,0xef,0xff,0xd8,0x00, 0xa6,0x01,0x25,0x09,0x0d,0x00,0x59,0xff, // 7472
0xdf,0xf5,0xb0,0xfb,0x67,0x00,0x0a,0x02, 0x97,0x01,0xe1,0xfe,0xb6,0x01,0x54,0x00, // 7488
0xe3,0xfa,0xe7,0xff,0xa1,0x00,0xf5,0x00, 0x8e,0x00,0xa6,0xfd,0x9d,0x00,0x1b,0x05, // 7504
0x7a,0x02,0x9e,0x00,0xcd,0xff,0xa7,0xff, 0xff,0xfe,0xbb,0xff,0x37,0x01,0x3d,0xfd, // 7520
0x3a,0xff,0x29,0x00,0xa8,0x01,0x65,0x01, 0xa8,0x00,0x40,0xf5,0x88,0x00,0x6f,0xfc, // 7536
0x9e,0x02,0x8c,0xfb,0x13,0xff,0x35,0x02, 0xa3,0xff,0x4d,0x01,0x3e,0xfe,0xc7,0xfe, // 7552
0x61,0x0a,0x99,0x00,0xb4,0xf2,0x78,0x00, 0x76,0x00,0xe5,0x03,0x75,0x01,0xd7,0x01, // 7568
0x58,0xf4,0x3e,0xff,0x82,0x00,0xe3,0xfd, 0xb3,0x01,0x7f,0x02,0x7a,0xfe,0xaa,0x02, // 7584
0x9f,0xff,0x7d,0xff,0xaf,0xff,0xa3,0x02, 0x95,0xf5,0xf7,0x07,0xcc,0xfd,0x64,0xfd, // 7600
0x36,0xf7,0x4b,0x05,0xba,0xf9,0x30,0xfe, 0x97,0xfb,0x96,0x00,0xb3,0x01,0x7b,0xf7, // 7616
0x02,0xff,0x97,0xfd,0xe7,0xfc,0x75,0x00, 0xa4,0xfb,0xee,0xf7,0x86,0x01,0xe1,0x02, // 7632
0x25,0xfa,0x81,0x02,0x46,0x03,0x49,0xf4, 0x01,0x03,0x65,0x02,0x66,0x00,0x1d,0xff, // 7648
0x09,0xff,0x00,0x00,0x57,0x00,0xd1,0x01, 0xd3,0xfd,0xa4,0xff,0xb0,0x04,0xed,0xfb, // 7664
0x08,0xff,0x70,0xf8,0x82,0xfd,0x30,0xf8, 0xf6,0xfb,0xe2,0xfc,0x16,0xff,0xeb,0xf3, // 7680
0x33,0xfa,0x50,0xff,0xc3,0xfa,0xd1,0xfb, 0x12,0xfd,0x58,0x03,0x5a,0x00,0x7b,0xfb, // 7696
0x27,0xff,0xfe,0xfe,0xe4,0xff,0xe6,0x02, 0x39,0xfc,0x7d,0xfe,0x3f,0xfc,0x68,0x03, // 7712
0xf8,0xfa,0x7f,0xf9,0xe7,0xff,0x44,0xfd, 0x34,0x00,0xad,0x00,0x7e,0x00,0x58,0x08, // 7728
0x24,0xfd,0xcb,0xff,0x68,0x05,0x00,0x01, 0x0a,0x00,0x0d,0xf0,0xb9,0xff,0xb8,0xff, // 7744
0xdd,0xfb,0x64,0xfc,0xdd,0xfa,0x70,0xfe, 0x1b,0x01,0x2c,0x01,0x20,0x02,0xeb,0xfd, // 7760
0x0e,0x00,0x08,0x02,0xba,0x02,0x29,0x02, 0x9a,0x00,0x25,0x02,0x0f,0x01,0x76,0xf8, // 7776
0x0e,0x00,0x82,0xf9,0xd2,0xff,0x17,0xfd, 0x1a,0xfd,0x74,0xfa,0x94,0x02,0x24,0x02, // 7792
0xab,0xf7,0x25,0x01,0x49,0xff,0xdc,0x04, 0x36,0x02,0xb6,0xf0,0xec,0xf7,0xfb,0x01, // 7808
0x7f,0xfe,0xfb,0x04,0x39,0xfc,0xe1,0xfd, 0x9b,0xff,0x97,0xfb,0xf3,0xfd,0x5f,0xf5, // 7824
0xe6,0x00,0xec,0x00,0x8e,0xfe,0x22,0xff, 0x97,0xf5,0xe4,0x01,0x92,0xf7,0x53,0xfe, // 7840
0x52,0xff,0x18,0x03,0xc1,0xfe,0x3f,0xf9, 0x6f,0x00,0x82,0xfa,0x46,0xff,0x0e,0x01, // 7856
0xb6,0x02,0xf9,0xfb,0x0b,0x01,0xe7,0xfd, 0x92,0xff,0x8c,0xff,0xf0,0x00,0xa5,0x00, // 7872
0x3f,0xfe,0xee,0xfc,0x67,0x04,0xd3,0x00, 0x6a,0xff,0x1d,0xf9,0xc2,0xfe,0x52,0xff, // 7888
0x6b,0xfe,0x40,0xf3,0x32,0x00,0xfb,0xfc, 0x3c,0x00,0xd0,0xf9,0x59,0x01,0xb7,0xf8, // 7904
0x77,0xfa,0x2a,0xfa,0xb7,0x00,0x0a,0xfd, 0x5b,0xff,0x3d,0xfe,0xa2,0x00,0xb0,0x03, // 7920
0xce,0x02,0x60,0xfe,0x3d,0x04,0xf8,0x00, 0x3b,0x00,0xc6,0xfd,0x8c,0x00,0x2a,0x00, // 7936
0x95,0xf9,0xce,0xfb,0x16,0xfc,0xcb,0x00, 0x30,0x00,0x19,0xfb,0x13,0xff,0x0b,0x01, // 7952
0xf0,0x00,0xcc,0x02,0xe4,0xff,0x6f,0x01, 0x99,0xfe,0x22,0x01,0x01,0xff,0x0e,0xfa, // 7968
0x36,0x00,0x8b,0xf2,0xd7,0xff,0xf6,0x02, 0xf9,0xfa,0x6e,0xf9,0xa4,0x00,0x73,0xff, // 7984
0xf1,0xff,0x82,0xfc,0x2c,0xff,0x99,0x05, 0x62,0xff,0x8c,0xfc,0x90,0x01,0x8c,0xfc, // 8000
0x26,0x00,0xcd,0x04,0x9f,0xff,0x4c,0xfc, 0x96,0x01,0x71,0x00,0x2f,0x00,0x94,0xfa, // 8016
0x0d,0xfc,0x0c,0xff,0xb2,0xf9,0x56,0x00, 0xb1,0xfa,0xd5,0xfd,0x9f,0xfb,0xfa,0xff, // 8032
0x34,0xf7,0xda,0x02,0xb5,0x01,0x87,0xfa, 0xbb,0xf8,0xe6,0xfb,0xa1,0xff,0x11,0x04, // 8048
0xc8,0xff,0x6b,0xf9,0x01,0xfe,0x71,0xfc, 0x84,0x00,0xe9,0x00,0xd7,0x00,0x6b,0x01, // 8064
0xe5,0x01,0x2e,0x02,0x40,0xfc,0xc2,0x00, 0xf6,0x00,0x6b,0xf5,0xee,0xff,0x8d,0xfd, // 8080
0xdf,0x01,0x48,0x01,0xf3,0xf6,0xdc,0xfe, 0x1c,0xfd,0xbe,0xff,0x9b,0x00,0xc9,0xfe, // 8096
0x99,0xfd,0xc7,0xff,0x0b,0xff,0x6f,0xfc, 0x28,0x00,0x88,0xf4,0x6d,0x01,0x51,0x03, // 8112
0x74,0x01,0x97,0xfb,0x69,0xfc,0xdb,0x02, 0x12,0xf6,0xf2,0xff,0xc7,0xfd,0xc1,0xf6, // 8128
0xc3,0xfd,0x73,0x00,0x5a,0xee,0xd5,0xff, 0x0e,0xfc,0xe2,0xff,0x2a,0xfd,0x7d,0xff, // 8144
0x29,0x01,0x72,0xff,0x5d,0x01,0xee,0xfc, 0x16,0x03,0x58,0x07,0xfa,0xfd,0xd9,0xff, // 8160
0xed,0xfe,0xe7,0xff,0x1c,0x00,0xfd,0x00, 0x12,0xfd,0x41,0xff,0xd4,0xff,0x59,0x00, // 8176
0x87,0xfd,0x29,0x03,0x53,0x02,0x3d,0xf9, 0x1e,0xff,0x4c,0x01,0xca,0x01,0x5b,0xf6, // 8192
0x3c,0xf2,0x74,0xfe,0xa1,0x00,0xd6,0x01, 0x19,0xfd,0xb6,0x00,0x69,0x01,0x9a,0xff, // 8208
0xab,0xfc,0x13,0x01,0x88,0xfe,0x06,0xf7, 0x6a,0xff,0xb9,0x02,0x6c,0x00,0x88,0xfc, // 8224
0x16,0xfe,0x6c,0x01,0x93,0x00,0xa1,0xff, 0x9b,0xff,0x7b,0xfe,0x5a,0x00,0xc5,0xf8, // 8240
0x5d,0x00,0x0c,0xfd,0x46,0x02,0x44,0xff, 0x4e,0x00,0x12,0xf3,0xd0,0x02,0x66,0xff, // 8256
0x90,0x00,0x29,0x00,0xa6,0xfd,0xab,0xf9, 0xd3,0xef,0xfd,0xff,0xe9,0xff,0xcc,0xfa, // 8272
0x6e,0xfe,0xcd,0x01,0x30,0x00,0x91,0x05, 0x06,0x07,0xee,0xfd,0x48,0xff,0x2e,0xfb, // 8288
0x6d,0xfe,0xca,0xfe,0x6d,0x01,0x9f,0xff, 0x8a,0xff,0x4e,0x01,0x87,0x00,0xbf,0xfb, // 8304
0x0a,0xfd,0x0d,0xfc,0x53,0x01,0x7c,0x02, 0x34,0x00,0x51,0x00,0x1c,0x00,0x3a,0x00, // 8320
0xe6,0x03,0x82,0x05,0x3c,0x02,0x3d,0xff, 0x3e,0x00,0x61,0xfe,0xfe,0xfe,0x61,0x00, // 8336
0xac,0x00,0x13,0x01,0xc9,0xfe,0xd4,0xff, 0xc2,0x01,0x8a,0xff,0x56,0x04,0xc8,0x01, // 8352
0x53,0x00,0x9e,0x04,0x2d,0x00,0x02,0xfe, 0xa5,0xfd,0xbc,0xfb,0xc1,0xfe,0x44,0xfe, // 8368
0x46,0xfe,0xdf,0xff,0xb4,0xfc,0x08,0xfd, 0xec,0xfa,0x00,0xfe,0x07,0xff,0xd4,0xf3, // 8384
0x03,0x00,0x12,0xfd,0x53,0xf5,0x42,0xff, 0xf0,0xfb,0xc4,0xfb,0x60,0x00,0x57,0x01, // 8400
0x79,0xff,0x5f,0x01,0x06,0xff,0xfb,0xfe, 0x78,0x01,0x72,0xff,0x58,0xfb,0xbe,0xff, // 8416
0x69,0xff,0xbc,0xff,0x9f,0xfe,0xe8,0x02, 0x1f,0xf9,0x5d,0xf5,0x89,0x06,0x29,0xfc, // 8432
0x83,0x01,0x27,0xfc,0x86,0xfd,0x2f,0x00, 0x73,0xf9,0x77,0xff,0x09,0xfe,0xe7,0xfe, // 8448
0x1b,0xfe,0x2f,0xfe,0xda,0xf9,0x87,0xff, 0x61,0x01,0xdd,0x01,0x36,0xfe,0x37,0xff, // 8464
0x0b,0x00,0x85,0xf9,0xf3,0xfe,0x9c,0xf4, 0x1e,0x03,0xff,0xfe,0x78,0x01,0x66,0x00, // 8480
0xba,0xfc,0xd0,0x00,0xc7,0x00,0x48,0xfd, 0x61,0xfa,0x35,0x01,0x3e,0xfc,0xc8,0x02, // 8496
0x64,0xff,0x7f,0xfb,0xa9,0x00,0xef,0x02, 0xac,0xfc,0xd3,0xff,0x01,0x00,0x48,0xfe, // 8512
0x7b,0xfd,0xb7,0xff,0x8f,0x02,0x9b,0xff, 0xc3,0xfe,0x07,0xf6,0x23,0xfd,0x51,0xfc, // 8528
0x72,0xfe,0xe4,0xfd,0xbc,0xfe,0xad,0xfd, 0x5b,0x01,0x4f,0xfd,0xa9,0xff,0x59,0x01, // 8544
0xc9,0xfb,0x0a,0x03,0x7d,0xf6,0x89,0xfd, 0x32,0x00,0x69,0xfe,0x0a,0x00,0x14,0x03, // 8560
0xec,0xfc,0xa8,0xfd,0xb2,0x00,0x19,0x05, 0xc3,0x00,0x91,0x00,0x4b,0x00,0x4b,0xfe, // 8576
0x01,0x00,0x8e,0x01,0x9c,0x02,0xaa,0xf9, 0xaf,0x00,0x37,0x04,0x42,0xfd,0x11,0x01, // 8592
0xb1,0xfc,0x64,0xfe,0x73,0x00,0x3d,0x07, 0xbe,0x00,0x84,0xfd,0x5d,0x05,0x2a,0xfe, // 8608
0xbb,0xfc,0x54,0xff,0xb6,0xff,0x1b,0x01, 0x87,0x01,0xad,0x00,0xac,0xfd,0x88,0x03, // 8624
0x64,0x02,0x82,0xff,0xe8,0xfc,0x2a,0xfd, 0x4b,0xfc,0x10,0x00,0x3c,0x02,0x69,0xff, // 8640
0x73,0xfd,0xa4,0x02,0x81,0xfd,0x72,0xfb, 0x17,0xff,0x6e,0x03,0xc4,0xfe,0x8d,0x02, // 8656
0x06,0xf5,0xd9,0xff,0x11,0xfc,0xdc,0xff, 0xcb,0xfa,0xe9,0xff,0x92,0x01,0x7c,0xff, // 8672
0x9e,0xfb,0x0b,0x00,0x70,0xff,0x81,0xff, 0xad,0xff,0x41,0xf9,0x5b,0xf8,0xce,0x03, // 8688
0x60,0x01,0xfc,0xfa,0xd9,0xf9,0xcd,0x02, 0x66,0xf7,0xbc,0xff,0xfc,0xfd,0xd2,0xf5, // 8704
0x09,0x05,0x0a,0x00,0x55,0xfb,0xaf,0x02, 0x5b,0xf6,0x4a,0xff,0x32,0x01,0x60,0xfe, // 8720
0x5e,0x00,0x88,0xfd,0x5d,0xff,0x7e,0x00, 0x52,0x02,0x2d,0xfd,0x6a,0xf9,0x8d,0xfe, // 8736
0x65,0xf7,0x5c,0xff,0x9a,0xf9,0x41,0xff, 0x0b,0xff,0x41,0xff,0xc4,0x00,0x47,0x00, // 8752
0xcb,0xf7,0xf8,0x05,0x2b,0x00,0xac,0xfa, 0x76,0x05,0x11,0x00,0x59,0xfa,0xf7,0xfd, // 8768
0xf6,0xf6,0xbb,0xfc,0x25,0x00,0x3a,0xff, 0x4a,0xff,0xce,0x00,0xf9,0x02,0xd3,0xfb, // 8784
0xfe,0xfd,0xcb,0x02,0xad,0xfc,0x2a,0x00, 0xf5,0xff,0x51,0xfe,0x58,0x00,0xf3,0xff, // 8800
0x4e,0x06,0x05,0x03,0xce,0xff,0xd5,0x00, 0x12,0xff,0x77,0xfc,0xf9,0xfe,0x31,0xf8, // 8816
0x1e,0x02,0xff,0xfd,0x3d,0xfd,0xa9,0xfe, 0x22,0x01,0xfc,0xfe,0x4f,0xfd,0x06,0xff, // 8832
0x86,0x01,0xfb,0x02,0x64,0x00,0x3e,0xf4, 0x44,0xf4,0xe1,0x02,0xc3,0xff,0x5b,0xfb, // 8848
0xe7,0x01,0x49,0x03,0x89,0x00,0xd5,0x01, 0x71,0x00,0x16,0xf9,0x78,0xf2,0xbc,0xfd, // 8864
0x40,0xff,0xd1,0xfc,0xf8,0xfd,0xf9,0x01, 0x71,0xff,0x88,0x05,0xa6,0x01,0x0c,0xfa, // 8880
0x4b,0xff,0xef,0xff,0xb8,0xfe,0xfe,0xff, 0x22,0x00,0xce,0x00,0xb7,0x00,0xe5,0x04, // 8896
0xb4,0xf4,0xe9,0xfb,0xae,0x08,0xbb,0xfc, 0x7f,0xff,0x11,0x07,0x9b,0xfd,0xc6,0x00, // 8912
0x8a,0xff,0x88,0x00,0xf9,0x00,0x48,0x01, 0x6e,0x01,0x68,0xf9,0x79,0xfc,0x9a,0xff, // 8928
0xc6,0x01,0x8f,0xfd,0x3f,0x01,0xca,0xff, 0xd8,0x00,0x7d,0x00,0x9f,0x01,0x54,0x00, // 8944
0x4f,0x00,0xec,0xfc,0x0c,0x00,0x02,0xfd, 0x43,0x04,0x2a,0xfb,0xc7,0xfd,0xfc,0x01, // 8960
0xa6,0x01,0x7c,0xf3,0x46,0x04,0x01,0xff, 0x6c,0x00,0x27,0x03,0xc5,0xfd,0xb1,0xfe, // 8976
0x02,0x05,0xb4,0x01,0x48,0xfc,0x0d,0x00, 0x63,0xff,0x18,0x02,0x48,0xf6,0xc6,0x01, // 8992
0x20,0x01,0x7a,0x02,0x3a,0x01,0xf1,0xfe, 0x16,0x02,0x47,0x05,0xc6,0x01,0x94,0xfc, // 9008
0x21,0xfc,0xb5,0x00,0x2d,0x00,0x06,0x01, 0x0c,0x02,0x03,0x00,0xa2,0xfd,0xaa,0x00, // 9024
0x93,0xf9,0xe3,0x00,0x42,0x08,0x99,0x01, 0x71,0x02,0xb3,0xf8,0x16,0x01,0x97,0x01, // 9040
0x73,0xf7,0xf5,0x00,0xc4,0x00,0xbb,0xf9, 0x20,0x03,0x78,0xfa,0x17,0x00,0xe1,0xf5, // 9056
0xa8,0xfb,0x20,0x05,0xde,0xff,0xcb,0xfe, 0x36,0xfe,0x51,0x00,0x23,0x00,0xa4,0xe9, // 9072
0x43,0xfd,0x45,0xfe,0x50,0xfe,0x80,0x00, 0xe6,0x01,0xb4,0xfa,0xab,0x00,0x1e,0xf7, // 9088
0x32,0x00,0x02,0xfc,0x1a,0xff,0x33,0xfc, 0x58,0x00,0xa5,0xfe,0x0c,0xfd,0x21,0xfe, // 9104
0x1c,0xfe,0x6b,0x02,0x10,0xfe,0xb9,0xfe, 0x0b,0xfd,0xc5,0xfa,0xa2,0xfb,0x56,0xfd, // 9120
0xaf,0x00,0x04,0x00,0xb5,0xf1,0xc4,0xfd, 0xb8,0xff,0xd0,0xfb,0xc0,0x02,0x81,0xfd, // 9136
0xbe,0xf3,0x9a,0x01,0x6e,0x00,0x65,0x00, 0x32,0x01,0xbe,0xf9,0x4c,0x00,0x03,0x07, // 9152
0x31,0x01,0x79,0xfc,0x67,0xfe,0x12,0x02, 0x0c,0x00,0x9e,0xff,0x89,0x01,0x8d,0xfe, // 9168
0x13,0xff,0x97,0x02,0xd9,0x01,0x87,0xfe, 0x22,0xff,0x7d,0xfd,0x40,0xfb,0xd4,0xee, // 9184
0x81,0x00,0x14,0x03,0x84,0xfe,0xdc,0xfd, 0x56,0x01,0xc6,0xf9,0x41,0xf6,0x72,0xfd, // 9200
0xa6,0x01,0x5f,0xff,0x51,0xfe,0x6f,0xfe, 0xdc,0xf7,0x17,0x00,0xf8,0xfd,0x4c,0x00, // 9216
0x15,0xf9,0x0f,0x01,0xde,0xfe,0xe0,0xff, 0xc3,0x01,0xb1,0xff,0x56,0xfa,0xc7,0xfa, // 9232
0x98,0xf1,0xcb,0x03,0x11,0x01,0x64,0xff, 0xa5,0x01,0xb4,0xfe,0x2f,0x00,0x34,0xfd, // 9248
0x05,0x01,0xb0,0xfe,0x6b,0x02,0xd1,0x00, 0x8a,0x05,0x4d,0x00,0x6b,0xff,0xd5,0xfc, // 9264
0x12,0x00,0x65,0xf7,0xf7,0x01,0x8a,0x00, 0x5d,0x00,0x4b,0x00,0xdb,0xfe,0x03,0xfa, // 9280
0x0a,0x01,0x3a,0x00,0x64,0x00,0xe1,0x01, 0x27,0x00,0xd8,0x00,0x31,0xfd,0xf9,0x01, // 9296
0x1e,0xf3,0x22,0xfe,0x30,0x01,0x50,0xfd, 0x13,0xfd,0xc7,0xef,0xf6,0xfc,0x9d,0x00, // 9312
0x04,0x00,0x3c,0x00,0xbc,0xfe,0x3d,0x01, 0xf9,0x03,0x72,0xff,0x1e,0x00,0x4a,0xfe, // 9328
0x3b,0x06,0x7e,0x02,0x1e,0xf8,0xc7,0xfc, 0xc2,0x02,0x2a,0x00,0x05,0x03,0xae,0x06, // 9344
0x7a,0xff,0x8b,0xff,0x1b,0xff,0xc3,0xfb, 0xcc,0xf7,0x32,0xf5,0x4e,0x02,0x9c,0xff, // 9360
0x1c,0x01,0x9b,0xfe,0xf4,0xfc,0x1d,0x00, 0x37,0x01,0xb7,0xff,0x24,0x00,0x03,0xf4, // 9376
0xd5,0xf9,0x35,0x00,0x68,0x01,0x58,0x02, 0x24,0xfc,0x45,0xf8,0x6b,0x00,0x51,0xfd, // 9392
0x48,0x01,0xcc,0x00,0x6e,0xfd,0xd2,0x00, 0x03,0xfa,0xc3,0xfe,0x00,0x00,0x57,0xf7, // 9408
0x66,0x00,0xff,0xff,0x10,0xfe,0x72,0x00, 0xf0,0xfd,0x7a,0x01,0xfa,0x01,0x52,0xfd, // 9424
0x7e,0xf7,0x44,0x00,0x37,0xf5,0x26,0x01, 0xb6,0xf7,0x18,0xfc,0x38,0xfe,0x42,0xf9, // 9440
0x70,0x02,0xe5,0x03,0xe7,0x01,0x21,0xfd, 0xec,0xff,0x7d,0xfa,0x79,0xf6,0xa9,0xf6, // 9456
0x1c,0xff,0x79,0xf6,0x97,0xfc,0x99,0xfd, 0x3d,0x02,0x1b,0x00,0x99,0x00,0xa6,0xf3, // 9472
0xc9,0x01,0xfc,0xff,0x34,0xfa,0x85,0xfe, 0x52,0x02,0x29,0xff,0xdc,0x02,0x65,0x05, // 9488
0x06,0x01,0xfa,0x01,0xd0,0xff,0xb4,0x01, 0x50,0xfe,0x5c,0xf5,0x84,0xfe,0x55,0x00, // 9504
0xe5,0xfe,0x4d,0x00,0xd2,0xfd,0x55,0xfd, 0x57,0x00,0x5e,0xff,0xf6,0x02,0x57,0x02, // 9520
0x01,0xfc,0x3d,0x04,0x73,0xfb,0xf7,0xfb, 0x90,0x04,0x22,0xff,0x1a,0x00,0x02,0xfc, // 9536
0x8d,0x00,0x38,0xff,0xc9,0xf9,0x0b,0xfe, 0x32,0x00,0xef,0xf7,0xf4,0x02,0x70,0x00, // 9552
0x01,0xf8,0xda,0x00,0xdb,0xfe,0x64,0xff, 0x83,0x00,0xd6,0xfe,0xdf,0x05,0x67,0xf7, // 9568
0x4b,0x00,0x63,0xff,0xfc,0x00,0xe0,0x00, 0x0a,0xfc,0x14,0xf7,0xe0,0x01,0x7f,0xfc, // 9584
0x2a,0xfe,0xba,0x00,0x76,0xfe,0x8d,0xfd, 0x60,0xf5,0x31,0x00,0xfa,0x02,0xa6,0xff, // 9600
0x58,0xfa,0x7a,0xfd,0xbf,0xfa,0x23,0xec, 0x7c,0xfe,0x9a,0xfc,0x1d,0x00,0x57,0xfd, // 9616
0xde,0xfe,0x94,0x00,0x15,0xf6,0x4d,0x00, 0x08,0xfc,0x8d,0x02,0x47,0x07,0x4d,0xff, // 9632
0x8a,0x02,0x0c,0xfe,0x2b,0x01,0x8e,0xfc, 0xdd,0xfd,0x19,0xfd,0x53,0xf4,0x4b,0xf9, // 9648
0x35,0x02,0xb0,0x00,0x4a,0xfd,0xec,0x01, 0x82,0x01,0xe5,0xfa,0x6f,0x00,0x7d,0xff, // 9664
0x6b,0xff,0x75,0xfd,0xa7,0xfd,0x96,0xfd, 0xb1,0xec,0x2c,0xfe,0xe2,0x02,0x14,0xfd, // 9680
0x03,0x01,0xd2,0x00,0x77,0xfe,0x51,0x02, 0x61,0x02,0x16,0xfe,0x9c,0x03,0x54,0xfd, // 9696
0xf2,0xf6,0x69,0x00,0x3a,0xfe,0x44,0xff, 0x54,0x00,0x08,0xff,0x0e,0x0b,0x58,0xfd, // 9712
0xf3,0xfc,0x0c,0xfd,0x43,0xfe,0x20,0xfe, 0x06,0x07,0x37,0xff,0x26,0xff,0xab,0xfc, // 9728
0xaa,0xff,0x7a,0xff,0x30,0xfe,0xcc,0xfa, 0x95,0x00,0xfb,0xff,0x3f,0x01,0x2b,0xfa, // 9744
0xfd,0xf8,0x41,0xff,0x80,0x00,0x2d,0x01, 0xa0,0xf9,0xaf,0xff,0x06,0x01,0xf6,0xf1, // 9760
0x22,0x00,0xc3,0x02,0x6d,0x00,0xbc,0xf8, 0x10,0x02,0x6a,0xf1,0x95,0xfd,0xa6,0x00, // 9776
0xdb,0xfc,0x6f,0xff,0xea,0xfc,0xa2,0xfd, 0xcb,0x02,0x7e,0x00,0x18,0x02,0x70,0x00, // 9792
0x76,0xfe,0x77,0x01,0x6c,0x01,0xe8,0xfc, 0x34,0x00,0xd5,0xf9,0x52,0xfd,0xe9,0xfe, // 9808
0x74,0xf5,0xec,0xfe,0x33,0x00,0xd4,0x00, 0xe2,0xf9,0x44,0xfd,0x07,0xf8,0x9c,0x02, // 9824
0x0b,0xff,0x7a,0x02,0x3e,0xf8,0x9a,0xfb, 0x6e,0xf4,0xc2,0x00,0x38,0xfc,0x55,0xfb, // 9840
0x92,0x02,0xfe,0xfc,0x43,0xfb,0x49,0xfe, 0x1c,0x00,0x31,0x00,0xf6,0xff,0x95,0x00, // 9856
0xbc,0xf7,0xc9,0xff,0xc4,0x00,0x47,0xff, 0x19,0xfb,0x5f,0xfd,0x0a,0x03,0xef,0xfa, // 9872
0xfd,0xfe,0x40,0x00,0x90,0xfc,0x5a,0x01, 0x6b,0x02,0x0e,0xfb,0x1d,0xf4,0xdb,0x00, // 9888
0x53,0xff,0x0a,0x00,0x0e,0x00,0x38,0x00, 0x30,0x00,0x9f,0xf9,0x08,0xf7,0xe2,0x02, // 9904
0xeb,0xfd,0x48,0xf9,0xac,0x00,0x9b,0x00, 0x2b,0xfc,0xba,0xfe,0x8d,0x00,0x7e,0xf9, // 9920
0x2f,0x00,0x0a,0xfc,0x7e,0xfc,0x06,0xfe, 0x20,0x00,0xc5,0xfe,0x88,0xff,0x1f,0x00, // 9936
0xb4,0xfb,0xde,0xfd,0x33,0xfe,0xd9,0xfb, 0xa6,0xfa,0xea,0xfc,0xe8,0xf4,0xf3,0x00, // 9952
0x5e,0xff,0xe2,0xff,0xdd,0x02,0xbb,0x01, 0xe8,0xfc,0xa1,0xfa,0x06,0xfb,0xb4,0xff, // 9968
0x5d,0xfc,0xc2,0x00,0x8c,0xfd,0xe1,0xf8, 0xa8,0x00,0x09,0x00,0x10,0xfe,0xf2,0xff, // 9984
0xe0,0xf9,0x0d,0x01,0xa3,0x00,0xb6,0xff, 0x8a,0xff,0x9e,0xf8,0xb0,0xff,0x47,0x00, // 10000
0x28,0x01,0x46,0xfd,0xd6,0xfd,0x41,0xff, 0xad,0xfc,0x46,0xfc,0x9c,0xff,0x3a,0xfe, // 10016
0x1e,0x03,0x19,0x05,0x6b,0x00,0xde,0xfe, 0x98,0x01,0xf8,0x03,0xad,0xfc,0xd7,0xfd, // 10032
0xb8,0xfd,0x5a,0xfb,0xc5,0x06,0xfa,0x00, 0xec,0xfe,0x45,0xff,0x3c,0xfe,0xe4,0xfe, // 10048
0x50,0xff,0xb6,0xfd,0x2e,0x02,0x2b,0xff, 0xa9,0xff,0xc4,0x09,0x13,0x01,0x48,0xfd, // 10064
0xcc,0x00,0x5d,0xfe,0x6d,0x04,0x63,0xfd, 0x22,0x00,0x8a,0x05,0x10,0xff,0xb0,0x02, // 10080
0xcb,0xfd,0x9a,0xfd,0x78,0x01,0xb6,0xfe, 0x48,0x00,0xd8,0xfe,0x5d,0xfe,0xcb,0x02, // 10096
0x7b,0x04,0x22,0x08,0xe7,0x00,0x76,0xfb, 0x17,0x08,0xd2,0xff,0x76,0xff,0x75,0xfa, // 10112
0x99,0xfa,0x93,0x00,0x33,0x00,0xc2,0xfe, 0xf2,0xfe,0x72,0x04,0xed,0x00,0x0f,0xfb, // 10128
0xe0,0x01,0x1e,0x01,0x8d,0xfa,0xf9,0x05, 0x96,0xff,0x17,0x01,0x31,0x00,0x7d,0x03, // 10144
0x74,0xff,0xe4,0x00,0xda,0x02,0xfc,0x01, 0x1c,0xff,0xb4,0x07,0xf1,0x07,0x54,0xfe, // 10160
0xe3,0xfe,0xc3,0x06,0xb6,0x02,0xf4,0xff, 0xc4,0x01,0xe8,0xff,0x3b,0x02,0xfb,0x00, // 10176
0x4b,0x01,0xb9,0x02,0x15,0xf8,0x7f,0xff, 0x49,0xfe,0xa4,0xff,0xc3,0xff,0x9b,0xf7, // 10192
0x86,0xfe,0x2f,0xfd,0x5e,0xff,0xfb,0xff, 0x53,0xf8,0x6a,0x02,0xce,0xfe,0x74,0xfd, // 10208
0xd4,0xff,0x99,0xf3,0x0f,0xff,0xda,0xfe, 0x8e,0xf7,0x3e,0x00,0xd6,0xff,0x18,0xff, // 10224
0x47,0x00,0x8d,0x02,0x29,0x05,0xe4,0xff, 0x91,0xff,0x09,0xf3,0xc4,0xfd,0x3a,0x00, // 10240
0x06,0x00,0xb7,0xff,0x22,0xff,0x9a,0xfd, 0xb3,0xff,0x39,0xfc,0xf7,0xfe,0x9d,0xfd, // 10256
0x6c,0xf9,0x16,0xfe,0x54,0xff,0x2a,0x02, 0x39,0xfd,0x95,0x01,0x09,0x00,0xb8,0xf7, // 10272
0xe6,0xff,0x64,0xf9,0x4b,0x00,0x07,0x00, 0xce,0xff,0xe0,0x02,0x7a,0x00,0x44,0x00, // 10288
0x4d,0xfe,0x77,0xf9,0xd6,0x00,0x66,0x07, 0x45,0x00,0x7b,0xff,0x24,0xfb,0x34,0xfc, // 10304
0x59,0xfb,0x62,0x0d,0x54,0xff,0xb9,0xfc, 0x71,0x02,0x30,0xf8,0x06,0x00,0x51,0xfd, // 10320
0xb2,0x00,0xf8,0x01,0xfb,0x01,0x6f,0x00, 0xd7,0xfc,0xf9,0xff,0xc3,0xfe,0xad,0xff, // 10336
0x9a,0xff,0x43,0xfd,0x2e,0xff,0x69,0xfc, 0x65,0x01,0xc3,0x00,0x78,0xfb,0x13,0x09, // 10352
0x5f,0x05,0xe1,0xfc,0x83,0x01,0xc2,0xff, 0x2d,0x01,0x3f,0xfe,0xed,0x01,0x9b,0x00, // 10368
0xed,0x01,0xaa,0xff,0x5e,0x05,0x36,0xfe, 0xab,0xfb,0xcd,0xfe,0x1a,0xff,0xc7,0xfe, // 10384
0x8a,0xfc,0x9e,0x02,0x04,0x00,0x15,0xfd, 0x4b,0x00,0x06,0x03,0xe9,0xfc,0xe6,0xff, // 10400
0x18,0xfb,0xb5,0xfe,0xec,0x00,0x9f,0x00, 0xb9,0xff,0x11,0xff,0x2a,0x00,0x1d,0xfd, // 10416
0x06,0xff,0x4b,0x00,0x97,0xff,0xd0,0x01, 0x21,0x00,0x8c,0x00,0x49,0x06,0x77,0xff, // 10432
0x34,0xfd,0x28,0x00,0x6c,0xfe,0xa2,0x00, 0x10,0x00,0x36,0xfd,0x99,0x02,0x5e,0xfc, // 10448
0x40,0x00,0x46,0xfd,0x31,0x02,0xda,0xfd, 0x62,0xff,0x39,0x00,0x51,0x04,0x22,0x00, // 10464
0x10,0x00,0x5e,0x00,0xec,0xff,0x64,0x01, 0x3b,0xfc,0xbf,0xfc,0x08,0x02,0x41,0x00, // 10480
0xd4,0xff,0x24,0xfa,0xdf,0xfb,0x07,0xff, 0x51,0xfb,0x61,0x00,0xaf,0x04,0x7a,0xf9, // 10496
0x66,0x00,0x32,0x00,0xf8,0xff,0x7f,0x02, 0xe7,0x02,0x8e,0xfd,0xb2,0xfd,0x5c,0x02, // 10512
0x28,0xff,0x14,0x00,0x1f,0xfe,0xe0,0xfc, 0x28,0x01,0x02,0xff,0x6e,0xfa,0x7c,0x00, // 10528
0x1c,0x00,0x4e,0xff,0x8a,0x00,0x74,0x00, 0x4e,0xf8,0x39,0xf8,0x45,0xff,0xbc,0xfc, // 10544
0x22,0xfc,0x9d,0xfa,0xd9,0x00,0x79,0xff, 0x59,0xfd,0xa6,0xff,0xe0,0x01,0xfb,0xfe, // 10560
0xd2,0xff,0xbf,0x02,0x71,0xf8,0xd8,0x00, 0x06,0x00,0x0f,0x00,0xde,0x00,0x33,0x00, // 10576
0x4f,0xf5,0x83,0x01,0x0a,0xfb,0xb9,0xff, 0x64,0xfd,0x04,0x00,0x17,0x01,0x31,0xf8, // 10592
0xe8,0xff,0x3b,0x01,0x60,0x00,0xb9,0x02, 0xb6,0xfc,0xd2,0xfd,0x0c,0xf0,0x06,0x00, // 10608
0xcd,0xfd,0x6b,0xf9,0x57,0xfb,0x0d,0xfd, 0x77,0x04,0x5e,0xff,0xc2,0xff,0x7d,0xf5, // 10624
0x0d,0x02,0x18,0x00,0x07,0xfe,0x5f,0x01, 0x14,0xf0,0x56,0x04,0xf4,0xff,0x8b,0x06, // 10640
0x46,0x00,0xd1,0x01,0xbf,0xff,0x48,0xfe, 0xab,0x01,0x4c,0xf8,0x6f,0xf8,0x6c,0xfe, // 10656
0x91,0xf6,0x21,0xfe,0x71,0xf6,0x99,0xfe, 0x6d,0xfe,0x6c,0x02,0x0e,0x03,0x10,0xfe, // 10672
0x07,0xfc,0x10,0x07,0x92,0xfe,0x4d,0xfb, 0x95,0x02,0x10,0x00,0x6a,0xf7,0x1e,0xf9, // 10688
0x18,0xfe,0xdd,0xfd,0xcc,0x00,0x07,0xfc, 0xe9,0x00,0xe3,0xfc,0x47,0xfe,0x5c,0xfe, // 10704
0x06,0x01,0x63,0xfd,0xdc,0xfd,0x92,0x00, 0x0a,0x00,0x8d,0x02,0x40,0x00,0x10,0xf7, // 10720
0xb9,0xff,0x51,0xff,0xe3,0x01,0x92,0xff, 0x8a,0xfd,0x9d,0xfe,0xb9,0xfc,0x94,0xf8, // 10736
0x60,0xff,0x48,0xf8,0x89,0xfe,0x59,0xfe, 0xe6,0xfc,0x20,0x00,0x4e,0xfd,0x33,0x00, // 10752
0x0b,0x01,0x50,0x02,0xd8,0xff,0x9c,0xf6, 0x35,0xff,0xa3,0x00,0x01,0xff,0xbc,0xff, // 10768
0x2d,0xf7,0x89,0xf3,0x7e,0x00,0x14,0x01, 0x3a,0x00,0xf3,0xf5,0x58,0xff,0xfb,0xf9, // 10784
0x6e,0xf9,0x99,0xfa,0x2c,0x00,0x2a,0xf5, 0x4a,0xf8,0x7e,0xfe,0x51,0xff,0x6e,0x02, // 10800
0x5a,0x02,0x01,0xff,0xfc,0xfd,0x5b,0x02, 0x70,0x00,0x22,0x01,0x14,0x01,0xe1,0xff, // 10816
0x68,0xf5,0xaf,0xfa,0x41,0xfd,0x02,0xff, 0xe7,0xff,0xd5,0xf7,0xa0,0x00,0xea,0xfb, // 10832
0xed,0xff,0x5d,0x01,0xc5,0xf8,0xd5,0xfd, 0xca,0x02,0x6f,0x02,0x90,0xfe,0x6d,0xff, // 10848
0x1c,0x00,0x3a,0xf2,0xc2,0xff,0xe4,0x00, 0x04,0xfe,0x63,0xfd,0x31,0xf7,0xd1,0x01, // 10864
0xdb,0xff,0x1a,0xf2,0x27,0x01,0x97,0x02, 0xa8,0x00,0x35,0xf9,0x90,0xff,0xc0,0xfd, // 10880
0x1f,0x01,0xe8,0xfb,0x41,0xfc,0x1b,0xff, 0x16,0x01,0x09,0xff,0xba,0x00,0x49,0x00, // 10896
0x3b,0xf9,0x24,0x02,0x9e,0xfd,0x78,0xff, 0xf1,0xfe,0x02,0x01,0xe5,0xf9,0xb1,0xff, // 10912
0x78,0xfb,0xe5,0x02,0x10,0xff,0x4d,0xfc, 0xcc,0x00,0xbe,0xfd,0xdb,0xfd,0xbe,0x00, // 10928
0xc9,0x00,0xcd,0xfb,0xa5,0x02,0xd1,0xfd, 0x3e,0xff,0x86,0x00,0x37,0xfd,0xfe,0xff, // 10944
0xac,0xfa,0x8f,0x02,0xf3,0x00,0x28,0x01, 0xb8,0x01,0x82,0xf7,0xc5,0xff,0x13,0x00, // 10960
0xbf,0x01,0x1a,0xf2,0xde,0xff,0x7a,0xf8, 0x7e,0xfb,0x54,0xff,0xb1,0xff,0x2e,0xf7, // 10976
0x2b,0xee,0xe9,0xfa,0xef,0xff,0x80,0xfd, 0xab,0x00,0xba,0x05,0x8c,0x01,0x75,0x02, // 10992
0x2d,0x00,0x26,0x07,0x70,0x0c,0x79,0x01, 0x36,0x00,0x93,0xfe,0xc1,0x01,0xc3,0xff, // 11008
0x98,0xfb,0xf3,0x01,0x26,0x03,0xf1,0xfb, 0x4b,0x00,0x37,0x02,0x04,0xff,0xda,0xfb, // 11024
0x58,0x00,0xf2,0x02,0x6d,0x01,0x6f,0x01, 0xc4,0x01,0x98,0xfe,0xb6,0xfd,0x64,0xf9, // 11040
0x87,0x00,0x08,0x04,0x9f,0xff,0x11,0x02, 0x13,0x00,0x0f,0x00,0x0c,0xfe,0x95,0x00, // 11056
0xea,0xff,0xb8,0xff,0xed,0xfe,0x33,0x0a, 0x04,0xfb,0x9b,0xff,0x00,0xff,0xfe,0xfe, // 11072
0x15,0xff,0x99,0x13,0x6d,0x02,0xe2,0x05, 0x54,0x00,0xa8,0xfd,0xe6,0x02,0xfc,0xfd, // 11088
0x2d,0x01,0xdb,0xfe,0xe7,0x01,0x54,0x00, 0xac,0xfb,0x88,0x00,0x6e,0xff,0x7d,0x00, // 11104
0xd3,0xf7,0x64,0x00,0x91,0x00,0x8b,0xf6, 0x03,0x04,0x35,0xfd,0x2c,0x00,0xc6,0x03, // 11120
0x19,0x04,0x28,0x00,0x0e,0x02,0xc3,0xff, 0x89,0xfe,0x02,0x00,0xd7,0xff,0x2b,0x01, // 11136
0xb7,0x01,0x53,0xff,0x1a,0xff,0x44,0x04, 0xdd,0xfe,0x39,0xfb,0x45,0xff,0x1b,0x01, // 11152
0x5e,0xf1,0xed,0xf7,0xfe,0xff,0x09,0xf9, 0x20,0x00,0xc2,0xfd,0xdc,0x00,0xae,0x00, // 11168
0xee,0xfe,0x1d,0xff,0xe4,0xf9,0xa8,0xfe, 0xb3,0xfe,0x72,0xfa,0xb1,0xfe,0x19,0x01, // 11184
0x41,0x00,0xea,0xf6,0xf8,0xf9,0x5e,0xfd, 0xdf,0xff,0xa7,0x00,0x98,0xfe,0xda,0xff, // 11200
0x4b,0xf3,0xf9,0xff,0xa9,0xfa,0x43,0x00, 0xcf,0xfd,0x8d,0xf1,0xa2,0xfd,0x3b,0xfb, // 11216
0xdd,0x00,0x8b,0xff,0xa8,0xf4,0x0c,0x02, 0x71,0x02,0x18,0xf5,0x9b,0x00,0x40,0x02, // 11232
0x9c,0xff,0x7d,0xf7,0x01,0x00,0x9a,0xff, 0x42,0xff,0xaa,0xfa,0x0f,0xf8,0x2f,0xff, // 11248
0xb5,0x00,0x86,0xf9,0x06,0x00,0x60,0x00, 0x4d,0xfd,0x5e,0x00,0x7b,0x06,0xe2,0xf9, // 11264
0x55,0xff,0x60,0x04,0x41,0xfb,0x3b,0x01, 0x43,0x04,0xdd,0xff,0xc6,0x02,0x0a,0xfd, // 11280
0xa8,0xff,0xfd,0x02,0xbb,0xfe,0xa9,0xfc, 0xf7,0xfe,0xc4,0x01,0x02,0x02,0xf8,0x00, // 11296
0xde,0xf5,0x23,0xfd,0x89,0x02,0x79,0x02, 0xac,0xfe,0x62,0xfd,0x8e,0x00,0x86,0xfd, // 11312
0x00,0xfc,0x46,0x00,0xfd,0xff,0xa3,0x00, 0x7c,0x00,0xf5,0xfd,0x0a,0xfd,0xc4,0xfe, // 11328
0xf8,0x00,0xa5,0xfe,0xdd,0x00,0x29,0xfd, 0x5e,0x00,0xa5,0x01,0x5e,0x00,0xff,0x00, // 11344
0x61,0xff,0x6b,0xf6,0x77,0x00,0x9c,0xff, 0xb1,0x02,0x8e,0xf7,0xb9,0xfa,0x57,0x01, // 11360
0x5c,0xfb,0x28,0xfb,0x16,0xf8,0xed,0xf3, 0xf7,0xff,0x1e,0xf8,0xc7,0x00,0x3d,0xfc, // 11376
0x83,0xff,0xfd,0xff,0x3d,0x01,0x83,0xff, 0x41,0x00,0x3e,0x01,0xc4,0x01,0xad,0x00, // 11392
0xb7,0xf1,0x53,0xfe,0x2c,0xfa,0xd5,0xff, 0x35,0x00,0x03,0xf7,0x2b,0x02,0xe9,0xfd, // 11408
0x1a,0x00,0x2c,0x01,0x91,0xf6,0x58,0x02, 0xf2,0xfd,0x84,0x02,0x5e,0xff,0x06,0x02, // 11424
0x22,0x00,0xfe,0xf9,0xe7,0x00,0x59,0x01, 0x0c,0xf4,0x7f,0xf9,0x39,0xf6,0xb1,0x00, // 11440
0xba,0x01,0xf5,0xf2,0xfc,0xff,0xdf,0xff, 0x60,0xfc,0x4a,0xfa,0x3b,0x03,0x34,0xfa, // 11456
0x8c,0x01,0x58,0x04,0xfb,0xfc,0x87,0xfd, 0x0c,0x03,0xd2,0x01,0x5d,0x01,0xb1,0xfb, // 11472
0xf8,0xf8,0xbe,0x00,0x34,0xfc,0x3d,0xfc, 0x8f,0xf3,0x49,0xfd,0xdc,0x01,0x45,0xff, // 11488
0x12,0xfb,0x7e,0x00,0x94,0xfd,0xd3,0xff, 0x8c,0x01,0x1e,0xfb,0xa7,0x00,0x89,0xfe, // 11504
0x05,0x00,0x2a,0x01,0x55,0xfe,0x91,0xf9, 0x5d,0x01,0xed,0x00,0x23,0x02,0x3d,0x00, // 11520
0x99,0xfb,0x36,0xff,0xc2,0xfb,0x3d,0x02, 0xb1,0x00,0xf1,0xf5,0xa4,0x02,0xcc,0x00, // 11536
0x72,0x00,0xfd,0x01,0x10,0x00,0xe9,0xfc, 0x6e,0x01,0x29,0x06,0xdc,0xff,0xb4,0xfe, // 11552
0x2e,0xed,0x2e,0x04,0x8a,0xfe,0x4d,0xf4, 0x6e,0x01,0x1c,0x0c,0x0e,0x02,0xc8,0xe5, // 11568
0x51,0xff,0xed,0xfd,0xce,0xfe,0x35,0xfd, 0x04,0x00,0x4a,0x02,0xd0,0x02,0xcb,0xff, // 11584
0x8a,0xfc,0x2f,0x08,0x19,0x02,0xda,0xfa, 0x0c,0x00,0xbd,0xfa,0x68,0xff,0x9c,0xf8, // 11600
0x9c,0x00,0x29,0x00,0x8a,0xfa,0x31,0x01, 0xd8,0x01,0xaf,0xff,0xdd,0x0c,0x99,0xff, // 11616
0xff,0x00,0xd9,0x02,0xb1,0x02,0x8d,0xff, 0xe0,0x00,0x1c,0xfc,0xbf,0xf8,0x7a,0xfd, // 11632
0x22,0x01,0x7a,0xfe,0x0a,0xf8,0xf4,0xfd, 0xfe,0xfc,0xd7,0x01,0x9a,0xff,0x45,0xfa, // 11648
0xd3,0x01,0xc2,0xfd,0xac,0xfd,0xd9,0x03, 0x60,0x00,0x0e,0xfd,0xb7,0xff,0x0e,0xff, // 11664
0x22,0xfe,0x48,0x01,0x6d,0xff,0xba,0xff, 0x5d,0x01,0xda,0xfd,0x6a,0xff,0x29,0x00, // 11680
0xa8,0xff,0xff,0xff,0xd8,0xff,0x5f,0xfc, 0x70,0xfc,0x88,0x00,0x42,0x04,0xd4,0xfd, // 11696
0x44,0x01,0xd7,0x01,0x41,0xfd,0x2c,0xfa, 0x82,0xfb,0x2d,0x01,0x21,0x00,0xe1,0xff, // 11712
0x5b,0x05,0x52,0x02,0x61,0xf7,0x61,0xff, 0x19,0x01,0x3d,0xff,0x3d,0xff,0xdb,0xff, // 11728
0x8e,0xfb,0x98,0x00,0xcb,0xff,0xf4,0x05, 0x0a,0x00,0xe1,0xfc,0x4d,0x01,0x0f,0xfc, // 11744
0xbb,0x02,0xa7,0x02,0x06,0xff,0x50,0x06, 0x64,0x00,0x3c,0xfc,0x54,0xff,0x74,0xfa, // 11760
0xe4,0xfd,0x16,0xf5,0xb7,0xf9,0x03,0xff, 0xc8,0xff,0x7a,0x01,0xdf,0xfe,0x2f,0x00, // 11776
0xb3,0x01,0xfa,0xff,0xe2,0xfb,0x80,0x02, 0x9d,0xff,0x87,0x04,0xb2,0xfe,0x90,0xf5, // 11792
0xcf,0xfe,0xd9,0x01,0x50,0x05,0x69,0xff, 0xb2,0xff,0x29,0xf1,0xed,0xfa,0x06,0x04, // 11808
0x5b,0xff,0xbc,0xfb,0xbe,0xff,0x44,0xfe, 0x85,0x00,0xca,0xfe,0x42,0xfd,0x5a,0xfd, // 11824
0x6d,0x02,0xb3,0x03,0x5b,0xff,0xd7,0xf5, 0x0e,0x00,0xb5,0x01,0x7d,0xfe,0x19,0x04, // 11840
0x53,0x00,0x51,0xf9,0x2b,0x01,0x78,0xf8, 0x10,0xfe,0xe8,0xff,0xfa,0xfd,0xdb,0x00, // 11856
0x75,0xfb,0x58,0x01,0x59,0x07,0xf1,0xfd, 0xa5,0x03,0xd5,0x00,0x80,0xff,0x47,0x00, // 11872
0x7a,0x01,0x62,0xfe,0x00,0xfe,0xe2,0x04, 0xea,0x00,0x99,0x09,0x63,0x00,0x68,0xf7, // 11888
0x01,0x04,0xb6,0xff,0x93,0x00,0x14,0xfe, 0x21,0xff,0xf6,0xfe,0xbb,0xfd,0x8c,0xfe, // 11904
0x97,0xfc,0x6d,0xfe,0x62,0xff,0x4a,0x02, 0xf5,0xff,0x5d,0x04,0x22,0x00,0xdc,0x02, // 11920
0xbb,0xfc,0x8b,0xf9,0x30,0x00,0xdf,0xfc, 0x91,0x02,0x9f,0xfa,0x96,0xf7,0x9f,0xf5, // 11936
0x61,0xf9,0x5f,0xfd,0xcc,0xfc,0x3f,0xf6, 0x3c,0x02,0x1e,0x05,0x20,0x02,0x03,0x00, // 11952
0xd8,0xff,0x6f,0xfd,0x60,0x03,0xa9,0xfd, 0x24,0x00,0x15,0x00,0x99,0x02,0xb3,0xff, // 11968
0x3a,0xfa,0xc6,0x02,0xda,0xfc,0xe3,0xfe, 0x24,0x01,0x31,0xf5,0xbc,0xfd,0x0d,0x02, // 11984
0x7b,0x00,0xa5,0x01,0xcc,0xf5,0x32,0x00, 0xc1,0xff,0x26,0xff,0xab,0xfc,0x8b,0x01, // 12000
0x64,0x00,0x65,0xf6,0xed,0xff,0xee,0x01, 0x15,0xfc,0x47,0xfb,0xa4,0xf5,0xa9,0xfe, // 12016
0x43,0xfe,0xa7,0xfe,0x28,0xff,0xc5,0xfe, 0x0e,0xf8,0x1a,0xf9,0x4a,0x05,0x7d,0xf9, // 12032
0x71,0x01,0x3b,0x02,0x5e,0xfe,0xf3,0x02, 0xe4,0x01,0x5b,0x03,0x3f,0x01,0x35,0xfd, // 12048
0x0a,0xfb,0x22,0x00,0x2d,0xfe,0x96,0xfd, 0x8a,0xf5,0x52,0x01,0xa0,0xf8,0x57,0xff, // 12064
0x29,0xf9,0xe2,0xfe,0xf4,0x02,0xb7,0xff, 0xd4,0x00,0x20,0xfb,0x3e,0xff,0xf2,0xfe, // 12080
0x30,0x02,0x03,0xfb,0x1c,0xfe,0x5e,0xfc, 0xe3,0xfe,0xbe,0x00,0xc3,0x00,0x6b,0x02, // 12096
0xfd,0x05,0x02,0x03,0xdb,0xfb,0x9f,0x00, 0x48,0x01,0x99,0xf2,0x50,0xff,0xc7,0x00, // 12112
0xa6,0xf0,0x08,0xfc,0x9f,0x00,0x00,0x04, 0x14,0x03,0x81,0xfa,0x9b,0x02,0x3e,0xfa, // 12128
0xad,0x00,0x27,0x03,0x87,0x00,0x54,0x02, 0x82,0x02,0x3a,0x00,0x41,0x00,0x13,0xef, // 12144
0xdb,0x02,0x25,0x01,0x47,0x01,0x67,0x02, 0x6e,0x00,0x37,0x00,0x31,0xfc,0xa1,0xff, // 12160
0x5a,0x03,0xe9,0xfa,0x89,0xff,0x94,0xfe, 0x17,0x00,0x15,0x02,0x80,0xfe,0x5e,0xff, // 12176
0xf8,0x01,0xff,0xfe,0xd2,0x01,0x86,0x02, 0x37,0xfd,0x1f,0xf2,0x64,0xf9,0x1c,0x01, // 12192
0xe1,0xff,0x43,0xfc,0x00,0x00,0x46,0xfd, 0x23,0x02,0x03,0x05,0xfb,0xfc,0xf0,0xfc, // 12208
0x84,0x04,0x70,0x07,0x7d,0xff,0xa4,0xfc, 0xc4,0x06,0x75,0xff,0x79,0xf8,0x53,0xff, // 12224
0x0d,0xff,0xd6,0xff,0xd1,0x00,0x6d,0xfb, 0x5f,0xf2,0xab,0xfd,0x65,0x02,0xa7,0xff, // 12240
0xba,0xff,0xf0,0x01,0x7f,0xf7,0x49,0xfe, 0xe5,0x00,0xb1,0xff,0x0d,0x02,0xba,0xfe, // 12256
0x10,0xff,0xf2,0xfc,0x68,0xfd,0xa0,0x04, 0x10,0xfe,0x1e,0xfd,0x4c,0x01,0x63,0x00, // 12272
0x8e,0x00,0x57,0x03,0xca,0xff,0xab,0xff, 0xe3,0xff,0x3d,0xfb,0x1e,0xff,0xd3,0xff, // 12288
0xc4,0xfe,0x89,0x00,0xef,0x01,0x10,0xfe, 0x08,0x04,0x1b,0x01,0x9f,0xfe,0x12,0xfb, // 12304
0x32,0xff,0x26,0x00,0xbe,0xff,0x54,0x00, 0x57,0xf4,0xab,0x02,0x64,0xfd,0xa1,0xf5, // 12320
0x19,0xfe,0x58,0xfb,0x3d,0xf8,0xb2,0xfa, 0x42,0x00,0x4c,0x04,0x14,0x01,0xe5,0xff, // 12336
0xda,0x01,0xd2,0xf9,0xa4,0xfe,0xb8,0xfd, 0x3a,0x00,0x45,0xfd,0x93,0x00,0x93,0x01, // 12352
0xfa,0xfc,0x38,0x03,0x6b,0x04,0xc6,0xfe, 0xd3,0xff,0x77,0xf4,0x96,0x00,0xf4,0xf9, // 12368
0xec,0xf1,0x0a,0xfe,0xfd,0xf6,0x05,0x01, 0x7d,0x00,0xa5,0x00,0xba,0xfd,0xe1,0xf3, // 12384
0x7c,0x01,0x3a,0x00,0x45,0x01,0xa4,0xfd, 0x27,0x00,0xbf,0xfc,0xfe,0xf8,0x20,0x00, // 12400
0x09,0xff,0x1f,0xfa,0x8a,0xfa,0x2a,0x02, 0x8d,0xf5,0xce,0xfe,0x99,0x03,0x0e,0x04, // 12416
0x0b,0xff,0xf7,0xfc,0xa7,0xfe,0x80,0x05, 0x19,0x01,0x6f,0xfd,0xb5,0x00,0x4d,0x01, // 12432
0xa7,0x00,0xb4,0xfd,0x63,0xf9,0x5a,0xfd, 0xb0,0xfb,0x08,0x00,0x12,0xfd,0x39,0xfd, // 12448
0x60,0x00,0x7b,0x02,0xaf,0xff,0xb1,0xf4, 0x43,0x03,0xc4,0x03,0x40,0x00,0x3f,0x03, // 12464
0x00,0x02,0xd2,0x01,0x32,0x02,0xd4,0xff, 0x22,0xff,0x76,0xff,0xcd,0x00,0x30,0xfe, // 12480
0x7a,0x04,0xfd,0xff,0xef,0xfe,0x6b,0x02, 0x50,0xfd,0x88,0xfb,0xaa,0x01,0x7d,0xf6, // 12496
0x4d,0x00,0xdd,0xfa,0xf8,0xff,0xb4,0xfc, 0xec,0xff,0xec,0xff,0x46,0x01,0x25,0x01, // 12512
0xd9,0xfa,0xcd,0xf5,0xf6,0x02,0x82,0xfc, 0xae,0x00,0xca,0xfc,0xd4,0x00,0xa7,0x01, // 12528
0xe6,0xfe,0x09,0x01,0x81,0x02,0x3e,0x00, 0x06,0x00,0x4a,0xf0,0x46,0x00,0xe0,0xff, // 12544
0xcb,0xfa,0x69,0xfa,0xb0,0xf9,0xfa,0xed, 0xe0,0x00,0x8f,0xfb,0x0d,0xff,0xef,0xf6, // 12560
0x7b,0xff,0x7d,0xfd,0x5f,0xfd,0xef,0xfd, 0x84,0x01,0x2c,0x00,0x09,0x02,0x4b,0xff, // 12576
0x19,0x00,0x50,0xfc,0x87,0xff,0xd1,0xfd, 0x51,0xf5,0xa9,0xf9,0x02,0xff,0x12,0xfe, // 12592
0x6a,0xfe,0xf1,0x04,0x47,0xfb,0xa5,0xfe, 0xa0,0x02,0xba,0xef,0xfa,0x00,0x6f,0xff, // 12608
0x7c,0xff,0x9b,0x00,0xbb,0xff,0xb7,0x02, 0xfb,0xff,0x11,0xfb,0x83,0xfd,0x90,0xf8, // 12624
0xce,0xfe,0x4d,0xfe,0x2f,0xff,0xec,0xff, 0xb8,0xf6,0xa5,0x02,0x03,0xfd,0x64,0xfe, // 12640
0xef,0xf8,0x6a,0x02,0xc3,0xfe,0xfd,0xf9, 0x36,0xfc,0x28,0xfb,0x50,0x00,0x3c,0xfd, // 12656
0x76,0x00,0x7b,0xfa,0x96,0x00,0xb2,0xfd, 0x2e,0xfe,0x5f,0x00,0x85,0xfd,0x27,0x00, // 12672
0x71,0x00,0x50,0xfd,0xf1,0xf7,0x47,0x01, 0xe2,0xff,0x64,0xf6,0x74,0xf5,0xd0,0x06, // 12688
0x7f,0xfe,0x97,0xff,0xf7,0x00,0x10,0x02, 0x4a,0x00,0xce,0x02,0x6c,0xfb,0xa8,0xfd, // 12704
0xa6,0xfd,0x5a,0xff,0x47,0x02,0x5b,0xff, 0xca,0xff,0x00,0xf4,0x1b,0xf8,0xde,0x02, // 12720
0xa6,0xfd,0xe1,0x01,0x5e,0xfe,0x1c,0x02, 0xff,0x00,0xca,0x01,0xe7,0xfd,0xe3,0xfe, // 12736
0x33,0x03,0xca,0xfa,0xea,0xf5,0x66,0xfb, 0xd7,0xf9,0x47,0x00,0x68,0xfd,0x02,0xfe, // 12752
0xd8,0x01,0xc5,0xfe,0x71,0x00,0xfd,0xfd, 0x29,0xfd,0xa3,0xff,0x64,0x03,0x40,0x02, // 12768
0xe6,0xf6,0xef,0xf7,0x73,0x01,0x95,0x01, 0x48,0xfd,0x9e,0xfd,0xfa,0x00,0x3d,0x00, // 12784
0x7d,0xfb,0x34,0xf8,0x47,0xff,0x13,0xfc, 0x0c,0xfc,0xe6,0xff,0x61,0x01,0x34,0x02, // 12800
0x85,0x00,0x61,0xfd,0x2b,0x02,0x59,0x01, 0x5f,0xfb,0x1b,0x02,0xe8,0xfd,0x45,0xff, // 12816
0x7f,0x00,0x56,0x01,0xc4,0x02,0xc3,0xfd, 0x61,0x02,0x3d,0x00,0x5c,0xfb,0x24,0x01, // 12832
0x7a,0xfe,0xea,0x00,0x30,0xfe,0x5d,0x03, 0x1e,0x02,0x3a,0x01,0x32,0xfe,0xc9,0xfc, // 12848
0x5b,0x01,0x28,0xfb,0xfd,0x02,0xfe,0xfc, 0xad,0x01,0x49,0x00,0xaa,0xfe,0x8d,0x00, // 12864
0x32,0xfe,0x7f,0x00,0x29,0x03,0x91,0xf9, 0xc2,0x00,0x10,0x04,0x54,0x00,0x56,0x03, // 12880
0x30,0xfe,0x9d,0xfe,0x67,0x00,0x32,0xfe, 0xe2,0x05,0xb0,0xfe,0x17,0x01,0x56,0x03, // 12896
0x7d,0xf9,0xe2,0xfd,0xab,0x01,0x17,0x02, 0xfb,0x00,0x3b,0xf8,0xf6,0x01,0x62,0x00, // 12912
0xee,0xfc,0x61,0xfe,0xd4,0xfe,0x32,0xfd, 0xe6,0x03,0x68,0xff,0x81,0xfa,0x1a,0x00, // 12928
0x49,0x03,0xa6,0xf9,0x03,0xfa,0xd3,0xfe, 0x0e,0x00,0x59,0xfb,0x7f,0x01,0x8b,0x00, // 12944
0xa7,0x00,0xc1,0xfe,0x66,0x00,0x40,0x00, 0xe1,0x00,0x53,0x00,0xa1,0xfd,0xa2,0x01, // 12960
0xbd,0x01,0xa4,0xef,0xd4,0x00,0x17,0x03, 0x68,0xfd,0xc7,0xfe,0x46,0x02,0x33,0xfe, // 12976
0xd1,0x00,0xdb,0x06,0xb5,0x00,0x08,0xfe, 0x9b,0xfc,0x8e,0xfe,0x52,0xfc,0xa6,0xfb, // 12992
0x77,0x01,0xd8,0xfa,0x52,0x00,0x0a,0xfe, 0xa6,0xfa,0x51,0x00,0x00,0x00,0x9e,0xfb, // 13008
0x1e,0xfd,0x3b,0x02,0x0f,0x02,0x62,0xfd, 0xdb,0x00,0xaa,0x00,0xbb,0xf3,0xa8,0xfe, // 13024
0xa3,0xfd,0x57,0x01,0x85,0x01,0xe0,0x02, 0x6d,0x03,0x93,0xfd,0x95,0xfe,0xa7,0xfd, // 13040
0x3c,0xff,0x36,0x00,0xb9,0xff,0x85,0x00, 0xab,0xfe,0x41,0xfb,0x17,0x01,0x46,0xfe, // 13056
0xcf,0xf9,0x8b,0x01,0x07,0xfe,0x6a,0x01, 0x66,0x01,0xe1,0x00,0xf9,0xff,0x39,0x01, // 13072
0x96,0x00,0x86,0xf6,0xe3,0xff,0x6a,0xfb, 0x69,0x01,0xf3,0xf4,0x84,0xf8,0x5d,0xfe, // 13088
0x5f,0x02,0x3e,0xf6,0xe3,0xff,0x9c,0xf0, 0x84,0x00,0x54,0xfc,0x76,0xff,0x91,0x0a, // 13104
0x1a,0xfd,0x93,0x00,0x88,0x03,0xaa,0xff, 0xcb,0xff,0x83,0x00,0xd3,0x00,0xf0,0xff, // 13120
0x62,0xf0,0x10,0xf3,0x95,0xfe,0xa4,0xff, 0xf1,0xff,0x4f,0xf0,0xe6,0x01,0x46,0x01, // 13136
0x07,0x00,0x12,0x00,0x5c,0xf8,0xfb,0x02, 0xfd,0x01,0x5d,0x04,0x7e,0x01,0xc2,0x00, // 13152
0xc4,0xff,0xb0,0xf5,0xf1,0xff,0x8b,0xfe, 0x53,0x00,0x76,0xf5,0x7e,0xf6,0x0a,0x02, // 13168
0x55,0x00,0x43,0xfd,0x0a,0x00,0x20,0xff, 0x14,0xfe,0xfc,0xf8,0x88,0x03,0xa1,0xfa, // 13184
0x08,0x01,0x2f,0xff,0x16,0x00,0x84,0x02, 0xaa,0xff,0x92,0x01,0x93,0xff,0xf5,0xfc, // 13200
0x2a,0x00,0x6a,0x01,0xdd,0xfe,0x44,0x01, 0x0f,0xf7,0x20,0x01,0x32,0x04,0x36,0xff, // 13216
0x71,0xfb,0xb3,0x01,0x07,0x02,0x51,0xff, 0x13,0x01,0xd2,0xff,0x37,0x01,0x16,0xfe, // 13232
0x1e,0xfe,0xb9,0x00,0x71,0xfd,0x17,0x00, 0x7d,0x00,0xc0,0x00,0xa1,0xfe,0x9d,0xff, // 13248
0xd1,0x02,0xe1,0x02,0x33,0xfb,0xf5,0x05, 0x2b,0x00,0x00,0xf7,0x2c,0x00,0xe5,0x01, // 13264
0x76,0xf4,0x8a,0x03,0x7d,0xff,0x62,0x04, 0x00,0x00,0xdd,0xff,0xd6,0x00,0x22,0xfa, // 13280
0x79,0x03,0x70,0xfc,0x61,0xff,0x5c,0x01, 0xd1,0xff,0xc5,0xfc,0xab,0xfa,0x70,0x02, // 13296
0xca,0x02,0x64,0xf5,0x1e,0xfb,0x2c,0x02, 0xf4,0xfa,0xd6,0xff,0xe0,0xfe,0x84,0xfa, // 13312
0x57,0x0b,0xb5,0x00,0xc4,0xfe,0x26,0x00, 0x82,0xff,0x41,0xfe,0xac,0xfe,0x52,0x06, // 13328
0x7a,0xff,0x0f,0xfe,0xe4,0xfc,0x95,0xfe, 0xce,0xff,0xe7,0xfc,0x34,0xf9,0x9e,0xfe, // 13344
0x18,0xf9,0x3a,0xfe,0x3b,0xf5,0xb1,0x01, 0x25,0x00,0x29,0xff,0xa9,0x00,0x5a,0x01, // 13360
0x9f,0x03,0x4a,0x0c,0x4f,0xfe,0x70,0xfa, 0x2c,0x03,0x60,0x01,0x36,0xfc,0xea,0xfb, // 13376
0x3c,0xfd,0x5e,0xfc,0xd3,0xfd,0x98,0xf5, 0xcc,0xfa,0x07,0x01,0x2c,0x00,0xb7,0xff, // 13392
0x2a,0x01,0x8d,0xfd,0x8c,0x00,0xb9,0xff, 0x3f,0x01,0x8a,0x02,0x70,0x00,0xfd,0x09, // 13408
0xc1,0x00,0x12,0xfe,0xb8,0x00,0x79,0x00, 0x8e,0x01,0xfe,0xf5,0x71,0x03,0xe0,0xf8, // 13424
0x01,0x01,0x9f,0x00,0xe1,0x01,0x36,0x03, 0x1a,0xfe,0xf5,0xfe,0xf4,0x00,0xac,0xfb, // 13440
0x26,0x01,0x37,0x02,0x40,0x01,0x84,0xff, 0xb3,0xfb,0x58,0x01,0xc5,0x01,0xd9,0x00, // 13456
0x66,0xff,0x98,0x00,0xe7,0xfe,0xb0,0xfe, 0xf2,0xf2,0x8d,0xff,0x93,0x00,0xcf,0xfc, // 13472
0xf1,0xfd,0x6d,0xff,0x9a,0xfe,0xf3,0x00, 0x02,0x01,0xe4,0xff,0x2c,0x01,0x86,0x00, // 13488
0x07,0x02,0x97,0xfb,0xf8,0xfe,0x97,0x02, 0x8c,0xff,0x06,0x00,0x70,0x00,0x4f,0xfb, // 13504
0xb9,0xff,0xd1,0x00,0xb6,0xf4,0xf6,0x02, 0xb1,0x03,0x41,0x02,0xf1,0xfe,0x87,0xff, // 13520
0x43,0xf5,0x25,0x02,0xb8,0x03,0xae,0x00, 0xc4,0x02,0x4d,0x04,0x31,0xf8,0x37,0x01, // 13536
0xf0,0x00,0x11,0x00,0x47,0xfd,0x68,0x01, 0xac,0xfd,0xef,0xfd,0xed,0x01,0x41,0xfe, // 13552
0xb3,0xfa,0x2a,0x02,0x70,0xfa,0xb2,0xfa, 0xa6,0xfd,0xd1,0xff,0x0e,0x01,0x0a,0xf6, // 13568
0x9e,0x00,0x95,0xfc,0x29,0xfe,0x39,0xfc, 0xd7,0x00,0x85,0xf4,0xd5,0x01,0xd3,0x01, // 13584
0x43,0xf6,0x60,0x02,0x10,0x01,0xbe,0xfb, 0xae,0xff,0x4a,0x00,0xff,0x01,0x3e,0xfc, // 13600
0xa2,0xfe,0xc0,0x01,0xf2,0x02,0x2d,0x00, 0x4d,0xfe,0x50,0xfe,0xf8,0xfe,0x6c,0xfc, // 13616
0xf9,0xfe,0x2c,0xfe,0xb2,0xfe,0xb6,0xf6, 0x3a,0xf9,0x0d,0x00,0x07,0x02,0x3c,0xf9, // 13632
0x4c,0xf6,0x7a,0x00,0x44,0xfb,0x18,0xf8, 0xa0,0xf7,0x13,0x01,0xab,0xff,0xf8,0xff, // 13648
0x27,0xfe,0x01,0x01,0xb4,0x00,0xdf,0xfd, 0xd6,0xfc,0x56,0xff,0xfd,0x01,0x3a,0xf9, // 13664
0x52,0x00,0x9c,0xff,0x5b,0x00,0xe7,0x01, 0xda,0x01,0xba,0xfd,0xca,0x00,0xbf,0x02, // 13680
0xfe,0xfd,0x61,0xfa,0xbb,0xfe,0x23,0xfd, 0xaf,0x00,0xeb,0xff,0x67,0xfd,0xed,0xff, // 13696
0x92,0x01,0x4f,0xff,0xbd,0xf2,0x61,0xfe, 0xbd,0xff,0x5f,0x00,0x77,0xff,0xff,0xfe, // 13712
0x75,0xff,0xea,0xfe,0xa9,0xff,0x31,0xfd, 0xb1,0x01,0x82,0xff,0x6c,0xf7,0xce,0xff, // 13728
0x51,0x00,0x0e,0x02,0x97,0xf4,0x09,0x02, 0x4a,0xf7,0xff,0xfc,0x88,0x00,0xf0,0xfc, // 13744
0x43,0xff,0xe8,0x00,0xcf,0x00,0xb6,0xfb, 0x94,0x01,0xf4,0xff,0x2e,0x02,0xa3,0xfd, // 13760
0xb3,0xfa,0xd0,0xfc,0x90,0x01,0xb8,0x02, 0x5e,0xfb,0xe0,0x00,0xdb,0xff,0x92,0xf9, // 13776
0xa2,0xfc,0x05,0x01,0x6e,0xfd,0x21,0xfb, 0xab,0xff,0x08,0xfe,0xa5,0x00,0xd3,0x01, // 13792
0xbf,0xfc,0x97,0x00,0x8c,0xfd,0x08,0x00, 0x43,0xff,0x89,0xfc,0x67,0xfd,0x1f,0xfb, // 13808
0x5c,0xfe,0x11,0xf5,0x82,0x00,0x8c,0xff, 0xbf,0xff,0x8f,0xe7,0x8e,0xfe,0x72,0xff, // 13824
0xc9,0xff,0xbf,0xfe,0xf8,0xfe,0x77,0xfd, 0x8e,0xf6,0x45,0xff,0x7a,0xff,0x1e,0xff, // 13840
0xfc,0x00,0xaa,0x03,0xd3,0xff,0x8f,0xfd, 0x06,0x0b,0x12,0xff,0xda,0xff,0x8f,0x04, // 13856
0x06,0xf7,0x77,0x04,0xc6,0xff,0x7d,0xfc, 0x70,0x00,0x8a,0x02,0x2e,0x03,0x61,0x00, // 13872
0x5b,0xff,0xba,0xfd,0x14,0x00,0xbb,0x02, 0x79,0x00,0x33,0x00,0x74,0x00,0xeb,0xff, // 13888
0xb7,0xf8,0x3f,0x01,0xa1,0x00,0x4f,0x02, 0x48,0xff,0xc8,0xfc,0xc3,0x00,0x4d,0x04, // 13904
0xc7,0x00,0x1d,0xfd,0x84,0xfe,0x4e,0x01, 0x32,0x02,0x17,0xff,0x00,0x02,0xfe,0xff, // 13920
0x7f,0x00,0xa8,0xff,0xf7,0xff,0xb7,0x01, 0x9d,0xff,0x9c,0xfb,0x3a,0xff,0xe4,0xfe, // 13936
0x3c,0xf9,0xec,0xfa,0xed,0x00,0x62,0x0a, 0x90,0x02,0x81,0x00,0x4e,0xff,0x87,0x01, // 13952
0xdd,0xff,0xe8,0x04,0x8a,0x01,0x7e,0xfe, 0x4f,0x00,0xa6,0x01,0x00,0xfd,0x50,0xff, // 13968
0xc4,0xfe,0xc7,0xfd,0x00,0x08,0x28,0x00, 0x81,0xff,0x89,0x00,0x3b,0xff,0xc5,0xf7, // 13984
0x27,0x03,0x88,0xfd,0xbf,0xfd,0xf2,0xfe, 0xa2,0x02,0x7e,0x02,0x3d,0x01,0xbf,0x08, // 14000
0xbc,0x01,0x91,0xfe,0xc3,0xfe,0x68,0xf5, 0x89,0x00,0x0b,0x00,0x0b,0x03,0x2b,0x00, // 14016
0x46,0x06,0xc7,0xff,0x02,0xfb,0xe9,0xf5, 0x9d,0x00,0x24,0xfc,0x0a,0x01,0x8e,0xfe, // 14032
0x23,0xf8,0x40,0xf9,0xaf,0xff,0xc5,0xfc, 0xb9,0xff,0x5e,0x00,0xd1,0x00,0xd5,0xf5, // 14048
0x42,0xfe,0x22,0x02,0x2a,0xff,0xd8,0xf7, 0x2b,0xff,0xac,0xfd,0x5d,0xff,0xd7,0xf7, // 14064
0x29,0x00,0xb3,0x02,0x1c,0x06,0xc6,0xff, 0x4d,0x00,0xe5,0x01,0x8c,0x04,0xc3,0xff, // 14080
0x0f,0xf7,0x15,0x03,0x3a,0xff,0x46,0x01, 0x7a,0xff,0x1b,0xf4,0xed,0xff,0x95,0xff, // 14096
0x8e,0x00,0xcc,0xfd,0x78,0xf6,0x66,0x00, 0xfe,0x00,0x30,0x05,0x0f,0xf9,0xa1,0xfc, // 14112
0x31,0x00,0x31,0xfe,0x0e,0x00,0x4f,0x02, 0x52,0x01,0x8e,0xf6,0x4d,0xf1,0x89,0x00, // 14128
0xbf,0xfe,0x0f,0xf5,0x1d,0xff,0x61,0x02, 0x5a,0xf8,0xe9,0x00,0x3b,0x03,0xd6,0xfd, // 14144
0xad,0x00,0xfd,0x0b,0x31,0xfe,0xb5,0x07, 0x91,0x03,0x29,0xff,0xac,0xfd,0x0b,0x00, // 14160
0x1c,0xfe,0x54,0x02,0x4f,0xfe,0xbe,0x02, 0x1f,0xfe,0xa1,0xfd,0xd6,0x00,0xfe,0x00, // 14176
0x44,0xfd,0xd6,0x00,0x42,0xfe,0xe6,0xf9, 0x10,0xff,0x85,0xff,0x92,0x00,0xcc,0x02, // 14192
0xc7,0x04,0x51,0x03,0xac,0xff,0x92,0xff, 0x69,0x00,0xac,0x01,0xd6,0xff,0x57,0x01, // 14208
0xa6,0xfc,0x96,0x02,0x39,0xfe,0x2c,0xfd, 0x1d,0x01,0x05,0xf9,0x18,0x01,0x66,0x00, // 14224
0xcf,0xf8,0x72,0x02,0x22,0x00,0xca,0x03, 0xff,0x00,0x2c,0x00,0x47,0x00,0x45,0xfd, // 14240
0x31,0x01,0x68,0xff,0x3b,0x00,0x1f,0x03, 0xfe,0xff,0x5a,0xfe,0x48,0x00,0xb4,0xfc, // 14256
0x47,0x02,0x86,0xfa,0x69,0xfd,0xcc,0xfe, 0x31,0x00,0xef,0xff,0x4c,0xf9,0x2e,0x00, // 14272
0xc1,0xfe,0xd7,0xfe,0x53,0xff,0x27,0x02, 0x11,0x00,0xe4,0xfc,0x0f,0xfd,0x41,0xfb, // 14288
0xe6,0xfe,0xf0,0xfe,0xbf,0x01,0x2c,0xfd, 0x7f,0xff,0x34,0xf6,0x60,0xf8,0xfe,0xfe, // 14304
0x0f,0x00,0x8d,0xfc,0x5c,0x00,0x6d,0xff, 0x52,0xff,0x67,0x07,0x45,0x00,0xf9,0xfe, // 14320
0x00,0x01,0xd0,0x05,0x08,0xff,0x09,0xfa, 0xd7,0x07,0x6a,0x05,0x96,0xf7,0xe4,0x06, // 14336
0x67,0xfc,0xce,0xfc,0x12,0x00,0xc6,0xf2, 0xad,0xfc,0x73,0xfc,0xff,0xfe,0xc6,0xfb, // 14352
0xf9,0x00,0x41,0x01,0x80,0xff,0x81,0x00, 0x72,0x01,0xc8,0xff,0x3e,0x01,0xbb,0xff, // 14368
0x6f,0x04,0x03,0x00,0xb2,0x00,0x2c,0x02, 0xe3,0xfe,0xdc,0x08,0xe9,0xfc,0x9c,0xf8, // 14384
0x33,0xff,0x05,0xff,0xbb,0x01,0x68,0x00, 0xff,0xfd,0x3d,0xfc,0x21,0x02,0x4b,0xfd, // 14400
0xf2,0xfe,0x57,0x02,0xb3,0xfe,0x2e,0xff, 0xab,0xff,0xc1,0x01,0x6a,0x00,0xe4,0x00, // 14416
0x1b,0x01,0xae,0xfd,0xc0,0xff,0x2c,0xef, 0xa0,0xf3,0xc4,0xf9,0x14,0xfa,0x3e,0x01, // 14432
0x02,0xfd,0x5d,0xfd,0xdb,0xff,0xb0,0xf6, 0x0a,0xff,0x61,0x01,0x34,0xff,0x88,0x0a, // 14448
0x8d,0x06,0x7a,0xfc,0x29,0x02,0xcb,0x07, 0x3f,0xf6,0xdc,0x01,0x85,0xf9,0x76,0xfe, // 14464
0x3a,0xf0,0x81,0xff,0xe2,0xf3,0x1c,0xf8, 0xb5,0xfa,0xf1,0x02,0x79,0x02,0xff,0xff, // 14480
0x1c,0xff,0x66,0xf8,0x55,0x01,0x4b,0xf2, 0x48,0x01,0xac,0xf8,0xc3,0x00,0x1a,0xfc, // 14496
0x5a,0x02,0xe4,0xf8,0x2b,0x08,0x0b,0x04, 0x27,0x01,0xe1,0x00,0xb3,0xff,0x3c,0x02, // 14512
0x76,0xf7,0x92,0xf7,0xaa,0xfa,0x20,0x00, 0x5d,0xff,0xe6,0x01,0x68,0x02,0x81,0xed, // 14528
0x95,0xf0,0xce,0xfd,0x99,0xfc,0x55,0xfd, 0xbf,0x01,0x34,0xf1,0x92,0x05,0x82,0xfa, // 14544
0x43,0x4d,0x44,0x00,0x20,0x06,0x80,0x00, 0xd0,0x38,0x00,0x00,0x10,0x04,0x00,0x00, // 14560
0x00,0x00,0x00,0x00,0x0a,0x00,0x00,0x00, 0x00,0x00,0x00,0x00,0x00,0x00,0x00,0x00, // 14576
0x01,0x00,0x40,0x00,0x01,0x00,0x01,0x00, 0x40,0x00,0x01,0x00,0x00,0x00,0x00,0x00, // 14592
0x0a,0x00,0xff,0xff,0xff,0xff,0xff,0xff, 0x00,0x00,0x00,0x00,0x00,0x00,0x00,0x00, // 14608
0x00,0x00,0x00,0x00,0x00,0x00,0x00,0x00, 0x00,0x00,0x00,0x00,0x00,0x00,0x00,0x00, // 14624
0x00,0x00,0x00,0x00,0x00,0x00,0x00,0x00, 0x00,0x00,0x00,0x00,0x00,0x00,0x00,0x00, // 14640
0x00,0x00,0x00,0x00,0x00,0x00,0x00,0x00, 0x00,0x00,0x00,0x00,0x00,0x00,0x00,0x00, // 14656
0x00,0x00,0x00,0x00,0x00,0x00,0x00,0x00, 0x00,0x00,0x00,0x00,0x00,0x00,0x00,0x00, // 14672
0x43,0x4d,0x44,0x00,0x20,0x08,0x00,0x00, 0x50,0x39,0x00,0x00,0x10,0x02,0x00,0x00, // 14688
0x00,0x01,0x00,0x04,0x0a,0x0b,0x06,0x0b, 0x00,0x00,0x00,0x00,0x00,0x00,0x00,0x00, // 14704
0x01,0x00,0x40,0x00,0x01,0x00,0x01,0x00, 0x20,0x00,0x01,0x00,0x00,0x00,0x00,0x00, // 14720
0x0a,0x00,0x0f,0xff,0xff,0xff,0xff,0xff, 0x00,0x01,0x01,0x00,0x40,0x00,0x00,0x00, // 14736
0x00,0x00,0x02,0x00,0x80,0x00,0x00,0x00, 0x00,0x00,0x00,0x00,0x00,0x00,0x00,0x00, // 14752
0x00,0x00,0x00,0x00,0x00,0x00,0x00,0x00, 0x00,0x00,0x00,0x00,0x00,0x00,0x00,0x00, // 14768
0x00,0x00,0x00,0x00,0x00,0x00,0x00,0x00, 0x00,0x00,0x00,0x00,0x00,0x00,0x00,0x00, // 14784
0x00,0x00,0x00,0x00,0x00,0x00,0x00,0x00, 0x00,0x10,0x00,0x00,0x40,0x00,0x00,0x00, // 14800
0x09,0x07,0xea,0xfa,0xd5,0x02,0xf1,0xf9, 0xc1,0x08,0x0f,0x04,0xa9,0xff,0x23,0x01, // 14816
0xde,0xf8,0xbf,0xfa,0x8c,0xff,0xb1,0xff, 0x12,0xfd,0xc5,0x00,0x7c,0xfe,0xb9,0x00, // 14832
0x75,0xff,0xad,0x05,0x8c,0xfb,0xe9,0x01, 0x91,0x01,0xe7,0x01,0xe3,0xff,0xb9,0x01, // 14848
0xe2,0x06,0x7e,0xfe,0x7a,0xfe,0x61,0x00, 0x34,0xfa,0xaf,0x07,0x53,0x02,0x06,0xfd, // 14864
0xae,0xff,0x71,0x02,0xed,0xff,0x0d,0x02, 0x10,0x01,0x0d,0xfc,0x30,0xff,0xfc,0x00, // 14880
0x68,0x0a,0xd9,0xfd,0xde,0x02,0x38,0x00, 0x1d,0x00,0xc3,0x02,0xf8,0x04,0xdd,0x03, // 14896
0x9a,0x05,0xcf,0x01,0x5e,0xfc,0x68,0x03, 0x01,0xf9,0xf0,0x01,0xb5,0x03,0x93,0xfb, // 14912
0x93,0xfe,0x38,0x03,0x9f,0xfb,0xf7,0xfc, 0x98,0xfb,0xa8,0x04,0x16,0x01,0xda,0xfe, // 14928
0xc0,0x04,0x68,0xfe,0xa5,0x04,0x4e,0xfd, 0xe7,0x04,0x57,0x02,0x83,0xfe,0xae,0x03, // 14944
0xb9,0xfd,0x13,0x00,0xf1,0x01,0x67,0x06, 0x65,0x00,0x73,0xfd,0x93,0xff,0xa1,0xfc, // 14960
0xa1,0xfe,0x59,0x04,0xe7,0xf9,0x5d,0x00, 0xdd,0x05,0xeb,0xff,0xea,0x00,0x0d,0x03, // 14976
0x89,0x03,0xf5,0x00,0xde,0x00,0x05,0x01, 0xae,0xf8,0x90,0x07,0xb5,0x02,0x58,0xf9, // 14992
0xa3,0xfc,0xce,0xff,0x9c,0xf6,0x26,0x00, 0x6d,0xf6,0xf9,0xfd,0x53,0xf9,0x70,0xf9, // 15008
0x47,0x08,0x91,0x02,0x62,0x02,0x9e,0xff, 0x91,0xf7,0x57,0x01,0xe5,0xff,0x4e,0xfe, // 15024
0xa7,0xfe,0x4b,0xfd,0x25,0x01,0x74,0x06, 0x7b,0xff,0x03,0x00,0x4b,0x07,0x48,0x01, // 15040
0xac,0x00,0x5a,0x02,0x39,0xff,0x11,0xf7, 0x00,0xf8,0x4f,0x02,0xb4,0xff,0x0c,0x00, // 15056
0x34,0xfd,0x62,0x00,0xd6,0x02,0x82,0x03, 0x9f,0xfb,0x47,0xfe,0x10,0xfb,0x50,0xff, // 15072
0x13,0xfd,0x3d,0xff,0x46,0x04,0x48,0xff, 0xbc,0x01,0x5d,0x00,0xa0,0x00,0x80,0xfd, // 15088
0xa6,0x01,0x3f,0x00,0x90,0x05,0xaf,0xfe, 0x5e,0xff,0xab,0x02,0x4c,0xfd,0x56,0x02, // 15104
0xf2,0xfe,0xb5,0x02,0x00,0xfd,0x1e,0xfe, 0x58,0xfe,0x7a,0x00,0x70,0xfe,0xf4,0xfe, // 15120
0x0b,0x01,0x9c,0x00,0xf0,0x01,0x23,0xff, 0x66,0x05,0x24,0x03,0xa8,0xfe,0x00,0xff, // 15136
0xcd,0xff,0x53,0xff,0x87,0x00,0xc5,0xff, 0xd4,0x00,0x02,0x00,0x55,0xff,0x57,0x05, // 15152
0x2f,0x01,0x4a,0x01,0x19,0x02,0xc9,0x03, 0x73,0x01,0x18,0x02,0x4e,0xff,0x02,0xfe, // 15168
0x4a,0xfd,0x6c,0xfd,0xa7,0x03,0x78,0xfc, 0x2c,0xff,0x8a,0xfe,0xf6,0xfe,0x7b,0x01, // 15184
0x77,0x07,0x1e,0x00,0x11,0xfe,0x91,0xfb, 0x9f,0x09,0xc0,0xff,0xc2,0xff,0x52,0x00, // 15200
0x17,0xff,0xb8,0x00,0x26,0x00,0x03,0x01, 0x19,0x00,0xd3,0x00,0xef,0xfa,0xa5,0x00, // 15216
0x8e,0x00,0xe6,0x07,0x95,0x00,0x75,0xff, 0x23,0x07,0x16,0x00,0xc6,0xfe,0x65,0x00, // 15232
0x0c,0xfd,0xcf,0x04,0x2d,0xff,0xda,0xf8, 0x01,0xff,0x9d,0x06,0x89,0x01,0x6b,0xfd, // 15248
0x9c,0xff,0x34,0xfe,0x3b,0xff,0x0f,0xf7, 0xc1,0xf8,0x0c,0xfa,0x78,0xfd,0x43,0xfc, // 15264
0xab,0x00,0xe7,0x01,0x02,0xfd,0x1e,0x00, 0x83,0xfe,0xc1,0x02,0x5c,0xff,0xb4,0xfd, // 15280
0xcf,0xf9,0x3f,0xfd,0x67,0x00,0x86,0xfd, 0x9c,0x01,0xe6,0x00,0xa9,0x05,0xf6,0xff, // 15296
0x72,0xfe,0xc2,0xff,0x6d,0xff,0x9d,0xf9, 0xf8,0xfa,0x20,0x02,0x45,0xfe,0x32,0x00, // 15312
0x5a,0x00,0x31,0x02,0x36,0x03,0x37,0x00, 0x41,0x07,0xd1,0x01,0xe7,0xfe,0x9e,0x01, // 15328
0xd0,0xf6,0xbd,0x00,0xa9,0xfb,0x4d,0x00, 0x7f,0x00,0x99,0xff,0x5b,0xf4,0xa7,0xfe, // 15344
0xf5,0x00,0x27,0x01,0xc9,0xf8,0x80,0x00, 0x95,0xfe,0x67,0x00,0x0d,0x00,0x8b,0x04, // 15360
0x51,0x01,0xf3,0x00,0xee,0xff,0xd2,0xfd, 0x4a,0xf5,0x2a,0x05,0xd8,0x08,0xbd,0xf8, // 15376
0x3b,0x01,0xbb,0x02,0x2c,0xfa,0x7c,0x00, 0xb9,0xfb,0x21,0xf4,0xd6,0xff,0xff,0xfe, // 15392
0xf5,0x01,0x22,0xfd,0x26,0x00,0x23,0x00, 0x8e,0xf8,0xc8,0x05,0xad,0x04,0x44,0x06, // 15408
0x86,0x06,0xf8,0x01,0x22,0x01,0x05,0x09, 0xd7,0x00,0x5a,0x01,0xfa,0x03,0xdc,0xff, // 15424
0xe6,0xff,0xb3,0x02,0x1d,0xf8,0xb1,0xfd, 0xb7,0xf8,0x04,0x07,0xfc,0xfe,0x8c,0xf9, // 15440
0x2a,0xf8,0xa7,0x02,0x9e,0xfe,0x00,0x06, 0x9a,0xff,0x22,0x04,0xed,0x01,0xb9,0xff, // 15456
0x1f,0x02,0xc6,0x01,0x6f,0xff,0x88,0x03, 0xc5,0x00,0x3b,0xff,0xdf,0xff,0x81,0xef, // 15472
0xa8,0x01,0xa4,0xfb,0xbc,0x00,0x0a,0xf4, 0xbf,0xfa,0xd2,0x01,0xcd,0x01,0x93,0x00, // 15488
0xb3,0xfd,0x03,0xfe,0x3f,0x01,0x8b,0x03, 0xc3,0x00,0xbe,0xf6,0x17,0x03,0x90,0x02, // 15504
0xee,0x01,0x73,0x00,0x8e,0x01,0x72,0xff, 0x23,0xf9,0x30,0xfe,0x10,0x03,0x69,0x04, // 15520
0x1e,0xf3,0xd5,0x00,0x73,0xf8,0xc9,0x00, 0x55,0x00,0x16,0x01,0x54,0xff,0x1e,0xff, // 15536
0x75,0x02,0x03,0x01,0x55,0x01,0x7a,0x04, 0x45,0x02,0xf6,0x01,0xf7,0xfb,0x74,0x02, // 15552
0xa9,0x02,0x79,0xfd,0x93,0xff,0xdd,0x05, 0x2c,0x00,0xdf,0xff,0x36,0x01,0x0d,0xff, // 15568
0x49,0x06,0x29,0x01,0xf1,0x01,0x00,0xf5, 0xb8,0x00,0x57,0x04,0xd4,0xff,0x25,0x01, // 15584
0xfb,0xff,0x8a,0xfc,0x9f,0xff,0x05,0x04, 0x71,0xf6,0x44,0xff,0x14,0x01,0xcc,0xfe, // 15600
0x5e,0x00,0xda,0x06,0x1d,0xfd,0x57,0xff, 0xcb,0x03,0xc0,0xf3,0x83,0x02,0xce,0x04, // 15616
0x4d,0x04,0xca,0x05,0xc4,0xff,0x51,0xfe, 0x92,0x02,0x7f,0x06,0xf5,0x03,0x5a,0x00, // 15632
0xf6,0x00,0xba,0x05,0xaf,0xfc,0xac,0xfe, 0xc9,0xfb,0x56,0x02,0xba,0xfb,0x11,0xf9, // 15648
0x5b,0x05,0xd3,0xfd,0x63,0xfe,0x51,0xff, 0x3f,0xfa,0x36,0x02,0xcb,0xfc,0x6a,0x04, // 15664
0x6e,0x04,0xa1,0x01,0x38,0x00,0xc8,0x03, 0xa3,0xff,0xe5,0x04,0xde,0x03,0xae,0xfa, // 15680
0x23,0x03,0x41,0x04,0x0c,0x01,0xcb,0xfc, 0xc0,0xf8,0x1d,0x00,0xca,0x00,0xf7,0x00, // 15696
0x00,0xf8,0x52,0x00,0x9a,0x00,0x5d,0xff, 0x31,0xf9,0x50,0xf6,0xe0,0x00,0x83,0x01, // 15712
0xba,0xff,0x43,0x00,0x38,0x00,0xff,0xff, 0x44,0xff,0xda,0xfe,0xb9,0xfe,0xc7,0xfb, // 15728
0xbb,0x00,0x3e,0xfc,0x35,0xfc,0xc1,0x01, 0x38,0xfc,0x4e,0xff,0x30,0x02,0x0b,0x01, // 15744
0x02,0x01,0xeb,0xfe,0x1b,0x01,0x7b,0x02, 0x17,0x03,0xd7,0xf7,0xb3,0xfb,0xd5,0xfc, // 15760
0x7a,0xff,0xc9,0x00,0x0c,0xfc,0xc6,0x01, 0x08,0x01,0x6f,0xfd,0x92,0xfd,0x2f,0xfd, // 15776
0xf3,0xf9,0x2a,0x01,0xc7,0xfc,0x57,0x00, 0xfd,0xfb,0x01,0xff,0x02,0x02,0xee,0xfc, // 15792
0x03,0xfd,0x77,0xff,0x46,0xff,0x51,0x00, 0x70,0xfe,0x9f,0xfa,0x66,0xff,0x5c,0xfe, // 15808
0xc3,0x00,0x88,0xfc,0xea,0x00,0x86,0xff, 0x83,0xfc,0x10,0xfd,0x22,0xfd,0x94,0xfb, // 15824
0x06,0xfa,0x37,0xff,0x0f,0xfa,0xe7,0xff, 0x96,0xf6,0x4c,0xf9,0xe5,0xfb,0xf2,0x00, // 15840
0x7f,0x01,0xa7,0x01,0x42,0x02,0x21,0xfb, 0x19,0x00,0xc3,0x01,0x24,0x03,0x79,0x02, // 15856
0x87,0x00,0x83,0xf9,0x68,0x03,0x67,0xfe, 0x6a,0xf9,0x57,0xfe,0x19,0xf2,0xae,0x02, // 15872
0x43,0xf6,0x6e,0x00,0xb0,0xff,0xc8,0xfd, 0xea,0x02,0xf1,0xfb,0xa7,0xfb,0x41,0x03, // 15888
0xf0,0x00,0x28,0x00,0x4f,0x00,0xdf,0xfb, 0xe5,0x03,0xe3,0x02,0xe7,0x00,0xd7,0x01, // 15904
0x05,0xf8,0xb1,0xfc,0xd7,0xfe,0xda,0x00, 0x6a,0x03,0x83,0xf3,0xde,0xff,0xa4,0x01, // 15920
0xc0,0xfa,0xfb,0x01,0x4f,0xff,0xae,0xfe, 0x33,0x00,0x3a,0x00,0x46,0xf8,0x1b,0xff, // 15936
0xc6,0xfd,0x42,0xfa,0x50,0x00,0x1e,0x02, 0x09,0x03,0xd2,0xfd,0x12,0x00,0xa9,0x01, // 15952
0x9a,0xfa,0xbb,0xff,0x6b,0xfe,0x37,0xfe, 0x24,0xf9,0x38,0xfb,0xa7,0x00,0xa7,0x01, // 15968
0xc3,0x01,0x93,0xfe,0x57,0x03,0x25,0xfb, 0xf6,0xfe,0x59,0x00,0x62,0x03,0x66,0x02, // 15984
0xe8,0x00,0x53,0xfb,0xd2,0xfb,0xb3,0x00, 0x86,0xfb,0xc3,0xff,0x26,0x02,0x58,0xfb, // 16000
0x18,0x04,0xe2,0xf9,0x0c,0x00,0x51,0x01, 0xd4,0xfe,0x6a,0xf8,0xea,0xf9,0x44,0x01, // 16016
0xa7,0x01,0x08,0x01,0xd7,0xfb,0x7b,0xfe, 0x85,0x01,0x66,0x02,0xd6,0x00,0x14,0xfe, // 16032
0xb4,0xf9,0xc1,0xfa,0xe7,0xfa,0xbf,0x00, 0x0f,0x01,0xc7,0xfa,0x04,0xfc,0xe9,0xfa, // 16048
0x8a,0xf8,0x13,0xfa,0xdd,0xfe,0x4d,0xf9, 0x50,0x02,0x67,0xfc,0x00,0xfd,0x97,0xfe, // 16064
0x02,0xff,0x2f,0xf9,0x53,0x01,0x37,0x02, 0x0b,0xff,0x54,0xfe,0x3e,0xfe,0xbd,0xfe, // 16080
0x5c,0x04,0x5a,0x00,0x2a,0xfc,0x7e,0x06, 0x98,0x07,0x6e,0x05,0xad,0xfd,0x31,0xfb, // 16096
0x2c,0x02,0xcd,0x00,0x00,0x02,0x20,0x00, 0x12,0x00,0xd5,0x00,0x73,0x01,0xcc,0xfc, // 16112
0x90,0x01,0x50,0x03,0x85,0x0b,0x7e,0xfa, 0xd2,0xfd,0x64,0xff,0x95,0xfe,0x9e,0x02, // 16128
0x2c,0xfa,0x61,0xfd,0xd3,0xfe,0x9c,0xfc, 0x5c,0x00,0x81,0xff,0x73,0x05,0x68,0x04, // 16144
0xef,0x02,0x1b,0xfe,0xd2,0x07,0x7c,0xfb, 0xdd,0x02,0x43,0x02,0x5d,0x06,0x5d,0x03, // 16160
0xfd,0xf4,0x24,0x01,0xb1,0xf9,0x5e,0x00, 0x81,0x06,0xf5,0xff,0x90,0xfe,0xb1,0x01, // 16176
0x70,0xf5,0x3e,0x01,0x27,0xff,0x10,0x03, 0xe6,0xff,0x4a,0x03,0x46,0xff,0x90,0x01, // 16192
0x85,0xfe,0x8e,0xf9,0xe7,0x02,0x11,0x03, 0xa4,0x08,0xcc,0x04,0x06,0x00,0xca,0xfd, // 16208
0xf8,0xf8,0xca,0xff,0x90,0xfc,0x69,0x02, 0xaf,0xff,0x99,0x03,0xc3,0xf8,0x27,0xfe, // 16224
0x71,0xff,0xd5,0x01,0xb9,0xff,0xf0,0xfe, 0x8b,0x01,0x0f,0x01,0x9f,0x00,0x74,0xfd, // 16240
0x61,0xfe,0xad,0xfa,0x4a,0x04,0x7a,0xf9, 0x97,0xf7,0xae,0x00,0xa6,0xf1,0x9d,0x00, // 16256
0x69,0xf4,0xe0,0xff,0xc7,0xf5,0xd4,0xfd, 0xa8,0x02,0x33,0xfc,0x51,0xff,0x69,0x03, // 16272
0x38,0xff,0x5c,0xfd,0xf2,0x00,0x33,0xfd, 0x63,0x06,0xb2,0x02,0xdb,0x01,0x45,0x02, // 16288
0x22,0xf4,0x27,0x01,0x68,0xfa,0x77,0x00, 0x07,0x02,0x75,0xf8,0xe9,0xff,0xe6,0xfe, // 16304
0x49,0xfe,0x37,0x01,0xe3,0x00,0xcb,0x00, 0xed,0xfe,0x0f,0x03,0x57,0xf3,0x9e,0xff, // 16320
0x02,0xfd,0xcb,0xf9,0x0f,0x00,0x72,0x01, 0x89,0x00,0x57,0xfe,0xa2,0x01,0xce,0xff, // 16336
0x5f,0x06,0xa8,0xf6,0xe7,0x00,0xca,0xfd, 0xcb,0x08,0x05,0x04,0x64,0x00,0x1b,0x02, // 16352
0x30,0xf6,0xde,0x00,0x19,0xfb,0x0f,0x00, 0x41,0x01,0xeb,0xff,0xc9,0xf7,0x2f,0x01, // 16368
0x7e,0x00,0xe6,0x02,0x33,0xf9,0x72,0x01, 0x69,0x02,0x93,0x00,0xf9,0xff,0x1a,0x02, // 16384
0xee,0x02,0x1d,0x00,0x40,0x00,0x09,0xfb, 0xc5,0xf6,0x93,0x08,0xc6,0x02,0x47,0xfa, // 16400
0xc0,0xfe,0x91,0x00,0x6c,0xfb,0xdc,0xfe, 0xad,0xfd,0xf9,0xf6,0x28,0xfb,0x53,0xfd, // 16416
0x15,0x07,0x7a,0xff,0xd3,0x00,0xbf,0x01, 0x98,0xfb,0x89,0x00,0x97,0x03,0x4f,0x03, // 16432
0xc9,0x06,0xb9,0xff,0xb5,0xfe,0xdb,0x01, 0x78,0xf8,0xfa,0x02,0x6a,0x03,0x3d,0x00, // 16448
0xb5,0xfe,0x0c,0x01,0xbe,0xf9,0x0e,0xfc, 0x05,0xf9,0xb8,0x01,0xb5,0x00,0xab,0xf6, // 16464
0xe5,0xfe,0xf5,0x01,0x57,0x00,0x12,0xff, 0x64,0x02,0x4b,0xff,0xda,0xfb,0x50,0xfe, // 16480
0x89,0xfe,0x52,0xff,0xc4,0xfd,0x7c,0x01, 0x00,0x02,0x31,0x00,0x29,0x00,0x49,0xff, // 16496
0xac,0xfd,0xe6,0x03,0x86,0xfe,0xf3,0x00, 0x26,0x00,0x3f,0x01,0xe2,0xff,0xb3,0x00, // 16512
0x51,0xff,0xed,0xff,0xec,0xfc,0x7b,0x02, 0xa0,0xfe,0xbf,0x02,0x22,0x01,0x29,0xfd, // 16528
0xfc,0xfe,0x59,0xff,0x98,0xfe,0x94,0xff, 0x22,0x00,0xc5,0xfd,0x7a,0xfd,0xc7,0xfe, // 16544
0xa8,0xfe,0x10,0x01,0xac,0xff,0x39,0xfb, 0x38,0x01,0x3e,0x01,0x36,0xfe,0xbe,0x01, // 16560
0x6f,0xff,0xab,0xfd,0x32,0x01,0x29,0xfe, 0x3d,0x00,0x0a,0x00,0xbf,0xfe,0x84,0x01, // 16576
0x31,0x01,0x26,0x00,0x99,0xff,0xad,0xfe, 0x32,0xfe,0xfc,0xff,0x57,0xfe,0xeb,0xff, // 16592
0xe8,0xfa,0xd3,0x02,0x34,0xf9,0xea,0xfe, 0x0e,0xf8,0x65,0xfc,0xcc,0xfc,0x6c,0xff, // 16608
0xea,0x00,0x89,0xff,0x49,0x00,0x55,0xfa, 0xb8,0x00,0xca,0xfd,0xc1,0x01,0x61,0x02, // 16624
0x77,0x00,0x6a,0xfa,0x59,0x02,0x64,0x01, 0x2b,0xf9,0xa7,0x00,0x0d,0x01,0x0f,0x00, // 16640
0xd2,0xf7,0x17,0xfb,0x2a,0x00,0x4a,0x01, 0xb4,0xfe,0x0f,0xfb,0x09,0xfe,0x0f,0x00, // 16656
0x78,0x01,0xd7,0xfb,0x09,0x04,0x2b,0xfd, 0xf7,0x01,0xa0,0x00,0x80,0xfe,0xd8,0xfd, // 16672
0x53,0xf8,0x8b,0xfa,0xec,0xfe,0x93,0xff, 0x27,0x05,0xa8,0xf4,0x07,0xf3,0x0c,0xfe, // 16688
0x1d,0xf9,0x74,0xff,0xd6,0xfe,0x7d,0xff, 0xda,0xfe,0xd8,0xfe,0xce,0xf9,0x03,0x00, // 16704
0xbb,0xfd,0x89,0xfa,0x73,0xfe,0xcf,0x02, 0xe4,0x04,0x1c,0xf7,0x85,0xff,0x3a,0xff, // 16720
0x5b,0x05,0x6a,0x00,0x92,0x03,0xd9,0xf3, 0x85,0xfc,0xe5,0x04,0xa1,0xff,0x96,0x02, // 16736
0xde,0xf7,0x7f,0xfb,0xca,0xf9,0xc2,0x00, 0xbd,0xf8,0x2a,0x00,0x3b,0xf7,0x35,0x00, // 16752
0xd6,0xff,0x0a,0x04,0xae,0xfe,0x24,0xfe, 0xa5,0x04,0x58,0xf2,0x11,0x00,0x64,0x04, // 16768
0x4e,0xff,0xbf,0xfc,0x0a,0x00,0xa1,0xfd, 0x92,0x00,0xf8,0x01,0x8d,0x02,0x59,0xfd, // 16784
0x03,0x02,0x66,0x01,0x3a,0xfb,0x1a,0xff, 0x7d,0xfa,0x8a,0xf7,0xa9,0xf9,0xb2,0xf6, // 16800
0xcf,0x06,0x14,0x00,0x24,0xfd,0xf3,0x00, 0xa6,0xfa,0x24,0x03,0x5e,0xfc,0x0a,0x01, // 16816
0x9b,0x02,0x91,0x00,0xd7,0xf6,0x76,0x03, 0x9a,0xff,0x35,0x03,0xfc,0x00,0x28,0xfb, // 16832
0x87,0x00,0xca,0x02,0xa8,0xfd,0x65,0xfb, 0xf3,0xfd,0xb6,0x00,0x4d,0x00,0x93,0xf6, // 16848
0xd7,0xfe,0xbf,0xff,0x05,0x00,0xee,0xff, 0x1a,0xfe,0x71,0xfc,0xbb,0xfc,0x36,0xfe, // 16864
0x83,0x00,0x59,0x00,0x7c,0x01,0x12,0xfb, 0xa6,0xfe,0xbf,0xfe,0x21,0x02,0x4c,0x0c, // 16880
0xb8,0xfb,0x10,0xff,0xa3,0x00,0x9e,0x03, 0x06,0x02,0xec,0xff,0xe6,0x00,0x78,0xfb, // 16896
0x94,0x01,0x6b,0x01,0xfa,0xfe,0x20,0xfe, 0xb8,0x03,0x47,0x00,0x3e,0xfa,0x53,0x00, // 16912
0x27,0xfc,0x32,0x00,0x54,0xff,0x96,0x03, 0xb4,0x06,0x3d,0x05,0xf6,0x02,0x82,0x01, // 16928
0xf1,0x07,0x4d,0xff,0x75,0x03,0xc7,0xfc, 0x1f,0xff,0xcd,0xfe,0x2d,0x00,0xd5,0xfe, // 16944
0x5d,0xff,0x94,0xfc,0x92,0xfe,0x5d,0xfb, 0x25,0xfe,0xbe,0xfc,0x23,0xff,0x8d,0xfe, // 16960
0x0b,0xff,0xb8,0x00,0x5e,0x00,0x31,0x03, 0x47,0x00,0xb9,0xff,0x90,0xff,0xe2,0xfd, // 16976
0x2c,0x03,0x80,0xff,0xf3,0x01,0xaf,0xfe, 0xb7,0x05,0x49,0xff,0xd1,0x00,0xad,0xfe, // 16992
0x64,0xf5,0xd8,0x00,0xf0,0xfc,0xb4,0x01, 0x59,0x00,0xef,0xff,0xd4,0xf1,0xc5,0xff, // 17008
0x97,0x00,0x71,0x06,0x6c,0xfa,0xc0,0xff, 0xf2,0xfb,0xf8,0xff,0xb4,0xff,0x9d,0x02, // 17024
0xbd,0x06,0xad,0xfd,0xab,0xfe,0xa8,0xfc, 0x3c,0xff,0x8d,0x05,0xd2,0xff,0x98,0xfb, // 17040
0xdf,0xff,0xc7,0x01,0xe0,0xf8,0x7f,0x02, 0xfc,0xf3,0x94,0xf4,0xa0,0xfc,0x9c,0xfa, // 17056
0xfe,0x07,0x3e,0xfd,0x2b,0x00,0x6e,0xff, 0x2a,0xfb,0xa3,0x01,0xc8,0x00,0x4f,0x03, // 17072
0x3c,0x01,0xa3,0xfc,0xde,0xff,0x0b,0x02, 0x51,0xff,0x17,0xfd,0xe7,0x09,0xfb,0x00, // 17088
0xbc,0xff,0x4f,0x01,0x74,0xfc,0xa5,0xfa, 0x61,0xfa,0x52,0x04,0x3f,0x00,0xd3,0xfc, // 17104
0xde,0xf7,0x4e,0xfe,0xc4,0xfe,0x20,0xff, 0x2a,0xf7,0x99,0xf9,0x4e,0xfe,0x75,0xfe, // 17120
0xa0,0xff,0x87,0x01,0x30,0x00,0xc0,0xfd, 0x95,0x01,0x83,0x01,0x16,0xff,0xda,0x00, // 17136
0x17,0x00,0x1e,0xfb,0x41,0xff,0xb8,0xfe, 0x0e,0xf6,0x56,0x01,0xfe,0xfc,0x1a,0xff, // 17152
0x38,0xfe,0xd7,0xfc,0x54,0xfe,0xa3,0x04, 0x00,0x05,0x34,0xf9,0x16,0xfa,0x1a,0xfe, // 17168
0x8e,0xfc,0xd2,0xfe,0x7a,0xfe,0xb7,0xff, 0xa4,0xff,0xd8,0x01,0x1d,0xff,0x2e,0xfe, // 17184
0x12,0xfa,0x35,0x00,0xd6,0xfd,0x80,0xfe, 0x9b,0x00,0xe6,0xfb,0x06,0x00,0xdf,0xfc, // 17200
0xf6,0xfd,0xa1,0xfd,0xb0,0x01,0x74,0xff, 0x1e,0x00,0x5d,0xfe,0x87,0xfd,0xc7,0xfd, // 17216
0xc7,0xff,0xea,0xfd,0xed,0xfe,0xae,0x00, 0x6e,0x00,0xad,0xf6,0xa3,0x00,0x1b,0x00, // 17232
0x38,0xf8,0xbc,0x01,0x8d,0x01,0x3a,0xff, 0xff,0xf5,0xad,0xfa,0xbd,0x02,0x95,0x04, // 17248
0x16,0x04,0xaf,0xff,0x0c,0xfe,0xa5,0x02, 0x50,0xff,0x2e,0xfe,0xbb,0x01,0x73,0x01, // 17264
0xe1,0x00,0x8d,0xfc,0x99,0xfb,0xc8,0xfe, 0x79,0xfb,0xc9,0xff,0xc4,0x02,0x9d,0xfe, // 17280
0x97,0xfd,0x05,0xfd,0xf9,0x02,0x03,0x03, 0x7e,0xfe,0xd9,0xfc,0x07,0x01,0xcc,0xff, // 17296
0x61,0xff,0x6a,0xfe,0x40,0xfd,0x6b,0x00, 0x3e,0xfc,0xc3,0xfe,0xe7,0x00,0x00,0x00, // 17312
0x11,0xf9,0x52,0xfd,0xba,0xff,0xa0,0x00, 0x3c,0xfd,0xcc,0xfb,0x92,0xfc,0x46,0xfd, // 17328
0x7a,0x01,0x6d,0xfa,0x93,0x00,0x33,0x00, 0x04,0x03,0x69,0xfd,0x7e,0xff,0xb9,0xff, // 17344
0x96,0x03,0xde,0xfd,0xc2,0x00,0xf6,0xfe, 0xad,0xfe,0x44,0xf9,0x0c,0xfd,0x99,0xfc, // 17360
0x1d,0x00,0x28,0x01,0xc9,0xff,0xf5,0xff, 0x82,0x05,0x76,0x02,0x3e,0xfe,0x89,0x00, // 17376
0x6b,0x08,0x84,0xff,0x20,0x05,0x8d,0xfc, 0x3e,0xff,0x1f,0x00,0xc1,0x05,0xc9,0xff, // 17392
0xe6,0x01,0xb1,0x02,0xe5,0x00,0x65,0x01, 0xea,0x05,0x95,0x00,0x92,0xff,0xd3,0xfc, // 17408
0x4e,0xfd,0x41,0x05,0xa3,0x03,0x0b,0x00, 0xed,0xf8,0x6c,0x00,0x50,0x04,0xa7,0xff, // 17424
0x02,0x02,0x7f,0x00,0xc8,0x00,0xde,0x02, 0x81,0x08,0xbb,0x02,0x4e,0x06,0x35,0x05, // 17440
0xc9,0xfd,0xa6,0xff,0x02,0xff,0xe7,0xff, 0xec,0xfc,0xdc,0x03,0xe9,0x00,0x29,0x03, // 17456
0xba,0x03,0x59,0xfd,0x71,0x01,0xf3,0x01, 0x0e,0x03,0x38,0x01,0x64,0x01,0x00,0x01, // 17472
0x14,0xfe,0xa7,0x01,0x2a,0x01,0xf2,0xfb, 0x23,0x01,0xcc,0xfa,0x36,0xff,0x57,0xff, // 17488
0x40,0xf9,0x7e,0xfe,0x36,0xfe,0x65,0x04, 0xca,0x00,0x38,0x02,0xaf,0xf3,0xbd,0x00, // 17504
0xd3,0xfe,0xd9,0xff,0xf8,0xfc,0xaa,0xff, 0xe0,0xfe,0x5c,0xff,0xc4,0x01,0x97,0xfc, // 17520
0x69,0xff,0xf9,0xf9,0x42,0x03,0x40,0xf8, 0xff,0xfd,0x18,0xff,0x4a,0xfb,0x3b,0xfa, // 17536
0xf3,0xf6,0xfc,0x02,0x3c,0xf5,0x8b,0xfc, 0x8c,0x00,0xe5,0xfa,0x45,0x03,0x99,0x04, // 17552
0xbe,0xff,0x5d,0xfb,0x18,0xfe,0x2b,0xff, 0xc4,0x04,0xb7,0x00,0xfc,0xfe,0xf0,0xff, // 17568
0xd9,0xf3,0xd3,0x02,0x7a,0xf9,0xe6,0x00, 0xf9,0x02,0x54,0x02,0x25,0x01,0x1b,0x01, // 17584
0x1f,0x05,0x18,0x02,0xcd,0xff,0x08,0x05, 0x9f,0xff,0x17,0x02,0x15,0xf7,0x06,0x02, // 17600
0xa2,0xfe,0x65,0x00,0xe8,0xfb,0x37,0x04, 0x1f,0x01,0x52,0x01,0xfc,0x01,0x59,0xfa, // 17616
0x1d,0xfe,0x56,0xfe,0x1b,0xfa,0x72,0xfe, 0x00,0xfd,0x82,0xff,0x7b,0xfc,0xa0,0x01, // 17632
0x9b,0xfd,0x0f,0xff,0xd0,0xff,0x1e,0x03, 0x89,0xff,0x07,0xfb,0x69,0xfe,0x8f,0xfe, // 17648
0x52,0x00,0x26,0xfc,0xe0,0xfd,0x0f,0xf8, 0xce,0xfd,0x3d,0xff,0xa3,0xfe,0x91,0xfb, // 17664
0x92,0xfb,0x7b,0xfc,0x20,0xf9,0x3e,0x00, 0xb3,0xfe,0x05,0xfe,0xf0,0xff,0xae,0x01, // 17680
