#include "model.nncu.h"

const unsigned char model1[] __ALIGNED(16) = {
0x4e,0x4e,0x43,0x55,0x01,0x00,0x01,0x00, 0x01,0x0e,0x07,0x00,0x07,0x00,0x00,0x00, // 16
0x02,0x00,0x00,0x00,0x00,0x00,0x00,0x00, 0x18,0x01,0x00,0x00,0x02,0x00,0x00,0x00, // 32
0xe0,0x01,0x00,0x00,0xc8,0x00,0x00,0x00, 0x18,0x01,0x00,0x00,0x00,0x00,0x00,0x00, // 48
0x00,0x00,0x00,0x00,0x00,0x00,0x00,0x00, 0x00,0x00,0x00,0x00,0x00,0x00,0x00,0x00, // 64
0x00,0x00,0x00,0x00,0x00,0x00,0x00,0x00, 0xff,0xff,0xff,0xff,0xff,0xff,0xff,0xff, // 80
0x43,0x4d,0x44,0x00,0x20,0x00,0x80,0x00, 0x50,0x00,0x00,0x00,0x00,0xfe,0x00,0x00, // 96
0x6d,0x6f,0x64,0x65,0x6c,0x31,0x2e,0x31, 0x34,0x28,0x56,0x33,0x29,0x2e,0x68,0x35, // 112
0x0d,0x0a,0x53,0x61,0x74,0x20,0x4d,0x61, 0x72,0x20,0x31,0x33,0x20,0x31,0x38,0x3a, // 128
0x35,0x35,0x3a,0x31,0x31,0x20,0x32,0x30, 0x32,0x31,0x0d,0x0a,0x31,0x34,0x20,0x62, // 144
0x69,0x74,0x73,0x0d,0x0a,0x6e,0x6e,0x63, 0x75,0x20,0x76,0x65,0x72,0x20,0x31,0x2e, // 160
0x30,0x62,0x20,0x32,0x30,0x32,0x30,0x2e, 0x30,0x37,0x2e,0x31,0x34,0x0d,0x0a,0x00, // 176
0x00,0x00,0x00,0x00,0x00,0x00,0x00,0x00, 0x00,0x00,0x00,0x00,0x00,0x00,0x00,0x00, // 192
0x00,0x00,0x00,0x00,0x00,0x00,0x00,0x00, 0x00,0x00,0x00,0x00,0x00,0x00,0x00,0x00, // 208
0x43,0x4d,0x44,0x00,0x20,0x02,0x00,0x00, 0xd0,0x00,0x00,0x00,0x10,0x02,0x00,0x00, // 224
0x00,0x01,0x00,0x02,0x07,0x05,0x05,0x0a, 0x00,0x00,0x00,0x00,0x00,0x00,0x00,0x00, // 240
0x01,0x00,0x07,0x00,0x01,0x00,0x01,0x00, 0x8c,0x00,0x01,0x00,0x00,0x00,0x00,0x00, // 256
0x0c,0x00,0x0c,0xff,0xff,0xff,0xff,0xff, 0x00,0x01,0x01,0x00,0x18,0x01,0x00,0x00, // 272
0x00,0x00,0x03,0x00,0x0e,0x00,0x00,0x00, 0x00,0x00,0x00,0x00,0x00,0x00,0x00,0x00, // 288
0x00,0x00,0x00,0x00,0x00,0x00,0x00,0x00, 0x00,0x00,0x00,0x00,0x00,0x00,0x00,0x00, // 304
0x00,0x00,0x00,0x00,0x00,0x00,0x00,0x00, 0x00,0x00,0x00,0x00,0x00,0x00,0x00,0x00, // 320
0x00,0x00,0x00,0x00,0x00,0x00,0x00,0x00, 0xa8,0x07,0x00,0x00,0x18,0x01,0x00,0x00, // 336
0xd2,0x04,0x81,0xff,0x0c,0x00,0xf7,0x03, 0x01,0x01,0x96,0xfb,0x57,0xfb,0x1d,0xfb, // 352
0x70,0x02,0xed,0xfc,0xd8,0xfb,0xa7,0x02, 0x0b,0x00,0x4d,0x00,0x36,0x03,0x58,0x01, // 368
0x84,0x01,0xe2,0xfe,0x9b,0x00,0xe7,0xfd, 0x29,0x03,0x16,0x02,0x15,0xfe,0xb0,0x00, // 384
0xe8,0x02,0x38,0xff,0x90,0x00,0x51,0x00, 0x57,0x02,0x68,0xfd,0x29,0xf8,0x63,0xfe, // 400
0x3d,0xfe,0x8c,0x02,0xd3,0x02,0x76,0xff, 0x3e,0xfe,0x5b,0xff,0xb8,0x02,0x30,0xfc, // 416
0x7f,0x01,0xb4,0x01,0x5e,0xfd,0x8d,0xfc, 0x21,0xff,0x7e,0x02,0x6f,0xfb,0xfc,0x02, // 432
0xc5,0x00,0xf6,0xff,0x35,0xfe,0x58,0x03, 0x66,0x04,0xd7,0x01,0x24,0xfe,0x0a,0xf9, // 448
0x70,0x05,0x38,0x01,0x7f,0xff,0x17,0x00, 0xfd,0xfe,0xac,0xfb,0x6c,0x03,0xee,0x00, // 464
0xcd,0x02,0xae,0x05,0xe5,0xfe,0x36,0x01, 0x8a,0xfe,0xef,0x00,0xd8,0x03,0x49,0x00, // 480
0x39,0x02,0xc1,0xfd,0x39,0x05,0x51,0x00, 0x52,0x01,0x7f,0xfa,0xf5,0x03,0x23,0x00, // 496
0x77,0xfa,0xac,0x01,0x7d,0x01,0x18,0x02, 0x7c,0x01,0xe7,0xff,0x61,0xff,0x14,0x03, // 512
0xcd,0x00,0xec,0xfc,0x01,0xfb,0x29,0xfb, 0x48,0x03,0x2f,0x04,0x24,0xfe,0x93,0x01, // 528
0x01,0x01,0x5c,0xfc,0xd3,0x01,0x31,0xfe, 0xcb,0xff,0x59,0x04,0x0c,0x00,0x7f,0xfd, // 544
0x0c,0xfb,0x8b,0x02,0x65,0xfe,0x79,0x00, 0xbf,0xff,0x0a,0x05,0x94,0x01,0xb5,0xff, // 560
0x5b,0xfc,0xee,0x00,0xff,0xfe,0x3e,0xfc, 0x97,0xfe,0x87,0x00,0x24,0x02,0x4c,0xfc, // 576
0x0c,0xff,0xe5,0xfc,0xa0,0x00,0x66,0xfe, 0x18,0x01,0x3f,0xfe,0x2b,0x04,0xe8,0xff, // 592
0x6a,0x00,0x29,0x00,0x43,0x05,0x46,0xfe, 0x50,0xfe,0x4b,0x02,0xa7,0xfe,0x5c,0x00, // 608
0x92,0x01,0xb4,0x03,0xa4,0x01,0x93,0xfd, 0x83,0x00,0xb0,0xff,0x1d,0x04,0xc6,0x00, // 624
0x20,0x04,0xa5,0x01,0x2b,0x02,0x6f,0xfd, 0xaf,0xfe,0xdd,0xff,0x6c,0xfd,0xce,0x03, // 640
0x4d,0x04,0x23,0x01,0xcb,0x03,0xd1,0x00, 0x63,0x00,0x22,0xfe,0xc3,0x04,0x8e,0xff, // 656
0x87,0x01,0x48,0x03,0x1a,0xfc,0x1a,0xfb, 0x37,0xff,0xe5,0xfe,0x6c,0x04,0x97,0x04, // 672
0x88,0xfb,0xe9,0x00,0x51,0x01,0x50,0xfc, 0xff,0x04,0x3c,0x00,0x90,0x02,0x42,0x02, // 688
0x02,0x04,0xd6,0x0c,0x8e,0x00,0x00,0xff, 0x4f,0xfd,0x48,0x00,0xdf,0x00,0xc1,0x01, // 704
0x39,0x05,0x92,0x02,0xe4,0xfb,0xd2,0xfa, 0x39,0xfd,0xae,0xff,0x17,0x00,0x85,0xfe, // 720
0x2c,0x04,0x02,0xfe,0x93,0xfc,0xc9,0xfa, 0x12,0xfe,0x9d,0xfe,0x12,0x00,0xfe,0xfd, // 736
0x39,0xfd,0x2c,0x03,0xdf,0x04,0x2c,0x02, 0x7f,0xfd,0x03,0x01,0xa1,0x02,0x8c,0xfe, // 752
0x6a,0x02,0x46,0x02,0x87,0xfe,0x7b,0x02, 0x72,0x03,0xaf,0x01,0x97,0xfe,0x3d,0xfb, // 768
0x1e,0xfb,0x73,0xff,0x6a,0xfe,0x6c,0xff, 0xd7,0x02,0xaa,0xfc,0xe2,0xff,0xee,0xff, // 784
0x7c,0xfe,0x64,0xff,0x36,0xfe,0xda,0x02, 0x68,0xfc,0x09,0xff,0x76,0xfe,0xfb,0xfd, // 800
0x4f,0x03,0x74,0xfe,0xa1,0xfc,0x9c,0x02, 0xe8,0xfc,0x62,0xfd,0xfc,0x04,0xe3,0xfc, // 816
0xbb,0xfc,0xda,0x02,0xd3,0xfd,0x35,0xfb, 0x83,0x02,0x3a,0xff,0x97,0xff,0x21,0xff, // 832
0xb4,0x02,0xd4,0xfc,0x5d,0x00,0xa5,0x00, 0x26,0xfc,0xaa,0x00,0x5f,0x00,0x55,0x00, // 848
0x73,0x03,0xc7,0x04,0x63,0xfa,0x27,0x03, 0x00,0xff,0xe9,0xff,0x2f,0xfe,0xfd,0x02, // 864
0xd3,0x01,0x19,0x03,0x23,0xfe,0xa0,0xfe, 0x71,0xfd,0x51,0x03,0x43,0xfe,0x11,0xfe, // 880
0x44,0xfb,0x05,0x01,0x6d,0x00,0xed,0x01, 0x5e,0xfd,0x00,0x03,0x2e,0x02,0x6a,0x02, // 896
0x98,0xfd,0x68,0xfc,0x16,0xfb,0x33,0x04, 0x51,0x00,0xee,0x00,0x63,0xfb,0xb8,0xff, // 912
0xb4,0xfe,0xcf,0xfc,0xd8,0xfe,0x7a,0x04, 0x06,0x09,0x42,0xfe,0xcd,0xfc,0x30,0x02, // 928
0xae,0xfe,0xd5,0xfc,0x63,0xfd,0x37,0x00, 0x44,0x03,0x73,0xfe,0x94,0x01,0x97,0x01, // 944
0x38,0x01,0x73,0xfb,0x59,0xfc,0xe7,0xfc, 0x3e,0x01,0x75,0xfc,0x42,0xff,0xa7,0x00, // 960
0x6f,0xff,0xa8,0x03,0x0e,0x03,0x26,0xfc, 0x85,0x01,0xeb,0xff,0xc9,0xfd,0x30,0x03, // 976
0xa5,0x04,0xc5,0xfd,0x92,0xfd,0xb2,0x00, 0x60,0xfe,0x57,0x01,0x5c,0xfc,0x5f,0xff, // 992
0xf1,0xff,0x34,0xff,0x34,0xfe,0xaa,0x00, 0xc6,0xff,0x2c,0xfe,0xd3,0x01,0x4f,0x02, // 1008
0x4d,0x01,0x04,0xfd,0xc5,0x01,0x38,0x00, 0x45,0xff,0x2b,0x02,0xc7,0x02,0x5e,0xfa, // 1024
0x1a,0x01,0xd5,0x03,0xe1,0xff,0x05,0xfe, 0xcc,0x01,0x97,0xfa,0x74,0x05,0x25,0x01, // 1040
0xc3,0x05,0xf2,0xff,0x75,0xff,0x0a,0xfd, 0x51,0x02,0xd7,0xfd,0xc5,0x00,0x28,0x03, // 1056
0x87,0x00,0x64,0xfd,0x94,0xfa,0x41,0xff, 0xbe,0xfb,0x39,0xfd,0xf4,0xfd,0x5a,0x01, // 1072
0xf5,0x03,0x4a,0x03,0xcf,0xfa,0xf6,0xfa, 0xb8,0x01,0x32,0x02,0x42,0xfe,0x81,0xff, // 1088
0xab,0x02,0x8a,0xfb,0x64,0xfb,0xf3,0xff, 0xe9,0xff,0xb7,0x00,0xc4,0xfa,0x5f,0x01, // 1104
0xc5,0x00,0xc4,0xff,0x4c,0xfd,0xfa,0xea, 0xfb,0xfd,0x72,0xff,0x76,0x01,0x23,0xfd, // 1120
0xc7,0xfa,0xd0,0x02,0xca,0x03,0x59,0xff, 0x21,0x00,0x1c,0x00,0xb2,0xfc,0xb5,0xff, // 1136
0x2c,0xff,0x08,0xfe,0xe5,0xfe,0x21,0x04, 0xec,0x05,0x57,0xfe,0x50,0x07,0x6e,0x06, // 1152
0x90,0x03,0x99,0xfe,0x69,0xfe,0xfe,0x05, 0x71,0xfd,0xff,0x00,0xc1,0x05,0x59,0x18, // 1168
0xde,0x00,0x4f,0xff,0xed,0xfe,0x83,0x00, 0xed,0x02,0x8c,0x01,0x5a,0x04,0x4b,0x00, // 1184
0x6a,0x01,0x0b,0xff,0x2a,0xff,0x85,0x03, 0x9c,0xfc,0xc8,0xfe,0x91,0x06,0x80,0xfd, // 1200
0x16,0xfd,0x6a,0xfb,0xf9,0x02,0xfe,0xfd, 0x27,0x01,0xcf,0x01,0x6b,0x00,0xf1,0xff, // 1216
0x7d,0xff,0x17,0xfa,0x65,0x01,0x34,0x07, 0x8d,0xfd,0x49,0x03,0x20,0x02,0xbf,0x00, // 1232
0x71,0xfc,0xa9,0xff,0xd8,0x00,0x95,0xfc, 0xf7,0x00,0x62,0x07,0x9b,0x02,0xe1,0x01, // 1248
0x67,0x01,0x88,0x03,0x79,0xfd,0x82,0x01, 0x11,0x01,0xe3,0x03,0xf0,0xfd,0xc1,0xff, // 1264
0x51,0xfc,0xdc,0xfd,0xce,0xfb,0xd9,0x02, 0xc9,0x04,0x35,0x00,0x0e,0xfc,0xd4,0xff, // 1280
0x51,0x03,0xb8,0xfb,0xb2,0x00,0x5c,0x00, 0xed,0x02,0xb7,0xfd,0x42,0x00,0xd7,0x04, // 1296
0x11,0xfd,0xd2,0xfd,0x5e,0xfd,0x92,0x02, 0x74,0xfe,0x86,0x00,0xec,0x01,0xe8,0xff, // 1312
0x3d,0x00,0xe2,0xff,0x60,0x00,0x32,0x00, 0xff,0x01,0xad,0xfb,0x6e,0x03,0x6e,0x02, // 1328
0xee,0x02,0x89,0xfb,0xb4,0x01,0x24,0xfe, 0x56,0xfd,0x5b,0xfd,0x0c,0x01,0xf2,0x03, // 1344
0xbf,0xfa,0xa7,0xfd,0x38,0x00,0xd5,0x00, 0x1b,0xff,0x38,0x04,0x07,0xfd,0x21,0x02, // 1360
0x7e,0xfd,0x03,0x01,0xeb,0x02,0x7e,0xfe, 0x07,0x00,0x47,0xff,0xe9,0x00,0x1b,0x04, // 1376
0xcc,0x03,0xab,0xfc,0x16,0x00,0x32,0xfe, 0x59,0x02,0xff,0x05,0x85,0x03,0x58,0x05, // 1392
0x9a,0xff,0x20,0xff,0xa1,0xff,0xe3,0xfe, 0x22,0x03,0x28,0x02,0x2f,0x03,0x8c,0xfd, // 1408
0x77,0xfd,0x6c,0xff,0xe0,0x03,0xad,0xfe, 0xc9,0x00,0x04,0xff,0x70,0xff,0x1d,0x00, // 1424
0xe2,0xfd,0x9e,0xfd,0x61,0x04,0x15,0x04, 0xbf,0x06,0xbc,0xff,0xde,0xfe,0xcf,0xfc, // 1440
0xb2,0xfd,0x5b,0xfe,0x52,0x00,0x0a,0x05, 0x81,0x00,0x82,0x00,0xba,0x00,0xc1,0xff, // 1456
0x0c,0xfc,0x68,0xfd,0xc6,0xfd,0x3b,0x01, 0xde,0x04,0x17,0x03,0x29,0x00,0x0a,0x02, // 1472
0x2b,0xff,0x50,0xf9,0xa5,0x01,0x1d,0xfb, 0x7f,0xfe,0x85,0xfd,0x7f,0xff,0x0e,0x00, // 1488
0xa9,0xfd,0xe8,0xfb,0x3f,0xff,0x5b,0x02, 0x6e,0x06,0xe1,0x02,0x2e,0x01,0x60,0x00, // 1504
0xe8,0xff,0xca,0x02,0xb6,0xfc,0xa9,0xfd, 0xfe,0x00,0xac,0xfd,0x71,0xfb,0xf2,0x00, // 1520
0x27,0x04,0x81,0x05,0xe9,0xfd,0x88,0x00, 0x1c,0xfd,0x43,0x00,0xa4,0x03,0xca,0xfc, // 1536
0x3d,0x00,0x11,0x00,0xe5,0xff,0x6f,0xfe, 0x36,0xfe,0xa6,0x03,0xb8,0xff,0x86,0xfe, // 1552
0xbc,0xfb,0x79,0xfe,0x09,0x00,0x49,0x00, 0xeb,0xfe,0x62,0xfe,0x6a,0x01,0x51,0x02, // 1568
0x1e,0xfd,0xd3,0x02,0xcf,0x0b,0xc2,0x01, 0xc4,0x01,0x5f,0xfd,0x81,0xfd,0xab,0xfe, // 1584
0x2c,0xfd,0x9b,0xff,0x2c,0x02,0xba,0xfb, 0x64,0x02,0x00,0x02,0x30,0x01,0x7e,0x00, // 1600
0xc8,0x01,0xad,0xfb,0x5f,0x03,0x6a,0x02, 0xc3,0x03,0x65,0xfd,0xc5,0xfd,0x88,0xff, // 1616
0xf6,0x00,0xe7,0xfb,0x1d,0x03,0x51,0x02, 0x7d,0xfe,0xbe,0x00,0x4d,0x00,0x46,0xfe, // 1632
0xe5,0xff,0xf6,0x00,0x69,0x01,0xad,0xff, 0xaf,0xff,0x0a,0xff,0x1e,0x04,0xac,0xfe, // 1648
0x06,0xfe,0x88,0xfb,0xa0,0x03,0x73,0x01, 0x3d,0xf8,0xb2,0xf9,0x0d,0xfb,0x5f,0x00, // 1664
0xd3,0x00,0x69,0x01,0x55,0x01,0xcb,0x01, 0x68,0xfc,0x61,0x04,0x23,0x00,0xe7,0x00, // 1680
0xc0,0xfc,0x58,0x01,0x63,0xfe,0xf7,0xff, 0x0f,0xfe,0x5e,0xff,0x10,0xff,0x95,0xfd, // 1696
0xb4,0x03,0x50,0xfe,0x85,0xfd,0x94,0x02, 0xe7,0xfc,0x78,0xfc,0x8a,0xfe,0xd3,0xfd, // 1712
0x71,0xf6,0x65,0xff,0xfe,0xff,0x64,0x02, 0xf1,0xf8,0x76,0xff,0xbc,0x00,0xdf,0x03, // 1728
0x45,0x01,0x18,0xfc,0xa8,0xf8,0x5c,0x00, 0xcc,0x03,0x00,0xff,0xdb,0x02,0x29,0x01, // 1744
0x45,0x01,0xf3,0xff,0xf6,0xff,0xef,0xff, 0xda,0xfe,0x1d,0xf7,0xd2,0xfc,0xd6,0xfa, // 1760
0xfe,0x01,0x99,0xf2,0xd3,0xfa,0x38,0x02, 0xa7,0x00,0xcb,0xff,0x5b,0x01,0xd6,0x02, // 1776
0x98,0xf8,0xd9,0xfc,0x59,0x01,0x31,0xfd, 0xf1,0xfa,0xa4,0xfe,0x59,0x03,0x34,0x05, // 1792
0x28,0x00,0xf1,0xfd,0xe9,0xfc,0xfb,0x02, 0x24,0x00,0x4c,0xff,0x04,0xfd,0x2e,0x01, // 1808
0xc0,0x01,0x62,0x01,0xad,0xfe,0x92,0xff, 0x59,0x00,0xd8,0x00,0xdc,0xfc,0xa8,0xfa, // 1824
0xea,0xf8,0x36,0x03,0xfd,0x00,0x0c,0xff, 0x97,0xfe,0xf0,0x01,0x88,0x01,0x64,0x02, // 1840
0x82,0xfb,0xfe,0x04,0x2b,0x00,0x1e,0x01, 0x2b,0xfc,0x36,0x00,0x4a,0xfc,0x76,0xfc, // 1856
0x35,0xfc,0x35,0x01,0x6d,0x04,0x2f,0x00, 0x81,0x01,0x25,0x02,0x11,0x01,0x4f,0x03, // 1872
0x76,0xfc,0xcb,0xf9,0xc9,0x00,0x32,0x02, 0x02,0xfe,0x7f,0xfe,0x0b,0xfc,0x0b,0xfa, // 1888
0x74,0x03,0x75,0xfa,0xc9,0xff,0x27,0x02, 0x84,0xfd,0xd9,0x01,0x57,0x06,0xde,0x02, // 1904
0xba,0xfe,0xf9,0x00,0x0d,0xff,0x1e,0x00, 0xba,0xff,0x3d,0xfe,0x58,0xfe,0x6d,0x04, // 1920
0xbe,0xff,0x81,0x01,0xb2,0x04,0x4f,0xfe, 0x5d,0xfb,0xde,0xfa,0x75,0x02,0xa6,0xfe, // 1936
0x91,0xf7,0x45,0xff,0x2b,0xfb,0x57,0xff, 0x9c,0xfe,0x45,0x02,0x4d,0xff,0x00,0xf6, // 1952
0x2f,0xfa,0x33,0xf9,0x92,0x01,0x43,0xfc, 0xb8,0xfc,0x8b,0x00,0x7d,0x06,0x7d,0x01, // 1968
0xd4,0x04,0xb1,0x01,0xf9,0x00,0x80,0xfa, 0x7b,0x00,0xe2,0x00,0xc2,0xfd,0x3e,0xff, // 1984
0x95,0x04,0xa8,0x02,0x10,0xfb,0x0f,0xfe, 0x2a,0xfb,0x32,0xff,0x23,0x02,0x6d,0xff, // 2000
0x6f,0x01,0xa1,0xfc,0x2d,0x01,0x4e,0xff, 0xb6,0xfe,0x32,0xfd,0x02,0xfc,0x69,0x04, // 2016
0xa5,0x04,0x5a,0xff,0xdb,0xfc,0x1b,0x01, 0x3f,0xff,0x13,0xfd,0x9d,0x02,0x56,0xff, // 2032
0x33,0x05,0x56,0x03,0xa2,0xf9,0xee,0x04, 0xcd,0xfe,0x53,0x01,0x89,0xfc,0x91,0x01, // 2048
0xfb,0x00,0x17,0xff,0xf3,0xfd,0x8d,0xff, 0x49,0xfd,0x89,0x03,0x26,0xfb,0x5d,0x01, // 2064
0x4f,0x04,0xbf,0xfc,0xa5,0x02,0x12,0x03, 0x7d,0x04,0x6d,0xff,0x09,0xff,0x38,0x04, // 2080
0xb4,0xfc,0x84,0xfb,0xe8,0xfb,0x29,0x02, 0xf5,0xfc,0x39,0xfc,0x68,0xff,0x2a,0x02, // 2096
0xd9,0x03,0x62,0x05,0x50,0x04,0x7a,0xfe, 0x51,0x00,0xda,0x01,0x4a,0x03,0xf4,0xfd, // 2112
0xe7,0xfc,0xb1,0x05,0xee,0xff,0x51,0xfb, 0x13,0xfe,0xde,0x00,0xcb,0xfe,0x41,0x06, // 2128
0x13,0xfd,0x75,0xfc,0x8d,0xf8,0xeb,0x03, 0x8e,0xff,0xe7,0xff,0x65,0xfc,0x66,0x03, // 2144
0x57,0xff,0x62,0xfc,0x2f,0xfe,0x8e,0xff, 0x17,0x00,0xa0,0x05,0x34,0xfc,0xe0,0x01, // 2160
0x51,0x0c,0x48,0x06,0x83,0x06,0xfa,0xfd, 0xe5,0xff,0xc9,0xfc,0x8b,0x00,0x19,0xfd, // 2176
0x38,0xfc,0x98,0xfd,0xa3,0x01,0x9e,0x03, 0xe7,0xfc,0x21,0x02,0xab,0xfe,0x9a,0xff, // 2192
0x3d,0x01,0x36,0xfd,0xda,0xfa,0x63,0xfd, 0x68,0xfe,0xb6,0xff,0x45,0xff,0xc5,0x03, // 2208
0xfb,0x08,0x24,0xff,0xff,0x02,0xf4,0xfa, 0x9f,0x01,0xf7,0x03,0xd9,0xfc,0x91,0x02, // 2224
0xc0,0x01,0xe9,0xfc,0x8d,0xfc,0xb5,0xf4, 0x29,0x02,0xd1,0xff,0x3b,0x00,0xa2,0xfc, // 2240
0xdd,0x02,0x48,0x00,0xb7,0x03,0xce,0x00, 0x04,0xff,0x23,0xfe,0xe9,0x01,0x38,0x04, // 2256
0x15,0xfe,0x1b,0x01,0x66,0x02,0x72,0x02, 0xb5,0x00,0x2c,0xff,0xfb,0xfd,0xe5,0x03, // 2272
0x69,0xfe,0xad,0xfd,0x3c,0x02,0x8f,0xfc, 0xb1,0xfc,0x97,0x01,0xa0,0x06,0x35,0x0a, // 2288
0xe0,0xfe,0xaa,0xff,0x19,0x00,0x9f,0xfc, 0x15,0x01,0xe8,0xf8,0x82,0x07,0x14,0x06, // 2304
0x27,0xfe,0x92,0xfc,0x7b,0xf7,0x14,0xfe, 0x15,0x05,0xbb,0x07,0xab,0x11,0x0e,0xfd, // 2320
0xbf,0xfa,0xed,0xfd,0x99,0xfa,0x69,0x0e, 0x8f,0xf5,0xd0,0xf3,0xd5,0x0b,0x7e,0x0a, // 2336
0xdb,0x0d,0x80,0x06,0x22,0x0f,0xfd,0x06, 0x67,0x02,0x10,0x04,0xe9,0xfb,0x48,0xf2, // 2352
0xbd,0xfe,0x05,0x0a,0x14,0xf6,0x5f,0xf9, 0xe4,0xf2,0x76,0xf6,0xe2,0xfc,0xc3,0xfb, // 2368
0x3f,0x00,0x75,0x0f,0xf7,0xf0,0x68,0x0e, 0xd7,0xf8,0xde,0x05,0x7b,0xf8,0xac,0xf1, // 2384
0x52,0x07,0x54,0x03,0x31,0xf4,0x67,0xfd, 0xca,0x06,0x00,0xf5,0xdb,0x0a,0xf2,0xf6, // 2400
0xc7,0xfd,0x47,0xf6,0x93,0xf3,0x2a,0xfb, 0x72,0xfa,0xeb,0x06,0x88,0x01,0x1c,0x02, // 2416
0x97,0x0b,0xcb,0xf8,0x19,0x04,0x93,0x01, 0xd6,0x05,0xba,0x0d,0x10,0xfa,0x5d,0xf7, // 2432
0x0e,0xfb,0x05,0x07,0xb9,0x0b,0xfe,0xf7, 0x72,0xf8,0x9b,0x00,0x71,0x05,0x08,0x07, // 2448
0x0d,0x06,0xfc,0xf4,0x24,0x01,0x89,0x01, 0xda,0x01,0x14,0xf7,0x9f,0x02,0x3e,0x02, // 2464
0x14,0x05,0x05,0xf9,0xf2,0xf6,0xfa,0xfd, 0xb5,0x00,0x8b,0xfa,0x7f,0x0e,0x7f,0xfa, // 2480
0x99,0xfe,0xca,0xf6,0x4d,0x01,0x22,0x0b, 0xcd,0xf1,0xdd,0xf5,0xae,0xfd,0x4f,0xf9, // 2496
0xb1,0x0c,0xd4,0xf9,0x47,0xf7,0xc6,0xfd, 0xb6,0xf9,0xa6,0x05,0x77,0xf8,0x8c,0x0c, // 2512
0x35,0xf4,0x80,0xfd,0x03,0xf7,0x97,0x04, 0x0c,0xf6,0x2b,0xff,0x7a,0xf7,0x3b,0xfa, // 2528
0x4b,0x06,0xcc,0xfd,0x6e,0xfa,0xa3,0xfa, 0x5f,0x01,0x11,0x09,0x07,0xf5,0xb6,0x08, // 2544
0x72,0xfa,0xf4,0x0a,0x5a,0x07,0x35,0x05, 0x3e,0xf6,0x4e,0x03,0x2d,0x04,0xa9,0xf7, // 2560
0xe3,0xf1,0x9a,0x07,0x2d,0x06,0x95,0xf5, 0xd6,0x04,0x52,0x0e,0xe8,0xf6,0xf9,0x00, // 2576
0x43,0x4d,0x44,0x00,0x20,0x03,0x80,0x00, 0x10,0x0a,0x00,0x00,0x10,0x0a,0x00,0x00, // 2592
0x01,0x01,0x00,0x02,0x0c,0x00,0x00,0x00, 0x00,0x00,0x00,0x00,0x00,0x00,0x00,0x00, // 2608
0x01,0x00,0x8c,0x00,0x01,0x00,0x01,0x00, 0x8c,0x00,0x01,0x00,0x00,0x00,0x00,0x00, // 2624
0x0d,0x00,0xff,0xff,0xff,0xff,0xff,0xff, 0x00,0x00,0x00,0x00,0x00,0x00,0x00,0x00, // 2640
0x00,0x00,0x00,0x00,0x00,0x00,0x00,0x00, 0x00,0x00,0x00,0x00,0x00,0x00,0x00,0x00, // 2656
0x00,0x00,0x00,0x00,0x00,0x00,0x00,0x00, 0x00,0x00,0x00,0x00,0x00,0x00,0x00,0x00, // 2672
0x00,0x00,0x00,0x00,0x00,0x00,0x00,0x00, 0x00,0x00,0x00,0x00,0x00,0x00,0x00,0x00, // 2688
0x00,0x00,0x00,0x00,0x00,0x00,0x00,0x00, 0x00,0x00,0x00,0x00,0x00,0x00,0x00,0x00, // 2704
0x43,0x4d,0x44,0x00,0x20,0x05,0x00,0x00, 0x90,0x0a,0x00,0x00,0x10,0x02,0x00,0x00, // 2720
0x01,0x00,0x00,0x02,0x0d,0x0b,0x0b,0x0a, 0x00,0x00,0x00,0x00,0x00,0x00,0x00,0x00, // 2736
0x01,0x00,0x8c,0x00,0x01,0x00,0x01,0x00, 0x64,0x00,0x01,0x00,0x00,0x00,0x00,0x00, // 2752
0x0c,0x00,0x0c,0xff,0xff,0xff,0xff,0xff, 0x00,0x00,0x01,0x00,0xc8,0x00,0x00,0x00, // 2768
0x00,0x01,0x02,0x00,0x18,0x01,0x00,0x00, 0x00,0x00,0x00,0x00,0x00,0x00,0x00,0x00, // 2784
0x00,0x00,0x00,0x00,0x00,0x00,0x00,0x00, 0x00,0x00,0x00,0x00,0x00,0x00,0x00,0x00, // 2800
0x00,0x00,0x00,0x00,0x00,0x00,0x00,0x00, 0x00,0x00,0x00,0x00,0x00,0x00,0x00,0x00, // 2816
0x00,0x00,0x00,0x00,0x00,0x00,0x00,0x00, 0x60,0x6d,0x00,0x00,0xc8,0x00,0x00,0x00, // 2832
0x6e,0x00,0xa5,0x00,0x44,0x03,0x44,0x00, 0xbd,0xfd,0x6f,0xfe,0xa5,0xfd,0x9f,0xfe, // 2848
0x18,0x01,0xbe,0x02,0x9f,0x00,0xd0,0x02, 0x6b,0x01,0xff,0xff,0xf6,0xff,0x7e,0xfe, // 2864
0xd7,0x01,0xfc,0xfd,0x5c,0xff,0xb3,0xfe, 0x3f,0x00,0xcd,0xfe,0x1b,0x01,0x3e,0xfd, // 2880
0x38,0x02,0x50,0x03,0x23,0x01,0x09,0x00, 0x88,0xff,0x27,0xff,0x29,0x02,0xe4,0xfe, // 2896
0x30,0x01,0x81,0x01,0x33,0x00,0xcd,0xfe, 0x4c,0xfe,0x68,0xfe,0xf3,0xfd,0xa1,0xfe, // 2912
0xb3,0xfa,0xed,0xfd,0xf9,0x00,0xc3,0x00, 0x97,0xfd,0xb1,0xfe,0x57,0x01,0x0c,0xff, // 2928
0x1f,0x00,0xe7,0x00,0x21,0x04,0x20,0x02, 0xaa,0xfd,0x53,0xff,0xb5,0x00,0xe3,0xfb, // 2944
0xe0,0x00,0xd4,0xfd,0x4e,0xff,0xa3,0x03, 0x1f,0x01,0xa7,0xfc,0x80,0x00,0x88,0x02, // 2960
0x25,0xfe,0x91,0x02,0xe0,0xff,0x23,0x00, 0x9d,0x00,0x4a,0xff,0x13,0x00,0xca,0x00, // 2976
0x99,0xfe,0xc6,0xff,0xcd,0x03,0x9d,0xff, 0x13,0x01,0xbb,0x00,0x4d,0x01,0x36,0x02, // 2992
0xa4,0xfe,0x50,0xfe,0x2f,0x00,0xb4,0x01, 0x7b,0xfe,0xf7,0xff,0x73,0xfe,0x87,0x00, // 3008
0x3c,0x02,0x92,0xff,0xf0,0xff,0x18,0x00, 0xed,0xfe,0x65,0xff,0x78,0xff,0x87,0xff, // 3024
0x34,0xff,0xcc,0xff,0x87,0xfc,0x9f,0x00, 0x6b,0x00,0x5e,0xfd,0x76,0xfd,0x38,0x01, // 3040
0x3f,0xff,0x4d,0xff,0x75,0x00,0x3f,0x00, 0xb6,0x00,0xf6,0x00,0xe3,0x01,0x74,0xff, // 3056
0x91,0xff,0xf9,0x00,0x4b,0xfe,0x1c,0xfe, 0x30,0x01,0x1d,0x00,0x70,0x01,0x00,0x01, // 3072
0xdb,0x00,0x03,0x05,0xdc,0x00,0x8c,0xfe, 0x95,0xff,0xe7,0xfd,0xd9,0xfe,0x9c,0xff, // 3088
0x37,0xfe,0xac,0xfe,0xc6,0x03,0x4d,0x01, 0x16,0x01,0x1a,0xfe,0x56,0xfe,0x36,0xfc, // 3104
0x49,0x02,0xaf,0xfe,0xde,0x00,0xba,0x00, 0x40,0x00,0x07,0x00,0x38,0x00,0x81,0x00, // 3120
0xda,0xff,0x39,0x00,0x1c,0x00,0xac,0xff, 0x7c,0x00,0x3b,0x00,0xc3,0xff,0x37,0xff, // 3136
0xa0,0xff,0xdf,0x00,0x8e,0xff,0x2f,0x00, 0x63,0xff,0x30,0xff,0x60,0xff,0x82,0xff, // 3152
0x21,0x00,0xec,0xff,0x86,0x00,0xab,0x00, 0x7f,0xff,0x53,0xff,0x0a,0x00,0x2e,0x00, // 3168
0x1a,0x00,0xa5,0x00,0x9d,0xff,0x7d,0xff, 0x20,0x01,0xc8,0xfe,0x63,0xff,0x10,0x00, // 3184
0x22,0x00,0x5f,0x00,0xfc,0xff,0xa6,0x00, 0x5e,0x00,0xa0,0xff,0x8b,0xff,0x1b,0x00, // 3200
0x4b,0x00,0x9e,0x00,0x5c,0xff,0x2a,0x00, 0x9e,0x00,0x1b,0x00,0xbc,0xff,0x71,0x00, // 3216
0x51,0x00,0x45,0x00,0xa9,0x00,0xdb,0xff, 0x3f,0x00,0xf7,0xff,0x93,0xff,0x53,0x00, // 3232
0xd7,0x00,0x87,0x01,0x71,0x00,0x86,0x00, 0xb4,0x01,0xcd,0x00,0x29,0xff,0xdc,0x00, // 3248
0xf5,0x00,0xdf,0xfe,0x17,0x00,0x60,0xff, 0x61,0xff,0xcc,0xff,0x6d,0x00,0xac,0xff, // 3264
0x1f,0x00,0x68,0xff,0x32,0x00,0x0c,0x00, 0x06,0xff,0xb9,0xff,0x26,0x00,0x77,0xff, // 3280
0xca,0xff,0x20,0x01,0x30,0xff,0x43,0x00, 0x3b,0xff,0x93,0x00,0x45,0x00,0xb7,0xff, // 3296
0x36,0x00,0x25,0x00,0x39,0x00,0xc2,0xff, 0xe7,0xff,0x44,0xfe,0x2d,0x00,0x92,0x00, // 3312
0x8e,0x00,0x1d,0x00,0x72,0xff,0xd5,0xff, 0xfb,0xfe,0x69,0x00,0xbe,0xff,0x38,0xff, // 3328
0x93,0x00,0xae,0x00,0xfe,0xff,0xdd,0xff, 0xf0,0xfe,0xdf,0xff,0xf0,0xff,0x0f,0x00, // 3344
0xb4,0x00,0xa6,0xff,0x10,0x00,0xe9,0xff, 0x36,0xff,0xf4,0xfe,0x29,0x00,0xba,0x00, // 3360
0xf8,0xff,0x8d,0xff,0x2b,0xff,0x0a,0x00, 0xbe,0xff,0x88,0xff,0xb4,0xff,0x86,0xff, // 3376
0x2f,0xff,0xcd,0x00,0x8c,0x00,0xbf,0xff, 0xe7,0xff,0xff,0xff,0x85,0xfe,0x15,0x00, // 3392
0xc5,0x00,0xa5,0x00,0x2a,0x00,0x3e,0xff, 0x2d,0x01,0x7c,0xff,0x3d,0xff,0x1b,0x00, // 3408
0xc2,0x00,0x3a,0xff,0xad,0x01,0x86,0x00, 0x62,0x00,0x9b,0xff,0xc4,0xff,0x9a,0x00, // 3424
0x72,0xff,0x16,0xff,0x2b,0x01,0xea,0xff, 0xf7,0xff,0xc9,0xff,0x7f,0x00,0xe3,0x00, // 3440
0x8d,0x00,0xaa,0xff,0x5b,0xff,0x16,0x00, 0x2e,0xff,0x29,0x00,0xa8,0xff,0x6e,0xfe, // 3456
0x8e,0xff,0xf5,0x00,0xec,0xff,0x20,0x00, 0x0d,0x00,0x3a,0x01,0x05,0xff,0x8c,0x00, // 3472
0x15,0x00,0x9d,0xff,0xc1,0xfe,0xdc,0xff, 0xed,0x00,0x87,0xff,0x44,0xff,0xea,0xfe, // 3488
0x75,0xff,0xd9,0xff,0xdf,0x00,0xd1,0xff, 0xd6,0xfe,0x41,0x00,0xbc,0xfe,0xe2,0xff, // 3504
0xca,0xff,0x09,0x00,0x27,0x01,0xac,0x00, 0xbf,0xff,0x17,0x00,0x80,0x00,0xe0,0xff, // 3520
0x14,0x00,0x05,0x01,0xe8,0xff,0xba,0xff, 0xb6,0xff,0x49,0x00,0x88,0x00,0xef,0xff, // 3536
0x91,0xff,0x17,0x00,0x0d,0x00,0xff,0xff, 0xc8,0xff,0xff,0xff,0xd1,0xff,0x1c,0xff, // 3552
0xdb,0xff,0x3d,0x00,0x64,0x00,0xd6,0x00, 0xda,0x00,0x08,0x00,0xaf,0xff,0x23,0xff, // 3568
0x5f,0xff,0xc1,0xfe,0xa4,0x00,0xf3,0xfe, 0xf5,0xff,0xca,0xff,0xe0,0xff,0xe9,0x00, // 3584
0x46,0x00,0x4f,0x00,0xd4,0x00,0x3b,0xff, 0xac,0xff,0xff,0xff,0x57,0x00,0xad,0x00, // 3600
0xce,0xff,0xf6,0xff,0xe9,0xff,0x8c,0x01, 0x4f,0x00,0x44,0x00,0x07,0x00,0x23,0x00, // 3616
0x89,0xff,0x9a,0xff,0x31,0x00,0xdc,0xff, 0xf0,0x00,0xa1,0xff,0x87,0x00,0x79,0xff, // 3632
0xa6,0x00,0x19,0x00,0x58,0xff,0x21,0x00, 0x67,0x00,0x99,0xff,0x29,0x01,0x29,0x00, // 3648
0xf1,0xff,0x0d,0x00,0xbc,0xff,0xf5,0xff, 0x12,0x00,0x64,0xff,0x51,0x00,0x0e,0x00, // 3664
0xec,0xff,0xcd,0x00,0xc5,0xff,0xde,0xff, 0x8a,0x01,0x4a,0xfd,0x53,0x00,0xe2,0x00, // 3680
0x10,0xff,0x19,0xff,0xbe,0xfc,0xf6,0xfd, 0xc0,0xff,0x97,0x02,0xb3,0x04,0xba,0x00, // 3696
0x04,0xff,0x45,0x02,0x0c,0xfe,0xd9,0xff, 0x3f,0xff,0x65,0xfd,0x88,0x01,0x51,0x01, // 3712
0x8b,0xff,0x39,0xff,0xb8,0x00,0x2c,0xfe, 0x48,0xff,0x10,0x06,0x22,0x01,0x01,0xfe, // 3728
0x3d,0x00,0x16,0x00,0x3b,0x00,0x64,0xff, 0x96,0xfe,0x13,0x00,0x7f,0xfa,0x35,0x00, // 3744
0xec,0x01,0xee,0xff,0x61,0xfd,0xf9,0x01, 0x2d,0xfb,0x22,0x01,0xa3,0x00,0xe2,0x00, // 3760
0xa5,0xfe,0x69,0x02,0x2e,0x00,0x48,0xff, 0xae,0x00,0x46,0x02,0xc0,0x03,0xeb,0xfe, // 3776
0x99,0xfd,0xc7,0x03,0xec,0xfe,0x3b,0xfd, 0xa5,0x00,0xda,0x00,0x27,0x04,0x45,0x07, // 3792
0xea,0x03,0x5c,0xfc,0xb8,0xff,0x97,0x00, 0xfd,0x00,0x57,0x02,0xb1,0xfe,0x9f,0xfe, // 3808
0x1d,0x00,0x6a,0xff,0x98,0x01,0x91,0xfd, 0xab,0xfe,0x9f,0x01,0x7c,0x04,0x8c,0x04, // 3824
0x08,0x03,0x65,0x00,0xbf,0x08,0x12,0x00, 0x06,0xfd,0x81,0xff,0xf9,0xff,0x7c,0x00, // 3840
0xdb,0xfe,0x42,0x00,0x99,0xfe,0x44,0xff, 0x03,0x02,0xfe,0xfe,0x5c,0x02,0x49,0xfe, // 3856
0x37,0x00,0xcd,0xfe,0x22,0x02,0x26,0x01, 0xa3,0xff,0x9b,0xff,0x21,0x00,0x05,0xff, // 3872
0x18,0x02,0x75,0xff,0x90,0x04,0xc9,0x00, 0xe7,0xfc,0xfd,0x01,0x33,0xf8,0xea,0x02, // 3888
0xcb,0xfb,0xd2,0x00,0xbd,0xfd,0x90,0xff, 0xb1,0x00,0xf6,0x01,0x75,0xfe,0xa5,0x00, // 3904
0x82,0xff,0xdf,0xfe,0x06,0xfc,0x17,0xfe, 0xeb,0xfd,0xdb,0x05,0xeb,0x00,0xd9,0xfe, // 3920
0x8a,0x01,0x51,0xfd,0x84,0x00,0xce,0x00, 0xb1,0xf8,0x48,0xff,0x2a,0x01,0xba,0xfe, // 3936
0x43,0xff,0x23,0x00,0xad,0xff,0xda,0xfb, 0x9e,0x01,0x19,0x01,0x55,0x00,0x96,0x09, // 3952
0x35,0x00,0x39,0x01,0x1d,0x03,0x08,0x00, 0x9a,0xff,0xca,0xff,0x76,0xfe,0x05,0xfd, // 3968
0x5b,0x05,0xd8,0x00,0x21,0x03,0xfe,0xfe, 0x92,0x00,0x31,0xfd,0x58,0x00,0x41,0x00, // 3984
0x88,0x00,0x38,0xff,0xb6,0x02,0x70,0xfe, 0x96,0x00,0x8e,0xfe,0x77,0x02,0x28,0xff, // 4000
0x87,0x02,0xd8,0x01,0x29,0x00,0xf1,0xff, 0x43,0x00,0x88,0xff,0xbc,0xff,0x22,0x00, // 4016
0xc9,0xff,0xfb,0x00,0x88,0x06,0x40,0x00, 0x2d,0xf3,0x42,0x01,0x36,0xff,0x92,0xff, // 4032
0xcc,0xfb,0x3a,0xf9,0xc6,0x00,0x5b,0xff, 0xb9,0xff,0xf0,0xfa,0x7b,0xff,0x55,0x00, // 4048
0xff,0xff,0x4d,0xfa,0x6c,0x03,0x03,0x02, 0x5f,0xfb,0x51,0xfb,0x12,0xfd,0xbb,0xfc, // 4064
0x17,0xfe,0xc7,0xfc,0xe9,0xfa,0xf6,0x01, 0x65,0xff,0xd8,0xff,0x0a,0x00,0x79,0xff, // 4080
0x5c,0xfb,0x8c,0x00,0x06,0xff,0x7c,0x00, 0x93,0xff,0x36,0x00,0xec,0xff,0x61,0x01, // 4096
0x74,0xfa,0xce,0xff,0x63,0x00,0x39,0x00, 0x0b,0x01,0xfc,0xff,0x68,0x00,0x56,0xff, // 4112
0xc6,0xfe,0xbb,0xff,0xd2,0x01,0x8a,0x00, 0x0a,0xfd,0xc7,0xff,0x24,0x00,0x9d,0xff, // 4128
0xd1,0xff,0xa0,0xff,0x3a,0x00,0x04,0xff, 0xfb,0xff,0xe9,0xff,0x05,0x00,0x9b,0x00, // 4144
0xd9,0xff,0x1b,0x00,0x9d,0xf9,0xa8,0x02, 0x96,0x00,0xee,0xfe,0x55,0xf3,0x5b,0x00, // 4160
0x97,0x00,0xad,0xfe,0x14,0x01,0xd9,0x00, 0x50,0x01,0xa6,0xff,0x13,0x07,0xe6,0xfd, // 4176
0x86,0x00,0xd4,0xfe,0xa9,0x00,0x99,0x00, 0xce,0xfe,0x68,0xff,0x79,0x01,0x34,0x04, // 4192
0x95,0x02,0xb3,0x00,0xd8,0xfe,0x9e,0xff, 0xd3,0xff,0x60,0x01,0x71,0x00,0x98,0x04, // 4208
0xc4,0xfd,0x82,0x02,0x19,0xff,0xdd,0x00, 0xde,0xff,0x1d,0xfb,0xa6,0xff,0xb5,0xfc, // 4224
0x79,0x01,0x2b,0x00,0x90,0x00,0x92,0xfe, 0x86,0x03,0x8e,0xfd,0xc2,0x01,0x29,0x00, // 4240
0xc3,0xfe,0x3f,0x01,0xc9,0xfe,0xde,0xff, 0xbd,0x01,0xbe,0x01,0x9a,0x00,0x16,0xfe, // 4256
0x36,0x00,0xeb,0xff,0xd4,0xff,0x03,0xff, 0x00,0x00,0x28,0xff,0xfa,0x00,0x31,0x00, // 4272
0x3a,0x00,0x73,0xfe,0xe5,0xff,0x67,0xfe, 0xbf,0xfd,0x1d,0x06,0x84,0x01,0x20,0x01, // 4288
0xf5,0xff,0xe6,0x00,0x03,0x01,0xf9,0x00, 0x06,0x01,0xcc,0xff,0x90,0xff,0xa5,0x00, // 4304
0xbf,0xff,0x2f,0xff,0xa2,0xff,0x98,0xff, 0xe5,0xfa,0x7c,0xff,0x22,0x00,0xa1,0x00, // 4320
0x05,0xff,0x7f,0xff,0xfe,0x00,0x31,0x00, 0x83,0x00,0xbd,0xfe,0x94,0x02,0x7c,0xff, // 4336
0xc5,0xfc,0xce,0xff,0x67,0xff,0x0f,0xf7, 0x3d,0xff,0x9f,0xff,0x49,0x04,0xc5,0x0a, // 4352
0x96,0x01,0xac,0x00,0xff,0xff,0xf6,0xfe, 0x65,0xfe,0xca,0x01,0xda,0xfe,0xcf,0x00, // 4368
0x2a,0x02,0xda,0x00,0xc7,0xfe,0xe3,0xfd, 0xe9,0xfd,0x22,0x00,0x4d,0x01,0x65,0x05, // 4384
0x7c,0x03,0x13,0x00,0x81,0x04,0x6a,0x00, 0x27,0xfd,0xca,0x00,0xa7,0xff,0xee,0xff, // 4400
0x01,0x00,0xae,0x00,0x29,0xff,0x0f,0x00, 0x13,0x03,0x22,0xff,0x71,0xff,0x1c,0xff, // 4416
0xe4,0xff,0x0b,0x00,0x56,0x00,0x31,0xff, 0x7c,0x00,0xd7,0x00,0x82,0xfc,0x40,0x00, // 4432
0xbd,0x00,0x39,0xfb,0x1e,0x00,0xef,0xfe, 0xc1,0xfe,0x40,0x02,0x62,0xfb,0xcb,0xff, // 4448
0xee,0xfc,0x3d,0x00,0x84,0x00,0x70,0xfe, 0xe7,0x00,0x9d,0x02,0x7e,0xfe,0xeb,0xfd, // 4464
0x63,0x01,0x21,0xfe,0x37,0xfb,0x6e,0xff, 0xa8,0x01,0xeb,0x01,0xfa,0xff,0xb2,0xff, // 4480
0xc1,0x02,0x5d,0xfe,0x3e,0x00,0xca,0x01, 0x7e,0xfb,0xe0,0x00,0x7c,0x04,0x26,0xff, // 4496
0x5d,0xff,0x7e,0xff,0xe5,0xff,0x0f,0xfa, 0x97,0x00,0x20,0x00,0x0b,0x00,0xd7,0x04, // 4512
0x43,0x00,0x36,0xfe,0x59,0xff,0xc4,0xff, 0x94,0xff,0xa9,0x01,0x46,0x01,0x4c,0x01, // 4528
0xf1,0xff,0x28,0x00,0x57,0x00,0x82,0xff, 0x6a,0xff,0x54,0x00,0x8e,0x00,0x74,0xff, // 4544
0xdf,0x00,0x00,0x00,0x00,0xff,0x0f,0x00, 0x3a,0x00,0xe5,0xff,0x59,0x00,0xfb,0xff, // 4560
0x2c,0x00,0x38,0x01,0x94,0xff,0x01,0x00, 0x2e,0x02,0xa5,0x00,0x1f,0x00,0xba,0x01, // 4576
0xec,0x00,0xd8,0xfe,0xe2,0xff,0xb0,0x00, 0xca,0xff,0x9e,0xff,0xbc,0x00,0x3e,0x00, // 4592
0x27,0x00,0x4c,0x00,0x17,0x00,0xbc,0xff, 0x51,0x00,0x70,0xff,0x70,0x00,0x5b,0x01, // 4608
0x58,0xff,0x68,0xff,0x82,0x00,0x41,0xff, 0xdc,0xff,0x6b,0xff,0x0a,0x01,0x36,0xff, // 4624
0xad,0xff,0x1c,0x00,0xab,0xff,0xae,0xff, 0x4f,0x00,0xec,0x00,0xbc,0xff,0xc8,0xff, // 4640
0x48,0x00,0xb5,0xff,0x35,0xff,0x24,0x00, 0x40,0x00,0xb0,0xff,0x00,0x00,0xa2,0xff, // 4656
0x6f,0xff,0x5a,0x00,0xf1,0xfe,0x58,0x00, 0x1b,0xff,0xa1,0xff,0x2f,0x00,0x8a,0x00, // 4672
0xec,0xff,0xa5,0xff,0x79,0xff,0x0d,0xff, 0xd8,0xff,0xae,0x00,0x71,0x00,0x16,0x01, // 4688
0xc7,0x00,0x7d,0x01,0x09,0xff,0xd8,0x01, 0x01,0x01,0x55,0x00,0x77,0x00,0x2c,0xff, // 4704
0x41,0x00,0xc5,0xff,0xab,0xff,0x9a,0xff, 0xeb,0xff,0x17,0x01,0x3a,0xff,0x41,0xff, // 4720
0xe7,0xff,0x4a,0xff,0x94,0x00,0xb3,0xfe, 0xc6,0xfe,0x35,0xff,0x70,0xff,0x51,0x00, // 4736
0x30,0x00,0x16,0x01,0x06,0x00,0x04,0x01, 0x8d,0x00,0x75,0x00,0x56,0xff,0x12,0xff, // 4752
0x5d,0xff,0x0a,0x00,0x17,0x00,0x97,0x00, 0x78,0x00,0x0b,0x01,0xce,0xfe,0x19,0xff, // 4768
0x87,0x00,0xde,0xfe,0x7a,0xfe,0x3b,0xff, 0xf6,0xff,0x7e,0x00,0xe4,0xff,0x23,0xff, // 4784
0x35,0x00,0xa3,0x00,0x71,0xff,0x63,0x00, 0x06,0x00,0x65,0x00,0xd0,0x00,0x07,0x00, // 4800
0xcf,0xff,0xe1,0xff,0x80,0xff,0xa4,0x00, 0xc9,0x00,0xb2,0xff,0x3c,0xff,0x40,0x00, // 4816
0xcc,0xff,0x13,0x00,0xe1,0x00,0x3f,0x00, 0x52,0x00,0x4e,0xff,0x43,0xff,0x16,0x00, // 4832
0x15,0x00,0x32,0x00,0xa9,0xff,0x71,0x00, 0x33,0x00,0x39,0x00,0x43,0x00,0x38,0x00, // 4848
0xf4,0xfe,0x88,0x00,0xa8,0x00,0xac,0xff, 0xd7,0xff,0x4b,0xff,0x08,0x00,0x26,0x00, // 4864
0xe9,0xff,0x12,0xff,0x2c,0x00,0x5b,0x00, 0xd1,0xff,0xe8,0xff,0x77,0x00,0x39,0x00, // 4880
0xf4,0xff,0x41,0x00,0x4b,0x00,0x16,0x00, 0xd6,0x00,0x81,0xff,0x8c,0x00,0xd3,0xff, // 4896
0x4f,0x00,0x19,0x00,0x08,0x01,0x8b,0xff, 0xa0,0x00,0x95,0x00,0x09,0x01,0x55,0x00, // 4912
0x49,0x00,0x75,0x00,0xf8,0xff,0x74,0x00, 0xf4,0xfe,0xae,0xff,0x93,0xff,0x43,0x00, // 4928
0x40,0x00,0x8b,0xff,0xfa,0xfe,0xa2,0x01, 0xa9,0x00,0x1e,0xff,0x87,0x00,0xea,0xff, // 4944
0xf1,0xff,0x71,0xff,0xc6,0x00,0x62,0x00, 0xb8,0x00,0xc6,0x00,0x5c,0x00,0xb0,0xff, // 4960
0xf4,0xff,0x4b,0x00,0x46,0xff,0x1c,0x01, 0xcb,0x00,0xdc,0xff,0x8e,0xff,0x3e,0x00, // 4976
0xe8,0xff,0x10,0x00,0x3b,0x00,0xb2,0x00, 0x3f,0x01,0x71,0x00,0xb2,0xff,0x85,0x00, // 4992
0x71,0x00,0x41,0xff,0x60,0x00,0x34,0xff, 0xeb,0xff,0xd7,0xfe,0x77,0x00,0x84,0xff, // 5008
0x3e,0xff,0xef,0xff,0x8e,0x00,0x9f,0x00, 0x35,0x00,0x7c,0xff,0x94,0x00,0x39,0x00, // 5024
0xa8,0x00,0xf8,0xff,0x7c,0x00,0x3b,0x00, 0x06,0x00,0xcb,0xff,0x40,0xff,0x06,0x00, // 5040
0x59,0x00,0x6c,0xff,0x97,0xff,0x03,0x00, 0xe4,0xff,0x1c,0xff,0xa4,0xff,0xe9,0xfe, // 5056
0xa6,0x00,0xc7,0xff,0xdc,0xff,0x4a,0x00, 0x35,0x00,0x79,0xff,0x30,0x00,0xf5,0x00, // 5072
0x7e,0x02,0x8b,0x00,0xa1,0xff,0xd6,0xff, 0x4a,0xfd,0x29,0x00,0x29,0x01,0xa5,0x06, // 5088
0x70,0xfe,0x0a,0x00,0xf5,0xfb,0x2d,0xfe, 0xfc,0x03,0x4a,0x01,0x75,0x05,0x31,0x00, // 5104
0x0a,0xff,0x6c,0x00,0x73,0x00,0x83,0x00, 0xdc,0x00,0xaf,0xff,0xa8,0xfd,0x21,0xfb, // 5120
0x12,0x01,0x32,0xff,0x4c,0x02,0x4c,0x04, 0x11,0xfd,0x70,0xfe,0xad,0x04,0x5c,0x00, // 5136
0x38,0x01,0xd4,0x00,0x5e,0x00,0xce,0x00, 0xb5,0x01,0xae,0xfb,0x05,0x05,0xf1,0xfd, // 5152
0x2e,0x03,0xe9,0xfe,0x3d,0xfe,0xfb,0x02, 0xc0,0xfd,0x1d,0xff,0x4d,0x00,0x65,0xff, // 5168
0x61,0xff,0x59,0x02,0xff,0xfd,0x77,0x03, 0x80,0x03,0x06,0x01,0x4d,0x01,0xe2,0x00, // 5184
0x84,0x02,0x62,0xfd,0x59,0xfb,0x35,0xfd, 0xdf,0xff,0xb8,0x04,0xe9,0x00,0xc4,0x00, // 5200
0x50,0xfc,0x02,0xfd,0x37,0xfc,0xe7,0x00, 0x89,0x01,0x7b,0x00,0xc7,0xfd,0xdf,0xfe, // 5216
0x0a,0x01,0xb3,0x00,0xc2,0xfe,0xa6,0xfe, 0x6b,0xfc,0x41,0x00,0x17,0xff,0x2d,0x01, // 5232
0x72,0x00,0x81,0x00,0x54,0xfc,0x20,0x01, 0x22,0xff,0x42,0x00,0x7e,0x03,0xb0,0xff, // 5248
0xcf,0x01,0x97,0xff,0x2a,0xfb,0xec,0xfe, 0x4b,0xff,0x8e,0x02,0x18,0xfd,0x1f,0x00, // 5264
0x42,0x00,0x07,0x02,0x4f,0x00,0xb2,0x02, 0xc5,0xff,0x6d,0x00,0x91,0x03,0xb7,0xf8, // 5280
0xb5,0x00,0xd7,0xff,0xa0,0x03,0xe1,0xfd, 0x41,0xfe,0x43,0x05,0x86,0xff,0x10,0x00, // 5296
0x66,0x00,0x75,0x02,0xd7,0xfe,0xe3,0xfe, 0x45,0x01,0x29,0x00,0x55,0x01,0x2d,0x01, // 5312
0xe9,0xfe,0x38,0xfd,0x23,0x00,0x7c,0xfd, 0xd3,0x01,0xdf,0xfb,0xe6,0x00,0xbd,0xfc, // 5328
0xa9,0x03,0xde,0xfd,0x91,0x01,0x30,0xfc, 0x25,0x04,0x38,0xfe,0x78,0xfe,0x0b,0x03, // 5344
0x3f,0x00,0xe7,0xff,0xb4,0x02,0x8b,0xff, 0x4b,0xfb,0xf5,0x01,0x49,0x00,0xcc,0xff, // 5360
0xd1,0x02,0x0d,0x02,0x54,0x03,0xcc,0xfc, 0x54,0xff,0x25,0xfe,0xfa,0xf4,0x62,0x02, // 5376
0xd2,0xfd,0xfb,0xfe,0x69,0xfe,0xca,0xfb, 0x82,0x04,0xf5,0x01,0x8a,0xfa,0xff,0xfc, // 5392
0xa9,0xfe,0x8e,0x00,0x27,0xfc,0x3b,0x02, 0x7c,0xff,0xe5,0xff,0x0b,0xfe,0x2b,0x01, // 5408
0x21,0x03,0xbb,0xff,0xe8,0xfe,0x49,0x00, 0x27,0x02,0x3e,0x00,0xe9,0x00,0x83,0x01, // 5424
0x43,0xff,0x5d,0xfd,0x8c,0x01,0xe9,0xfd, 0x75,0xff,0x04,0x01,0xd3,0x05,0x07,0x02, // 5440
0x0f,0x02,0xe5,0xff,0x1e,0x02,0x52,0x01, 0xd3,0xff,0xb8,0x00,0xde,0xfd,0x93,0xfe, // 5456
0xe2,0xff,0x67,0x01,0xd1,0x05,0x2f,0xfd, 0xc5,0xff,0x60,0x00,0xad,0x00,0xb1,0x02, // 5472
0x75,0xfd,0x9c,0xff,0x1d,0x00,0x88,0xff, 0xcf,0x03,0x21,0xff,0xe0,0x07,0x44,0x03, // 5488
0xcf,0xfe,0xcc,0xfe,0x4c,0xfe,0x1c,0x05, 0x92,0x02,0xa8,0xff,0x0e,0xff,0x2a,0xff, // 5504
0x2a,0x00,0xa1,0x00,0x34,0xff,0x3d,0xff, 0xf7,0xff,0x61,0x01,0x06,0x02,0x01,0xfe, // 5520
0xae,0x00,0xcb,0x01,0xaa,0x00,0x1b,0x02, 0x21,0xfe,0x0d,0x03,0xb4,0xfd,0x8d,0x02, // 5536
0xe9,0xff,0x66,0xff,0x57,0x00,0x39,0xfd, 0xf7,0x01,0x0b,0x00,0x63,0xfd,0xc6,0xfe, // 5552
0xd4,0xfd,0x1f,0xfe,0xbe,0x01,0x58,0x07, 0x30,0x00,0x62,0xff,0xd5,0xff,0xfa,0xfb, // 5568
0xde,0x06,0xa7,0xfb,0x4e,0x01,0xa6,0x02, 0x6e,0xff,0xdb,0xfb,0x25,0x00,0x2b,0x00, // 5584
0x30,0x01,0x71,0x03,0x73,0x01,0x66,0x00, 0x94,0x00,0xe3,0xfb,0x9e,0x00,0xf8,0xfe, // 5600
0x73,0xfe,0x91,0xff,0x93,0xfb,0xcf,0xff, 0x2e,0x00,0x04,0x02,0xdd,0xff,0xca,0x05, // 5616
0x0d,0x01,0x2a,0x01,0xa7,0x00,0x22,0x00, 0xec,0xfe,0x5b,0xf7,0x3e,0xff,0x09,0x00, // 5632
0x15,0xff,0x4e,0x01,0x2f,0x00,0xb4,0xff, 0xe5,0xfe,0x2a,0x01,0x4c,0x01,0xaf,0x00, // 5648
0xa0,0xff,0x8a,0x00,0x71,0xfe,0xd6,0x00, 0x9f,0xfe,0xf0,0xff,0x25,0x00,0x78,0x00, // 5664
0xf8,0xff,0xc8,0xff,0x2c,0xfd,0xc2,0x00, 0x56,0xff,0xab,0x00,0x5a,0x00,0x41,0x00, // 5680
0xa0,0xff,0x2c,0x00,0x71,0x00,0xf8,0xfe, 0x83,0x01,0x9a,0x00,0x93,0xff,0x07,0x01, // 5696
0x99,0xfe,0x4e,0xff,0xd9,0x00,0xc8,0xff, 0x9b,0xff,0x3c,0xff,0x4b,0x00,0xa1,0x00, // 5712
0x67,0x00,0x40,0xff,0x98,0xff,0x54,0x00, 0xc7,0x00,0x5d,0xff,0x10,0x01,0x26,0x01, // 5728
0xa5,0x00,0x17,0xff,0x73,0xff,0xd8,0xff, 0x39,0x01,0xd8,0xfe,0x81,0x02,0xf7,0xff, // 5744
0x75,0x00,0x21,0x00,0x00,0x01,0x40,0x01, 0xe4,0xff,0x8a,0xff,0x23,0xff,0x12,0x00, // 5760
0xf6,0xff,0xbf,0xff,0xbd,0xff,0x1c,0x01, 0x30,0xff,0x78,0xff,0x80,0x00,0x40,0x01, // 5776
0x7f,0x00,0x78,0xfe,0x0e,0xff,0x6f,0xff, 0xca,0xff,0xa2,0xff,0xd6,0xff,0x32,0x01, // 5792
0x89,0x00,0xea,0x00,0xaa,0xff,0x38,0xff, 0x4f,0x00,0x0f,0x01,0x6d,0xff,0xf0,0xff, // 5808
0x5e,0x00,0x40,0x01,0xb7,0x00,0x3d,0x01, 0x9e,0xff,0xd7,0xff,0x39,0xff,0x83,0xff, // 5824
0xe2,0x00,0x04,0xff,0x2d,0x00,0x15,0x00, 0x02,0x00,0x3d,0x00,0xe9,0xff,0x2b,0x00, // 5840
0x33,0xff,0x69,0xff,0x19,0x00,0x31,0xff, 0x65,0xff,0x26,0xff,0x0f,0xff,0xa8,0xff, // 5856
0xaf,0x00,0x5b,0xff,0x54,0x01,0x86,0x00, 0xea,0xff,0x01,0x01,0x60,0x00,0x0b,0x00, // 5872
0xb7,0xff,0x8e,0xfe,0xfd,0xff,0x45,0x01, 0xee,0xff,0xd5,0xff,0xfd,0xfe,0xaf,0xff, // 5888
0xb6,0xff,0xb5,0xff,0x40,0x00,0xbe,0xff, 0xde,0xff,0x7c,0x00,0x3b,0x00,0x55,0xff, // 5904
0xca,0xff,0xab,0xfe,0x93,0xff,0x80,0x01, 0x0f,0x01,0xda,0xff,0x7f,0xfe,0x13,0x00, // 5920
0x43,0xff,0xf1,0x00,0x28,0x03,0x76,0x03, 0x32,0xfe,0xdd,0xfd,0xf9,0xfc,0x3f,0xfc, // 5936
0xd2,0x00,0xf2,0xfe,0x08,0x03,0x3b,0x02, 0x65,0xff,0x9f,0x01,0x33,0x00,0x8b,0x01, // 5952
0x7e,0x01,0x8a,0x01,0x56,0xfe,0xfa,0xff, 0x3e,0x01,0xad,0xfc,0xa2,0xfc,0xf4,0x01, // 5968
0xa4,0x00,0x1e,0x01,0x06,0x00,0x09,0x01, 0xd8,0x00,0xf2,0xfe,0xfa,0x00,0x01,0x00, // 5984
0xde,0x02,0xa1,0xff,0xdd,0x02,0xb3,0xfe, 0x50,0x08,0x11,0x02,0x12,0xfd,0x9b,0xfe, // 6000
0x8a,0x01,0x39,0x00,0x2f,0xff,0x41,0x00, 0x81,0x00,0xb6,0xfe,0xbe,0xfc,0x87,0xff, // 6016
0xf1,0x07,0x6d,0xff,0x80,0x00,0x56,0x00, 0x90,0xff,0x5f,0x00,0xbd,0xff,0x2f,0xff, // 6032
0xe7,0xfe,0x80,0x05,0xf7,0xff,0xeb,0x00, 0x91,0xff,0x28,0xfd,0x1c,0xfe,0x33,0x02, // 6048
0x49,0x01,0x81,0xff,0x11,0xff,0xf2,0xfe, 0x4a,0x03,0x38,0x00,0xe6,0xfb,0xba,0xfd, // 6064
0xbf,0xfa,0x2c,0x00,0x3f,0xfd,0x2c,0x00, 0xbd,0x05,0xfa,0xff,0xb5,0xfe,0x42,0xff, // 6080
0x64,0x02,0xa2,0x00,0xa8,0x02,0xe2,0x00, 0x16,0x00,0x46,0x01,0xe0,0xfd,0x1f,0x01, // 6096
0x92,0xff,0xae,0x01,0x5b,0xf9,0x25,0xfe, 0x3a,0x00,0xce,0xfe,0xd1,0x00,0x48,0xff, // 6112
0x05,0x00,0x57,0xfc,0xda,0x01,0x72,0xfd, 0x4a,0x02,0x42,0xfd,0x56,0x03,0x9e,0xfd, // 6128
0x15,0xfe,0x8e,0x00,0xda,0xfd,0x82,0x00, 0xdd,0xff,0xd0,0xff,0x3a,0xfe,0x08,0xfc, // 6144
0xbe,0x02,0x22,0x00,0x56,0x02,0x30,0xfe, 0xf2,0xff,0xe5,0xf8,0x83,0xff,0xe0,0x01, // 6160
0x16,0x00,0xbd,0x01,0x3a,0x00,0x7c,0xff, 0x3c,0x05,0x59,0xff,0x6b,0x06,0x6c,0xfe, // 6176
0x89,0x00,0x9c,0x01,0xaa,0x02,0xc2,0x04, 0xc0,0xfe,0xad,0x01,0xbd,0xfe,0x40,0xfd, // 6192
0x06,0x03,0xc2,0xfb,0x24,0x00,0x66,0x00, 0x57,0x04,0x39,0x01,0x6e,0x00,0xe3,0xfe, // 6208
0x8c,0x01,0xb6,0xfd,0x6b,0xff,0x8e,0xf9, 0x9a,0xff,0x01,0xfd,0xac,0x00,0x59,0x00, // 6224
0x10,0xfe,0x17,0xff,0x0a,0x00,0x6d,0x02, 0xc0,0xff,0xc5,0xfd,0xa6,0xff,0xee,0x07, // 6240
0x04,0xfd,0x14,0xff,0xd3,0xff,0x51,0x00, 0x9e,0x00,0xdd,0x01,0x80,0xfc,0x56,0x00, // 6256
0x71,0x00,0x9e,0xfd,0x72,0x01,0x50,0x00, 0x9c,0xfe,0xdf,0x00,0xc3,0xff,0x58,0x00, // 6272
0xea,0xfe,0xed,0x01,0xd5,0xfd,0x91,0xff, 0xbd,0x00,0x03,0xff,0x4e,0x00,0xd4,0xff, // 6288
0xdd,0x00,0xa6,0xfc,0x8d,0x00,0x41,0xfc, 0x3b,0xfd,0x5e,0xfe,0xaf,0xfe,0x45,0x00, // 6304
0x07,0xfc,0xca,0x01,0x65,0x05,0xaf,0xfe, 0x32,0x01,0xce,0x04,0xed,0x00,0xfb,0xfa, // 6320
0xcf,0xfe,0x8c,0x00,0x60,0x01,0xdc,0x01, 0x3d,0x04,0x56,0x00,0xb8,0xff,0x60,0xfc, // 6336
0x1c,0xfe,0x7b,0x01,0x5b,0xff,0xe4,0x02, 0x15,0x02,0xd7,0xff,0x36,0x01,0x58,0xfd, // 6352
0xbe,0xfe,0x48,0x02,0x86,0xff,0xe3,0xff, 0x7b,0x02,0x5c,0x01,0x54,0x00,0x86,0xff, // 6368
0xcd,0xfa,0x23,0x00,0x33,0x00,0x8e,0x00, 0x37,0x00,0xfd,0x00,0x7f,0x01,0x1b,0xff, // 6384
0xae,0xff,0x5b,0xfd,0x6f,0xfe,0x53,0xfd, 0xa8,0x01,0x1f,0xfe,0xde,0xfd,0xf0,0xff, // 6400
0x22,0x00,0x70,0x02,0xf1,0xfe,0xc8,0xfd, 0xf2,0xfe,0x03,0xfe,0x04,0xff,0xd6,0xfc, // 6416
0x01,0xff,0xcd,0x02,0xad,0x01,0x64,0x00, 0xb1,0xff,0x30,0xfe,0x3f,0xfe,0x50,0xfb, // 6432
0x46,0x01,0x73,0xfc,0x83,0xfe,0xa4,0x03, 0xe2,0x03,0x25,0x02,0x1f,0x02,0xea,0x03, // 6448
0x2b,0xff,0xe7,0x01,0x05,0xfd,0xb8,0xff, 0x36,0xfd,0xe6,0x00,0x14,0x03,0x27,0xff, // 6464
0x76,0xff,0x23,0x03,0x1e,0xfd,0xce,0xfe, 0xe0,0x01,0x9d,0xff,0x64,0x01,0x93,0x00, // 6480
0xdc,0x00,0x5a,0x00,0xf1,0xfe,0xde,0x01, 0x8d,0x00,0xe7,0xff,0x2a,0x03,0xde,0xfd, // 6496
0xff,0x01,0xcc,0xff,0x2b,0x01,0x06,0x02, 0xde,0xfe,0xc5,0xfe,0x5e,0x02,0xba,0x02, // 6512
0xdc,0x02,0x52,0x00,0x62,0x02,0x5c,0x01, 0x64,0xff,0xc8,0x00,0xcf,0xfe,0xe8,0x00, // 6528
0xae,0xfe,0x2c,0x00,0xd7,0xfe,0xb7,0x00, 0xbb,0x01,0xa2,0xff,0x43,0x00,0x6e,0x00, // 6544
0xbf,0x01,0x74,0x00,0xf4,0xff,0x38,0xff, 0x14,0x00,0xa1,0x04,0x72,0xfc,0xf8,0xfd, // 6560
0x70,0x00,0x02,0x01,0xe8,0xff,0x58,0xff, 0x7f,0x00,0xe9,0xfc,0x37,0x01,0xa4,0xfc, // 6576
0x84,0x00,0x24,0xfe,0x49,0xfd,0x8b,0xfe, 0xcb,0xff,0x2c,0x03,0x60,0x01,0xa3,0x01, // 6592
0x20,0x00,0xe7,0x01,0xd4,0x00,0xd3,0xfe, 0xef,0xff,0xee,0x00,0xc2,0xfc,0x69,0x00, // 6608
0xd4,0x00,0xf3,0xff,0xec,0xfe,0x1c,0xfc, 0x36,0xff,0x79,0x01,0x72,0x00,0xa6,0x00, // 6624
0xe4,0xff,0x96,0x00,0x97,0x00,0xa6,0xff, 0x30,0x01,0x3c,0x00,0xbc,0xfd,0xbd,0x00, // 6640
0x1e,0x04,0xeb,0x00,0x7a,0x00,0x7b,0xff, 0xae,0xff,0xf7,0xff,0x24,0xff,0x75,0xff, // 6656
0x79,0xff,0x9e,0x01,0x23,0xff,0xd2,0xfe, 0x7e,0x00,0x6f,0x00,0xa2,0xfe,0xb9,0xfb, // 6672
0x3b,0x00,0x16,0xfd,0x63,0xff,0xd0,0xfb, 0x7f,0x00,0x15,0x00,0x1c,0x00,0xd5,0xfe, // 6688
0x9e,0xf7,0x2a,0x01,0xc0,0xfb,0xba,0xff, 0xb5,0xff,0x73,0x01,0xe5,0xfe,0x0a,0xfe, // 6704
0xd2,0xff,0xf1,0xff,0x06,0xff,0x48,0xfb, 0x2e,0x00,0xa7,0xfe,0x56,0xfe,0x55,0x00, // 6720
0x49,0x00,0x5f,0x00,0x96,0x01,0xcd,0x00, 0xa4,0xfe,0x3f,0x00,0xfd,0x01,0xd2,0xfc, // 6736
0xe0,0x00,0x7a,0x03,0x18,0x00,0xdf,0xfe, 0xf4,0xff,0x32,0x02,0xf1,0xff,0xe2,0x00, // 6752
0x33,0xff,0x20,0x00,0x73,0x03,0x10,0x00, 0xd3,0x00,0x4d,0x00,0xad,0xfe,0x31,0xfa, // 6768
0x3c,0x02,0x66,0xff,0xa3,0xfe,0x06,0x00, 0x9a,0xfe,0xc1,0xfd,0xf4,0xfc,0x9a,0xfe, // 6784
0xa4,0xff,0xd3,0xfe,0x4c,0xff,0x97,0x00, 0x37,0x01,0xfb,0xfe,0xfe,0x00,0xb0,0x01, // 6800
0xf6,0xff,0xf9,0x00,0x63,0xfc,0x59,0xff, 0x01,0x01,0x0b,0x00,0xc6,0xfd,0xfb,0xff, // 6816
0xfc,0xff,0xb0,0x00,0x05,0x02,0xeb,0xff, 0x79,0xfd,0x33,0x00,0xdc,0xfd,0x48,0x01, // 6832
0x99,0xfb,0x40,0x02,0x6c,0x00,0x2a,0xfe, 0xba,0x00,0x78,0xff,0xe5,0x00,0xab,0xff, // 6848
0x2a,0xff,0x8a,0xf8,0xa0,0x00,0x58,0xfc, 0xcf,0xfa,0x91,0xfc,0x96,0x00,0x53,0xfd, // 6864
0xea,0xfd,0xe1,0x00,0x87,0x02,0xeb,0x02, 0xe6,0xff,0x41,0xff,0xd5,0xff,0xca,0xfe, // 6880
0xf1,0xff,0x88,0x02,0xf3,0x03,0xad,0xff, 0xfa,0xff,0xac,0xff,0x8b,0xff,0x81,0x01, // 6896
0x0d,0xfd,0xe1,0xff,0xed,0x00,0xb6,0x01, 0x51,0x04,0xa0,0xff,0x0c,0x02,0x55,0xfe, // 6912
0xdd,0xff,0x28,0xff,0x4c,0x02,0xfb,0xff, 0x8f,0x02,0x1b,0x00,0xf7,0xfd,0x68,0x00, // 6928
0xb5,0xfe,0x41,0xff,0x42,0x01,0x59,0xff, 0x63,0x00,0x22,0xff,0x25,0x01,0x2f,0x00, // 6944
0xe1,0x00,0x3f,0x00,0x56,0xfb,0xc7,0xfd, 0x68,0x00,0xd4,0xfb,0x30,0xfc,0xa0,0x05, // 6960
0x28,0xff,0xb2,0x01,0xc7,0xfa,0xfd,0xfe, 0xdf,0x01,0x10,0xfe,0x57,0x01,0x4f,0x00, // 6976
0xff,0xff,0x3b,0xff,0x86,0xfd,0xb9,0xfe, 0x7d,0x02,0x5d,0xff,0xbe,0xfe,0xcf,0xff, // 6992
0x46,0x02,0x83,0xff,0xfd,0xfd,0x12,0xfe, 0x95,0x00,0xe1,0x00,0xf5,0xfe,0x25,0x07, // 7008
0x57,0xfc,0x2d,0x03,0xdc,0xff,0xab,0x02, 0xd2,0xff,0x8d,0x01,0x1e,0xff,0x84,0xfd, // 7024
0x7c,0x00,0x74,0xff,0x56,0x00,0x35,0x00, 0x9b,0xfe,0x64,0xff,0x59,0xfd,0x6d,0xff, // 7040
0x26,0x00,0xc6,0x00,0x29,0x02,0x8a,0x00, 0x64,0xfd,0xda,0x00,0xa2,0xfa,0xc8,0x01, // 7056
0xa4,0xff,0x25,0x03,0x2c,0xff,0xed,0xfb, 0x1e,0x01,0x09,0x00,0xcb,0xf9,0xd0,0xfe, // 7072
0x7f,0xfd,0xd2,0xfe,0x34,0xfa,0x47,0xfe, 0x6d,0xfd,0x54,0x01,0x86,0x01,0xd8,0x00, // 7088
0x21,0x01,0xc1,0xff,0x40,0x02,0x7e,0x00, 0xc2,0x00,0x4e,0x00,0x5d,0xfa,0x04,0x01, // 7104
0xab,0x05,0x7f,0xfc,0xcd,0x00,0x6a,0xff, 0x65,0x00,0xbd,0x05,0x27,0x02,0xca,0x04, // 7120
0xed,0xfe,0x64,0x02,0xec,0x00,0xd9,0x00, 0xf5,0xff,0xa6,0x0c,0x24,0xfe,0x9f,0xff, // 7136
0x78,0x01,0xb5,0x0a,0xda,0x05,0x13,0x00, 0x06,0x03,0x03,0x02,0x56,0x02,0x0d,0x02, // 7152
0x46,0x00,0x2b,0xff,0x98,0xff,0x67,0x00, 0x0e,0x04,0x21,0xff,0xb9,0x01,0xd4,0x00, // 7168
0x7a,0x00,0x73,0x00,0x8a,0xff,0xbb,0x00, 0x87,0x03,0xe2,0xff,0xbd,0x00,0x67,0x01, // 7184
0xb6,0xff,0x6a,0xff,0xa8,0x01,0x33,0x00, 0x61,0xfd,0x6c,0x01,0xc5,0xff,0x28,0xff, // 7200
0xb5,0x01,0x5b,0x00,0x73,0xff,0x9e,0x00, 0xdd,0x00,0x09,0x01,0x43,0xff,0x97,0x00, // 7216
0x23,0x00,0x5b,0x00,0x7c,0x03,0xa0,0xff, 0xda,0x00,0x62,0x00,0x70,0x01,0xca,0xfd, // 7232
0xe8,0xff,0xf9,0x01,0x87,0x0e,0x29,0x02, 0xca,0xfe,0xfc,0x00,0x15,0xff,0x1e,0xfe, // 7248
0xbd,0x00,0xd2,0xff,0xc2,0xfc,0x31,0x01, 0x38,0x00,0xab,0x00,0x74,0x00,0x49,0x01, // 7264
0x45,0xff,0xc1,0x00,0x25,0xfe,0x05,0xfe, 0xdc,0xfd,0x3e,0x00,0x42,0x04,0xfa,0xfe, // 7280
0x28,0x01,0x76,0xfa,0xf6,0xfd,0x15,0xfc, 0xa9,0x00,0x8a,0xfe,0xb7,0xff,0x19,0x02, // 7296
0x4a,0x01,0x67,0x03,0x59,0xff,0x4f,0x00, 0x45,0xff,0x8f,0xfc,0xf4,0xff,0x31,0x03, // 7312
0x9a,0xff,0xde,0xfc,0x60,0x01,0x42,0x01, 0x71,0xfe,0xa8,0x01,0xd6,0x01,0x0c,0x01, // 7328
0x12,0x01,0x0c,0x02,0x81,0x00,0xdd,0xfc, 0xb9,0xff,0x1c,0x00,0x25,0x00,0xa9,0xff, // 7344
0x70,0xff,0x49,0xff,0x88,0xfe,0x29,0x00, 0x22,0x04,0x02,0xff,0xfe,0xff,0x0a,0x00, // 7360
0x37,0xff,0xac,0x05,0xe9,0x01,0xcd,0xff, 0x49,0x00,0xc4,0x01,0x4e,0x00,0x14,0x02, // 7376
0xc3,0xff,0xb5,0xfc,0x99,0x00,0x97,0x00, 0x9e,0xfe,0x2e,0x00,0x1c,0xff,0x1e,0x00, // 7392
0x12,0xff,0xb8,0xff,0x7f,0xff,0x94,0xff, 0x2a,0x00,0xbe,0xfe,0x78,0x01,0x7a,0x00, // 7408
0x21,0x01,0xb2,0xff,0xab,0x02,0x41,0x00, 0x45,0xff,0xf3,0xfe,0x5a,0x01,0x7a,0xf2, // 7424
0xed,0xff,0x50,0xff,0x8b,0xff,0x81,0x06, 0x01,0x01,0x9c,0x01,0xd7,0xfe,0xf9,0x01, // 7440
0x9b,0xff,0x0d,0x02,0x87,0xfe,0x48,0x02, 0xf7,0x00,0x78,0x00,0x75,0xff,0x7c,0xff, // 7456
0x5b,0xff,0x69,0x00,0x4d,0x00,0x3a,0x00, 0xc4,0x00,0x29,0xff,0x07,0x01,0x99,0x01, // 7472
0x36,0xff,0xaa,0xfc,0x93,0xfe,0xc9,0xfe, 0xd2,0xff,0xd1,0x00,0xd3,0xff,0x85,0x00, // 7488
0xbf,0x02,0x8b,0x02,0xbe,0xff,0xfe,0x00, 0xf9,0xff,0x45,0x00,0xa7,0xfc,0xed,0xfe, // 7504
0x16,0x00,0xb2,0xfc,0x22,0xfb,0x3e,0x00, 0xbf,0x00,0xfb,0xfb,0x33,0xfe,0x0c,0xfd, // 7520
0xdb,0xfe,0xf0,0xff,0xcc,0xfe,0x61,0xff, 0xe3,0xfc,0xcb,0xff,0x39,0xff,0x90,0x00, // 7536
0xed,0x00,0xc8,0x01,0xda,0xf9,0x7b,0xfa, 0x58,0x03,0xbd,0xff,0xd9,0xfe,0x75,0xff, // 7552
0xa6,0xff,0x06,0xfe,0x9a,0xff,0x81,0x04, 0x3b,0x00,0x20,0x00,0xfb,0xfe,0xe1,0xff, // 7568
0x8f,0xfd,0x73,0xff,0x4d,0x08,0xd9,0xfd, 0xbb,0xfd,0x7d,0x00,0xe1,0x03,0x10,0xfc, // 7584
0x1f,0x01,0x39,0x01,0xcd,0xfd,0x15,0x02, 0x43,0x04,0xed,0xff,0xd2,0x00,0x93,0x00, // 7600
0x01,0xff,0x2a,0xff,0xe0,0xfe,0x19,0x04, 0xcc,0x01,0x32,0x00,0x7b,0xff,0x84,0xfc, // 7616
0xe0,0x02,0x0e,0xff,0x5e,0x03,0xc0,0xff, 0x9e,0xff,0xbd,0xff,0xaf,0x02,0x6a,0xff, // 7632
0xa5,0xff,0xe7,0xfd,0x41,0x00,0x18,0xfe, 0xd2,0x00,0x78,0xff,0x5c,0x04,0x94,0x04, // 7648
0x57,0xfe,0x68,0xff,0xfa,0x03,0x2e,0x00, 0x09,0x01,0xdc,0x00,0xee,0x04,0x1e,0x00, // 7664
0xe6,0xfb,0xf8,0xfe,0x4d,0x02,0x3d,0xfe, 0xd7,0x00,0xe2,0xf6,0x30,0xfe,0x0f,0x02, // 7680
0x28,0xff,0x9d,0xfa,0xc1,0x00,0x00,0xff, 0x5d,0xff,0xa8,0xfc,0xc6,0x00,0xb5,0x04, // 7696
0xad,0xff,0xa7,0xfc,0x27,0xfe,0x3c,0xff, 0x08,0xff,0x7d,0xfa,0xd3,0xfb,0xf9,0xfe, // 7712
0x4e,0xff,0x92,0x07,0x18,0x00,0x05,0xfe, 0xd8,0xf0,0x28,0xff,0x65,0xfc,0x82,0x00, // 7728
0x75,0x01,0xfb,0xfe,0x5a,0xfd,0xe5,0xfe, 0x40,0xfe,0x7d,0x00,0xc1,0xff,0xd6,0xfd, // 7744
0x5e,0xfe,0x68,0x01,0x5c,0xff,0x11,0x00, 0xc5,0x00,0xa6,0x01,0xab,0xfd,0x9d,0x01, // 7760
0x68,0xfd,0x41,0x01,0xa5,0x01,0xfe,0xff, 0x7e,0x00,0x1a,0xff,0x40,0xfd,0xf5,0xff, // 7776
0x81,0xff,0x66,0x02,0x98,0xfe,0xab,0xfe, 0x3f,0x01,0x04,0x01,0x44,0xff,0x07,0x07, // 7792
0x91,0xff,0xbe,0x00,0x01,0xfc,0x3d,0xfa, 0x63,0x01,0xd9,0xfd,0x91,0x02,0xc0,0xfe, // 7808
0x75,0xfd,0xbb,0x02,0x6e,0x03,0xbe,0xf7, 0xdb,0x00,0xe2,0x02,0x3f,0x01,0x87,0x00, // 7824
0xf1,0xfe,0x6c,0xfe,0xa6,0x01,0xeb,0x01, 0xae,0x01,0x6c,0xfd,0xb1,0xfe,0x51,0x00, // 7840
0xd5,0x03,0x29,0xff,0xe2,0x01,0xec,0x01, 0x93,0x01,0xdb,0xff,0xa9,0x00,0x83,0xfd, // 7856
0x87,0x01,0x5c,0xf6,0x5f,0x00,0xea,0x00, 0x44,0x01,0xa8,0x00,0xec,0x00,0xba,0xfe, // 7872
0x0e,0x00,0x5e,0xff,0x75,0x01,0x57,0xfe, 0x57,0xff,0xc0,0xff,0x54,0xfd,0x10,0xfd, // 7888
0x1f,0x04,0x3e,0x02,0xee,0x03,0x1c,0x01, 0x48,0xff,0x37,0x00,0xab,0xfe,0x08,0xff, // 7904
0xf6,0x00,0x99,0xfe,0x9d,0xff,0x60,0xfe, 0x95,0x00,0x6e,0xfe,0xcd,0x01,0x04,0x00, // 7920
0xff,0xfe,0x4a,0x05,0x2a,0x03,0x58,0xfe, 0x5c,0x00,0x48,0xfe,0x8b,0xff,0xf2,0xff, // 7936
0x5e,0x00,0x59,0x00,0x84,0xff,0x63,0xff, 0x4b,0xfc,0xf5,0xff,0x4a,0xfe,0x4e,0xff, // 7952
0x4e,0xf9,0x12,0xfd,0x0c,0x02,0xd3,0xff, 0x0f,0xfe,0xf8,0xfd,0xcf,0xff,0x93,0x00, // 7968
0xdb,0xff,0x0b,0x00,0xe3,0x05,0xf1,0x00, 0x76,0xf5,0x6a,0xff,0x5d,0xfe,0xc1,0xfc, // 7984
0xba,0xff,0x43,0xfe,0x1e,0x00,0x7e,0x05, 0x51,0x01,0xff,0xfb,0x3a,0x00,0x90,0x00, // 8000
0x59,0xff,0x81,0x02,0x28,0x01,0xe4,0xff, 0x67,0x00,0x63,0xff,0x50,0x00,0x8e,0x00, // 8016
0xd4,0xfc,0x72,0xff,0x46,0x04,0x9a,0x02, 0xd1,0x03,0x76,0x00,0x12,0x04,0x6b,0x00, // 8032
0x65,0xfa,0x34,0x00,0xbe,0x00,0x12,0x01, 0xc6,0xfc,0x19,0xff,0x11,0xff,0x3e,0x00, // 8048
0x6b,0x01,0x67,0xff,0xfa,0x00,0xa9,0xff, 0x69,0x00,0xca,0xfe,0xf4,0x03,0xfd,0x00, // 8064
0x66,0xff,0x77,0x00,0xa1,0xff,0xb2,0x01, 0x06,0x00,0xbb,0x01,0xb1,0xfc,0x88,0x01, // 8080
0x7e,0xfe,0xd9,0x00,0x2e,0xfc,0xa0,0x01, 0x9b,0xff,0x03,0x00,0x89,0x02,0x5c,0xfe, // 8096
0x87,0xff,0xfa,0x00,0x20,0x00,0x2a,0x03, 0xa2,0xfe,0xe1,0xfe,0xaa,0xfd,0x00,0x01, // 8112
0xd5,0x00,0xd4,0x04,0x58,0x01,0x6f,0xfe, 0xb6,0xff,0x20,0xfe,0x6a,0xff,0x49,0x03, // 8128
0xe0,0xf9,0x3d,0x01,0x3f,0xfc,0x3f,0x00, 0x02,0x00,0x2d,0xfc,0xa5,0xfe,0xc6,0xfa, // 8144
0xb3,0x00,0xb5,0xfd,0x17,0x01,0x71,0x04, 0x83,0x00,0x07,0xff,0x7c,0x00,0x60,0xff, // 8160
0x5d,0xff,0xfa,0x00,0x42,0x00,0x79,0x00, 0x30,0xff,0x2f,0x00,0x8a,0xfe,0xde,0xfe, // 8176
0x85,0xff,0xc9,0xff,0x25,0xff,0xb1,0xff, 0x19,0x00,0x3d,0x00,0x75,0xff,0xa2,0xff, // 8192
0x04,0x01,0x96,0x00,0x89,0xff,0x27,0x01, 0xa0,0xff,0x16,0x00,0xdb,0x00,0xea,0x00, // 8208
0xda,0xff,0xd6,0xff,0xf8,0xff,0x71,0x00, 0xf6,0xff,0x17,0x00,0xa6,0xff,0x90,0x01, // 8224
0xe9,0xff,0x1f,0x00,0xf5,0xff,0x16,0xff, 0x90,0x00,0x9d,0xff,0xa3,0xff,0xcb,0x00, // 8240
0x61,0x00,0x2e,0x00,0x81,0xff,0x47,0x00, 0x70,0x00,0x8a,0x00,0x17,0x00,0x4b,0x00, // 8256
0xfa,0xff,0xed,0xff,0xd4,0x00,0x92,0xff, 0x0e,0x00,0x8f,0x00,0x93,0xff,0x47,0x00, // 8272
0x48,0x00,0x58,0x01,0x5f,0x01,0x4e,0x01, 0xcf,0xff,0x9b,0xff,0xc0,0xff,0xcd,0x00, // 8288
0x05,0x01,0xcd,0xff,0x17,0xff,0x61,0xff, 0x16,0x00,0x71,0x00,0xd7,0xfe,0xcc,0xff, // 8304
0xeb,0x00,0xcc,0x00,0x37,0x00,0x58,0x01, 0x5f,0x00,0xfe,0xfe,0x35,0xff,0x31,0x00, // 8320
0xb5,0xff,0x6a,0x00,0x79,0xff,0x19,0x01, 0x59,0x00,0xc8,0xff,0xf4,0xff,0x49,0x01, // 8336
0xf7,0x00,0xfc,0xff,0x4b,0x00,0xea,0xff, 0xdf,0x00,0x5f,0x00,0x95,0xff,0x69,0x00, // 8352
0xd0,0x00,0xa3,0x00,0x12,0x00,0xd1,0xff, 0xc3,0xfe,0xd0,0x00,0xb2,0xff,0xa7,0xfe, // 8368
0x9c,0xff,0x3a,0x00,0x70,0xff,0xed,0x00, 0xdd,0xfe,0x99,0x00,0xc7,0xff,0x62,0x00, // 8384
0x4b,0x00,0x58,0x00,0x27,0x00,0x1c,0x00, 0xeb,0xff,0xa6,0xff,0xb4,0x00,0x7c,0x00, // 8400
0xdd,0x00,0x64,0x00,0x57,0xff,0xf1,0xfe, 0x19,0x00,0x23,0x00,0x68,0xff,0x93,0xff, // 8416
0xbd,0x00,0x7e,0x00,0x6f,0x00,0x83,0x00, 0x1a,0x00,0x45,0xff,0x95,0xff,0x89,0xff, // 8432
0xa7,0x00,0xdf,0xff,0x25,0xff,0xce,0xff, 0x5d,0x01,0x4d,0xfe,0x2d,0xff,0xf6,0xff, // 8448
0xbc,0x00,0x0f,0xff,0xa6,0x00,0x71,0x01, 0xc6,0x00,0x70,0xff,0x65,0xff,0x80,0xff, // 8464
0xfb,0x00,0xcb,0x00,0x7b,0x00,0x66,0x00, 0xa5,0xfe,0x0e,0xff,0x10,0x00,0x10,0x00, // 8480
0x14,0x00,0xd0,0xff,0x2c,0xff,0x44,0x00, 0x37,0x00,0x69,0xfe,0x58,0xff,0xc8,0xff, // 8496
0xdb,0xff,0x7b,0x02,0xbf,0xff,0x54,0xff, 0x0c,0x00,0x0d,0x01,0x66,0x00,0xcb,0xff, // 8512
0xef,0xff,0xd5,0xff,0xb0,0xff,0x18,0x01, 0x2c,0x00,0xf6,0xff,0xab,0xff,0xda,0xff, // 8528
0x18,0xff,0x9f,0xff,0x13,0xff,0x18,0xff, 0x0c,0xff,0x51,0x00,0x42,0xff,0x64,0xff, // 8544
0xd8,0xff,0x93,0x01,0x07,0x01,0x2a,0x01, 0x53,0xff,0x75,0x00,0xe8,0xff,0x4d,0xff, // 8560
0xdb,0xfd,0x94,0xff,0xc1,0xff,0xe7,0xfe, 0x37,0x00,0x5d,0x00,0xa0,0xff,0x79,0xff, // 8576
0x2e,0xff,0xe7,0xff,0xf3,0xff,0xc6,0xff, 0x5c,0x00,0xec,0x01,0x0e,0x00,0x63,0xfe, // 8592
0xf5,0xff,0x9d,0x00,0xd2,0x00,0x34,0x01, 0x39,0x01,0x08,0xff,0xbc,0xff,0x5d,0xff, // 8608
0x29,0xff,0x62,0xff,0x17,0x00,0xde,0xfe, 0x0c,0x00,0x1e,0x00,0xfc,0xff,0x9e,0xff, // 8624
0xd0,0x00,0x0e,0x03,0x6a,0xff,0xce,0xff, 0x9e,0x00,0x51,0xff,0x30,0x01,0x4c,0x00, // 8640
0x03,0x00,0xde,0xff,0x20,0x00,0x28,0x01, 0xfd,0x00,0xca,0x00,0x95,0x01,0xda,0xfe, // 8656
0x10,0x01,0x7f,0xff,0x7a,0x01,0xb6,0xff, 0xd2,0xfe,0x75,0xff,0xae,0xff,0xef,0xfe, // 8672
0xb0,0x00,0x85,0x00,0x83,0x00,0x4e,0xfd, 0x11,0x01,0x33,0x00,0xfb,0x01,0xca,0xff, // 8688
0x09,0x00,0x29,0x01,0x4f,0x00,0xf9,0x00, 0x70,0x01,0xe5,0xfe,0x4e,0xfe,0x67,0x01, // 8704
0x2f,0xff,0x41,0xff,0xd0,0x01,0xdf,0xff, 0x3e,0xfc,0xc2,0x03,0x41,0xff,0x49,0xff, // 8720
0x1b,0x02,0xac,0xfe,0xdc,0xff,0xb4,0xfa, 0x26,0xff,0xc6,0xfe,0x4e,0xfa,0x32,0x03, // 8736
0x37,0xff,0x89,0xff,0x71,0xfe,0x6d,0xfc, 0xe9,0x02,0xcc,0x01,0xcd,0xfd,0x34,0xfe, // 8752
0x30,0xfe,0x44,0x00,0x78,0xfe,0xa3,0xff, 0xf8,0x00,0x64,0xff,0xe7,0xfd,0x6c,0x00, // 8768
0xc7,0x01,0x5d,0xfd,0xa3,0xfe,0x8e,0xff, 0xef,0x01,0x52,0x03,0x7e,0xff,0x34,0xfe, // 8784
0x7a,0xff,0x3f,0xfd,0xca,0x01,0x78,0xfe, 0x93,0xff,0x90,0xff,0xee,0x03,0x40,0x00, // 8800
0xe5,0xfe,0x73,0x00,0x9e,0x02,0x82,0xff, 0x65,0xfd,0x43,0x00,0xa6,0xfc,0x73,0xff, // 8816
0x9d,0xff,0x77,0x02,0x99,0x02,0x06,0xff, 0x8d,0x00,0x85,0xff,0x9f,0x01,0xbe,0x02, // 8832
0xd8,0xfc,0xd1,0xfc,0x4d,0xff,0xb3,0xfe, 0x57,0x01,0x5b,0xfd,0x06,0x05,0x22,0xff, // 8848
0xc6,0xfe,0x5c,0xfd,0xb1,0xfe,0xe6,0x03, 0x8f,0xff,0xa9,0xfe,0x6b,0x00,0xa2,0xff, // 8864
0xba,0x00,0x72,0x02,0x5a,0xff,0x1d,0xfe, 0xb8,0x00,0x99,0x01,0x81,0x02,0xa4,0x00, // 8880
0x5f,0x00,0xb2,0x00,0x78,0x00,0x1f,0x00, 0xe3,0xfd,0xfd,0xff,0x7d,0xfe,0x28,0x00, // 8896
0x3f,0x00,0x67,0xff,0x2b,0x00,0xd2,0xfd, 0xce,0x02,0xc7,0x02,0xf5,0xfe,0xcd,0xfe, // 8912
0x9b,0xfc,0xdc,0xfc,0x55,0x01,0x90,0x08, 0xff,0x00,0x9e,0xff,0x0d,0x00,0x70,0xff, // 8928
0x85,0x05,0xbf,0xfd,0x22,0x01,0xd0,0x00, 0x7c,0x00,0xb7,0xfc,0xeb,0xff,0xeb,0xfe, // 8944
0x02,0x00,0x05,0x01,0x40,0x01,0x3f,0x01, 0xad,0x00,0xb9,0x00,0x80,0x00,0x0b,0xfb, // 8960
0x99,0xff,0x86,0xfe,0xac,0xfd,0xd6,0x01, 0x56,0x00,0x5c,0x01,0xb1,0x01,0x0a,0x07, // 8976
0x5b,0x03,0xff,0xff,0x92,0xfc,0xf6,0x00, 0xae,0xfe,0xf8,0xfa,0xe7,0x02,0x5d,0x01, // 8992
0x91,0xff,0x99,0x04,0x42,0xff,0x66,0x00, 0xd3,0x01,0x68,0x01,0xe1,0xff,0xe5,0xfc, // 9008
0x15,0x02,0x97,0xfc,0x09,0xfb,0x70,0x01, 0x64,0x00,0x8a,0xfe,0x2d,0xff,0x1b,0xfd, // 9024
0x38,0x02,0xe3,0x02,0xf2,0xfd,0xfb,0xfd, 0x89,0xff,0x5f,0xfd,0x83,0xff,0x00,0xff, // 9040
0xbf,0x01,0xc0,0xfb,0x2f,0xfe,0xbf,0x02, 0x59,0x00,0xc8,0xfd,0x11,0x01,0x05,0x02, // 9056
0x14,0x03,0x30,0x03,0x30,0x02,0x41,0x01, 0xd8,0xff,0x69,0xfe,0x71,0x02,0x82,0xfc, // 9072
0x78,0x00,0xc3,0xff,0x8b,0x03,0x76,0x01, 0xf1,0xfe,0xcb,0xff,0x2a,0x03,0x74,0x00, // 9088
0x46,0xfe,0xe8,0xfe,0x3c,0xfc,0xb3,0xff, 0xd7,0xff,0xf6,0xfe,0x70,0x01,0xba,0x02, // 9104
0x5f,0xfe,0x68,0x00,0xb8,0xff,0x9e,0xfd, 0x8c,0xfc,0x1d,0x00,0x21,0x00,0x5d,0xfe, // 9120
0x58,0xfd,0xa8,0xfc,0x89,0x03,0xdf,0x00, 0xe7,0x00,0x65,0xff,0x1f,0xfd,0xdc,0x03, // 9136
0xfa,0xfe,0xd8,0xff,0x0e,0xff,0x29,0xff, 0x73,0x00,0x42,0x01,0xcc,0xfe,0x9a,0xfd, // 9152
0x95,0x00,0x68,0x00,0x8c,0x01,0xa3,0x00, 0x89,0x00,0x59,0x01,0x72,0x01,0x0f,0x00, // 9168
0x14,0xfe,0xca,0xff,0x81,0xfc,0xe9,0xff, 0x2f,0x00,0xf1,0x01,0xee,0xfe,0x6d,0xfc, // 9184
0xd1,0x02,0x34,0x03,0x29,0xff,0x9b,0xff, 0xd7,0xfc,0xb1,0xfe,0x79,0x01,0xed,0x03, // 9200
0x1b,0x02,0x0b,0xff,0x6a,0x01,0xeb,0xfb, 0xaa,0x07,0x12,0xff,0xfe,0x02,0xfc,0xfd, // 9216
0xae,0x01,0x7a,0xfe,0x16,0x01,0x58,0xfd, 0x98,0x00,0x15,0xff,0x92,0x02,0x5a,0x01, // 9232
0x70,0x02,0xcc,0xff,0x1d,0x00,0x5d,0xfc, 0x88,0x00,0x37,0xff,0x2f,0xfe,0xbb,0x01, // 9248
0x85,0x01,0x70,0x02,0xc3,0x02,0xe9,0x04, 0x47,0x02,0xbb,0xfe,0x09,0xfc,0x26,0x03, // 9264
0xe3,0xfd,0xaa,0xfa,0x24,0x03,0x4e,0xfc, 0xdc,0x02,0xc6,0xfe,0xcd,0x00,0x42,0x01, // 9280
0xd5,0xfc,0x52,0xff,0xf5,0xfe,0xfd,0x03, 0xce,0xff,0xa6,0x00,0xc5,0x04,0x0b,0xfc, // 9296
0x2a,0x01,0xfe,0xff,0xcc,0x01,0x33,0x03, 0x49,0xfd,0x2f,0xff,0x24,0x03,0x4a,0x02, // 9312
0xb8,0x04,0x3a,0x00,0x1e,0x02,0x0e,0xff, 0x48,0x00,0x2e,0x01,0x09,0x00,0xec,0xfe, // 9328
0x5e,0xfd,0xf0,0x00,0x9a,0x00,0xc6,0xff, 0x3a,0xfe,0x8c,0xfe,0x95,0x00,0x4c,0xff, // 9344
0xa7,0x00,0x25,0x01,0x4d,0xff,0x2a,0x01, 0x97,0x00,0xfd,0x00,0x41,0xfd,0x71,0xfd, // 9360
0xb2,0x00,0x0a,0x00,0x4a,0xfe,0x7b,0xff, 0x5c,0x00,0xf4,0xfd,0xa7,0x01,0xf7,0xff, // 9376
0x8b,0x00,0x68,0xfe,0x61,0xfc,0x95,0xfe, 0x71,0xff,0x34,0x01,0x0d,0xff,0x0e,0x00, // 9392
0x1b,0x01,0x0a,0x02,0x23,0x01,0xd7,0x00, 0xbb,0xfe,0x9c,0x00,0xa1,0xfa,0x13,0xff, // 9408
0x27,0x00,0xd6,0x00,0x3a,0x01,0xfe,0xfc, 0x4f,0xff,0xfc,0xff,0x57,0xff,0xd3,0x00, // 9424
0x71,0xff,0x38,0xff,0x72,0x00,0xd0,0x00, 0xc7,0x00,0x66,0xfe,0x90,0xfd,0xcb,0xff, // 9440
0x3f,0x01,0x95,0xff,0x6e,0x00,0xd0,0xfe, 0xf5,0x01,0xda,0xfe,0x10,0x01,0xb9,0xfe, // 9456
0x25,0x00,0x3c,0x00,0xf1,0xfe,0xfa,0x00, 0x8d,0xfe,0x71,0xff,0x21,0x00,0x1e,0x00, // 9472
0x0b,0x01,0xe2,0xfe,0xa5,0xff,0x2c,0xf9, 0x71,0x00,0xa6,0xff,0x9b,0x00,0xa9,0x01, // 9488
0x7f,0xf7,0xcd,0x02,0x31,0xfd,0x63,0xff, 0xfa,0xfe,0x91,0x02,0x72,0xfd,0xcf,0xfd, // 9504
0x89,0x01,0x43,0xff,0x50,0xff,0x7a,0xfe, 0xf0,0xff,0xc5,0x00,0xd2,0xfd,0xdb,0x01, // 9520
0x6f,0x00,0x66,0x00,0x83,0x02,0x78,0xff, 0xc9,0xff,0x24,0xff,0xd5,0x04,0xe4,0xf9, // 9536
0xc6,0xfe,0x9b,0x01,0x0c,0x01,0x6a,0xff, 0x0f,0x00,0x7f,0x06,0x35,0xff,0xef,0x00, // 9552
0xc5,0xfd,0x35,0x04,0x3e,0x00,0x7b,0xfe, 0xfa,0xff,0xfe,0xfe,0x13,0x02,0x36,0x02, // 9568
0x14,0xfd,0xc9,0xfe,0xbb,0xfa,0x5e,0x02, 0x61,0x01,0xf5,0x00,0xf3,0x01,0xf6,0xfd, // 9584
0xa5,0x01,0x91,0x02,0x6a,0xfd,0x22,0xff, 0xf0,0x00,0x0a,0x02,0xbc,0xfd,0x11,0xff, // 9600
0xe0,0x02,0x5d,0xfe,0xe4,0xfd,0xe6,0x02, 0x8c,0xff,0xb2,0xfd,0x69,0x01,0x2b,0x00, // 9616
0xa0,0x02,0x4b,0x02,0x8c,0xff,0xea,0x00, 0xb4,0x00,0xac,0xfc,0x08,0x05,0xda,0xfd, // 9632
0x35,0x03,0x0a,0xfe,0x26,0x01,0x64,0x00, 0x2a,0xfe,0x1f,0x00,0x55,0x02,0x59,0x00, // 9648
0x4e,0xff,0x7b,0x00,0x63,0xfc,0x7d,0x02, 0x9b,0x04,0xac,0xff,0xad,0x03,0x5e,0x01, // 9664
0xf0,0x01,0x9e,0xff,0x5a,0xf9,0x17,0xfd, 0xc8,0xfc,0xd7,0x01,0xe7,0xfe,0x48,0x01, // 9680
0x72,0x00,0x56,0xfd,0x56,0xff,0x47,0x00, 0x45,0xff,0xb2,0xfd,0x8c,0xfe,0xf0,0x03, // 9696
0xf8,0x02,0x86,0xff,0x73,0xfd,0xea,0xf8, 0x62,0xf8,0xed,0x01,0x93,0xfa,0x3d,0x01, // 9712
0x50,0x04,0x33,0xff,0x97,0xfe,0x96,0xff, 0x09,0xff,0x75,0x01,0x27,0x03,0xeb,0xfe, // 9728
0x4b,0x00,0xc6,0x00,0x69,0xfc,0xe0,0x00, 0x9f,0x00,0x7e,0x02,0xbc,0xfc,0x45,0xfe, // 9744
0xa6,0x02,0x9a,0x03,0xa8,0xff,0x15,0x01, 0xf1,0xfc,0xd1,0xff,0x02,0x00,0x3b,0xff, // 9760
0x37,0x01,0xa1,0xfd,0xb5,0x05,0x05,0xfc, 0xb5,0x03,0x87,0x01,0xc0,0xfe,0x64,0x02, // 9776
0x98,0x00,0x44,0xfc,0x48,0xff,0x66,0xff, 0xaa,0x01,0xcc,0x02,0x6f,0x05,0x82,0x03, // 9792
0x3e,0xfe,0x66,0xfc,0x84,0xff,0x8c,0xfd, 0xe1,0xfd,0x63,0xff,0x2d,0xfe,0xa3,0xfd, // 9808
0x69,0x04,0x16,0xfe,0x3b,0x00,0x38,0x00, 0x89,0x05,0xbf,0x01,0x52,0xfd,0x35,0x03, // 9824
0x50,0xff,0x30,0xfc,0xeb,0x02,0x2d,0xfd, 0xaf,0x02,0xc7,0xfc,0xeb,0xff,0xb7,0x00, // 9840
0xf8,0x01,0xa2,0x00,0x7f,0x00,0x29,0x00, 0x4e,0x01,0xb8,0x00,0x9d,0x00,0x89,0xfb, // 9856
0xa0,0x00,0x3e,0xff,0xa9,0x00,0x48,0xff, 0x6c,0xff,0xc6,0xfe,0xe7,0xff,0xec,0xfe, // 9872
0x4a,0xff,0x8a,0xfc,0x7b,0xff,0x00,0x02, 0xfb,0xfa,0x96,0x00,0x88,0x03,0xe5,0xff, // 9888
0xbd,0xff,0xdf,0x00,0xce,0xff,0xaa,0x00, 0x4d,0xff,0x6e,0xfe,0x82,0x01,0x8a,0x00, // 9904
0x81,0xfd,0xd5,0x00,0xd8,0xfd,0xb6,0x00, 0x1a,0xff,0x1f,0xfd,0xb7,0xff,0xd0,0x01, // 9920
0x8c,0xff,0x27,0xfd,0x26,0x00,0x68,0x00, 0x3b,0x00,0xb7,0x00,0xb8,0x02,0xf0,0xff, // 9936
0xd3,0xfc,0x35,0x00,0x68,0xff,0x75,0x01, 0xa6,0xff,0xb2,0xfd,0x9f,0x00,0x7e,0xfd, // 9952
0xb4,0x01,0xfd,0x02,0x11,0x00,0xf2,0xfb, 0x9c,0xfc,0x92,0x00,0x7c,0x00,0x75,0x00, // 9968
0xf0,0x01,0x3a,0x00,0x9e,0xff,0x57,0xfd, 0x64,0xff,0x88,0x00,0x26,0x01,0x94,0x02, // 9984
0xc0,0x01,0x98,0xff,0x7b,0x02,0x4b,0x00, 0x78,0xf9,0x22,0x03,0x6a,0xff,0xdc,0x00, // 10000
0x8b,0xfe,0x89,0x00,0xa9,0xfe,0xdc,0xff, 0x4f,0xfe,0x64,0x00,0xe7,0x00,0x06,0x00, // 10016
0xd6,0xff,0x43,0x00,0xe7,0x05,0x95,0x00, 0x9f,0xff,0xc0,0xfe,0xd0,0x00,0xcf,0x01, // 10032
0xcd,0x01,0x63,0x03,0x39,0xff,0x24,0xfe, 0x00,0xff,0x50,0x00,0x70,0xfe,0xc9,0x00, // 10048
0x7b,0xff,0xd4,0xff,0xa2,0x02,0xb1,0xf9, 0xf6,0xff,0xf4,0x04,0xa3,0x02,0xfe,0x03, // 10064
0xa1,0xfc,0xdf,0xfc,0x6f,0xfc,0x70,0xff, 0xe2,0xff,0xc3,0xff,0xb6,0x00,0x07,0x03, // 10080
0xd0,0x06,0xbb,0xfe,0x06,0x00,0x03,0x00, 0xdd,0xfe,0x0e,0x00,0x93,0xf9,0xbc,0xfe, // 10096
0x6b,0xfd,0x58,0xfa,0x26,0x01,0x58,0xff, 0x31,0x01,0xe5,0x02,0x56,0xff,0x51,0x00, // 10112
0x4e,0xfc,0x27,0x02,0xff,0xfc,0x10,0x00, 0x08,0xfc,0xcb,0xff,0xff,0x02,0x33,0x08, // 10128
0xd2,0xfa,0xef,0x00,0xd1,0xfe,0xcb,0x02, 0x7f,0xff,0xb4,0x04,0xeb,0xff,0xd9,0x00, // 10144
0x1e,0xff,0xfc,0x00,0xa3,0xff,0x9e,0xff, 0x5f,0x01,0x2b,0x02,0xa7,0xfe,0x91,0xf8, // 10160
0x27,0x03,0xd4,0xff,0xc7,0x01,0xb1,0xfd, 0x0d,0x01,0xd1,0x00,0x19,0x03,0x7b,0xff, // 10176
0x34,0xff,0x88,0xfe,0x3c,0xfc,0x3c,0xff, 0x23,0x05,0x46,0xff,0x4a,0x00,0xde,0x01, // 10192
0xae,0x03,0x5b,0xff,0x4c,0xff,0x65,0x00, 0x48,0x00,0x91,0x02,0x65,0xff,0xb5,0xff, // 10208
0x09,0x01,0x68,0x04,0x96,0xfd,0xba,0x01, 0x5f,0x06,0x37,0x02,0x4a,0x02,0x42,0xff, // 10224
0xc4,0x04,0x66,0x00,0xdc,0xfd,0x86,0x01, 0xa2,0x00,0x10,0xfc,0x04,0xff,0xa9,0x05, // 10240
0x7b,0x01,0x2d,0xfe,0xb7,0xfc,0xc7,0xff, 0x51,0xfe,0xcb,0x00,0x05,0x02,0xd2,0x00, // 10256
0xd9,0x04,0x05,0x00,0x78,0xff,0xce,0xfd, 0x2a,0xfb,0x09,0x00,0x72,0xff,0x3a,0x02, // 10272
0xcf,0x01,0x7e,0xfd,0x47,0xfd,0x99,0xfd, 0x4c,0xff,0xa8,0xff,0x7e,0x00,0x89,0xff, // 10288
0x35,0x06,0x77,0x00,0x6e,0x00,0x26,0x02, 0x8f,0x00,0xe0,0xff,0x8e,0xfc,0x12,0x00, // 10304
0xf1,0xff,0xad,0xff,0x57,0x02,0x85,0x00, 0xeb,0xff,0x80,0xff,0xde,0x04,0xb4,0xfd, // 10320
0xf7,0xff,0x9e,0xfe,0xce,0x01,0xe4,0xff, 0x3c,0xff,0x3c,0x01,0x81,0xff,0x80,0x04, // 10336
0x6f,0xff,0x2c,0xff,0x62,0xfd,0xe6,0xfd, 0x86,0x01,0x95,0x03,0x4e,0x01,0xaa,0x00, // 10352
0xc5,0xfc,0x04,0x02,0xdb,0x01,0x06,0xff, 0x8f,0xfc,0x1d,0xfe,0x4e,0xfe,0xd8,0xf6, // 10368
0x1c,0x02,0x24,0xfb,0x6b,0x06,0x8e,0xfe, 0x24,0x00,0x3e,0x00,0x40,0x00,0x24,0x02, // 10384
0x1c,0xff,0x6d,0xff,0x85,0xfe,0x8f,0x01, 0xff,0x00,0x79,0xff,0xef,0x00,0x05,0x00, // 10400
0xaa,0xff,0xbc,0xfe,0x1d,0xfe,0x90,0x00, 0x19,0x00,0x2d,0x01,0xe2,0x00,0x4e,0xfe, // 10416
0x9c,0x00,0x0e,0x00,0x0e,0x00,0x67,0x00, 0xd1,0xfe,0x66,0xff,0xc6,0x01,0x28,0x00, // 10432
0x28,0x00,0x1e,0x00,0x4e,0x00,0x8b,0xff, 0x79,0x00,0x71,0x01,0x81,0x00,0xe1,0xfe, // 10448
0x56,0xfe,0x7b,0xff,0xca,0x00,0x43,0xff, 0x51,0xff,0x43,0x00,0x50,0x00,0x35,0x00, // 10464
0xb3,0xff,0xb5,0x00,0x16,0xff,0x52,0x00, 0x56,0xff,0x23,0x00,0xd7,0xfe,0xf6,0xff, // 10480
0x23,0xff,0xbc,0xfe,0x46,0xff,0xad,0xfe, 0xea,0xfe,0x0f,0xff,0xb8,0x00,0x32,0x00, // 10496
0xb1,0x00,0x72,0xff,0x68,0xff,0xed,0xff, 0x0a,0x00,0xc5,0xfe,0x25,0x00,0x13,0xff, // 10512
0xe6,0x00,0x9b,0xff,0xef,0x00,0xf8,0xfe, 0x58,0xff,0x79,0x00,0x91,0xfe,0x02,0xff, // 10528
0x8c,0x00,0x0e,0x00,0x4d,0x00,0x7f,0xff, 0x53,0xff,0xca,0xff,0x85,0x00,0x66,0x00, // 10544
0x57,0x00,0x00,0x01,0x55,0x00,0x92,0x00, 0xc7,0x00,0x1d,0xff,0x36,0x00,0xb5,0x01, // 10560
0xe6,0xff,0x00,0x00,0xed,0xff,0x4f,0xff, 0xf6,0xff,0x66,0xff,0xfb,0x00,0xc8,0xfe, // 10576
0x03,0xff,0xae,0x00,0xe2,0xff,0x06,0x01, 0x80,0xff,0x25,0x00,0x5e,0x00,0x65,0x00, // 10592
0x94,0x00,0xde,0x00,0x48,0xff,0x76,0xff, 0x84,0xff,0x8a,0x00,0xb8,0xff,0x47,0x01, // 10608
0xff,0xfe,0x3c,0x00,0x36,0xff,0x66,0x00, 0x00,0x00,0x7a,0x00,0x9a,0x00,0xf6,0xff, // 10624
0x76,0x00,0x4d,0xff,0x5e,0x00,0x8f,0xff, 0x51,0x00,0xcd,0x00,0x6b,0xff,0x37,0x01, // 10640
0x38,0xff,0x45,0x00,0x77,0x01,0x12,0xff, 0x43,0xff,0xcd,0xff,0xa2,0x00,0x52,0xff, // 10656
0xbe,0xff,0x9a,0x00,0x4c,0x00,0x0e,0xff, 0x1d,0x01,0xe6,0x00,0x3a,0x01,0x87,0x01, // 10672
0xf1,0x04,0xf4,0xff,0x61,0xfe,0xa5,0xff, 0xa4,0xfd,0x2d,0xfe,0xb3,0xfe,0x48,0x03, // 10688
0x2b,0x00,0x68,0xff,0x89,0xfd,0x4d,0xfd, 0x6d,0x03,0xdc,0xff,0x2f,0x04,0x57,0xff, // 10704
0xa2,0xff,0x23,0x01,0xfa,0x01,0x49,0x00, 0x87,0xfc,0x74,0xfe,0x0b,0xff,0xc3,0xfa, // 10720
0x36,0xff,0xb1,0xff,0x6b,0x03,0x69,0x08, 0xbe,0xfc,0x46,0xff,0xdd,0x05,0x26,0x00, // 10736
0x65,0x01,0x60,0x02,0xe7,0x01,0x59,0xff, 0x2e,0x00,0xeb,0xfd,0x86,0x04,0x38,0xfd, // 10752
0xfe,0x01,0xe9,0xfc,0x2b,0xfe,0xd5,0x03, 0x1e,0xfe,0x2c,0xff,0x80,0xff,0x3b,0xff, // 10768
0xe6,0xfe,0xff,0xff,0x09,0xfe,0x4d,0x01, 0x51,0x00,0xa9,0xff,0x04,0xff,0xdb,0x00, // 10784
0x1e,0x00,0x1f,0xff,0x84,0xff,0x1e,0x01, 0xff,0xff,0xaa,0x08,0xcc,0xff,0x4d,0xfe, // 10800
0xdc,0xf8,0x12,0xfd,0xdd,0xfc,0xc5,0xff, 0x18,0x02,0x77,0x00,0xe9,0xfc,0x87,0xfe, // 10816
0x83,0xff,0x0b,0x00,0x21,0xfe,0xe8,0xff, 0x78,0xff,0x96,0x01,0x1f,0x01,0x96,0xff, // 10832
0x28,0xff,0x4a,0x02,0xd6,0xfc,0x96,0x01, 0xf7,0xff,0x80,0x00,0x31,0x02,0x62,0xfe, // 10848
0xf2,0x01,0x81,0xfe,0x2c,0xfb,0x78,0xfe, 0x96,0xff,0x94,0x02,0xb1,0xfe,0x40,0xff, // 10864
0xf8,0xff,0xc3,0x01,0x4a,0x02,0x42,0x02, 0x9f,0xff,0xc7,0x02,0x2d,0x02,0x50,0xfb, // 10880
0xfb,0x00,0xea,0xff,0xaa,0x00,0xc1,0xfe, 0x94,0xfd,0x8f,0x04,0x6a,0x02,0x17,0xf6, // 10896
0x41,0x00,0xa1,0x03,0x6f,0x00,0xe0,0x00, 0x93,0xff,0x2b,0xfd,0xa6,0xff,0x33,0xff, // 10912
0xfb,0x00,0x7d,0xfe,0xbb,0x01,0xa0,0xfd, 0x23,0x06,0xd3,0xfb,0x08,0x04,0x65,0x00, // 10928
0xec,0x02,0xf0,0xfe,0x1b,0x00,0x23,0xfd, 0x91,0x03,0x81,0xf9,0x60,0xfe,0x9f,0x02, // 10944
0xca,0xfe,0x4b,0x00,0x85,0x02,0x9f,0x01, 0x77,0x00,0x4e,0x01,0xff,0xfd,0xfd,0xff, // 10960
0x2e,0xff,0xb2,0xff,0x52,0x01,0xa0,0x03, 0xc4,0xfd,0xbb,0xfe,0x84,0xfb,0x97,0xff, // 10976
0x0a,0x03,0xbf,0xff,0xf7,0x02,0xf6,0xff, 0x56,0xff,0x52,0x01,0xa1,0xff,0x32,0x00, // 10992
0xe3,0xff,0x79,0x01,0x39,0xfe,0x91,0xfd, 0x52,0x02,0x77,0xfe,0xb2,0xfc,0xbb,0x03, // 11008
0xc8,0xfe,0x58,0xfe,0xcb,0x01,0xc9,0xff, 0x60,0x01,0xfd,0x00,0x7c,0x00,0x97,0xff, // 11024
0x5e,0x03,0xed,0xfd,0x80,0x04,0x79,0xfe, 0x6e,0x05,0xac,0x02,0x4b,0xfe,0x82,0xff, // 11040
0x9a,0xff,0x2a,0x00,0x79,0x00,0xec,0xfe, 0x14,0xfe,0x17,0x00,0x3b,0xfd,0xa0,0xff, // 11056
0x6b,0x06,0x97,0xff,0x8f,0x01,0x73,0xfd, 0xfa,0x00,0xa2,0x00,0xb1,0xfe,0x16,0x01, // 11072
0x1f,0xfe,0xe9,0x03,0x30,0x00,0x27,0x01, 0x04,0xff,0x0e,0xfd,0xce,0xfd,0xf4,0x00, // 11088
0x0a,0x01,0x89,0xff,0xa9,0xfd,0xa0,0xff, 0x86,0x02,0x1b,0x00,0x2c,0xfd,0xd7,0xfc, // 11104
0x23,0xfb,0x3a,0x01,0x98,0xfd,0x24,0x00, 0x35,0x05,0xe4,0xfe,0x56,0xfe,0x62,0x00, // 11120
0xe3,0x02,0xf7,0x00,0x28,0x03,0xcb,0xfe, 0x3e,0x01,0xa0,0x00,0x5a,0xfc,0x27,0x00, // 11136
0x5f,0xff,0x42,0x02,0xab,0xf9,0x6d,0xfe, 0xda,0x00,0x4a,0x01,0x9a,0xff,0xe2,0xfe, // 11152
0xd6,0xff,0xe8,0xfc,0x13,0x02,0xfc,0xfd, 0x19,0x02,0x8a,0xfd,0xff,0x02,0x5c,0xfd, // 11168
0x42,0xff,0x64,0x01,0x56,0xfe,0x48,0x01, 0x32,0x01,0x62,0xff,0x29,0xfe,0x8e,0xfc, // 11184
0x2a,0x03,0x67,0x01,0x5f,0x03,0x32,0xff, 0xe7,0xff,0xd2,0xfc,0xe6,0xff,0x62,0xff, // 11200
0x52,0xff,0x8b,0xff,0x67,0x00,0x7b,0xfe, 0x8c,0x03,0xef,0xfe,0xc6,0x06,0x5e,0xff, // 11216
0xc8,0x02,0x7a,0x02,0x68,0xff,0xe9,0x01, 0x4f,0xff,0xc9,0xfe,0x0a,0x01,0x2b,0xfe, // 11232
0xbf,0xff,0x18,0x00,0xa4,0xff,0x94,0xfe, 0x9a,0x00,0xbf,0x00,0x3c,0x00,0xcd,0xff, // 11248
0x3f,0x00,0x55,0x00,0xe3,0xfe,0x76,0xff, 0x3b,0xff,0x7d,0x00,0xd6,0xfe,0x79,0xff, // 11264
0xbd,0xff,0x65,0xff,0x95,0xfe,0x4f,0xff, 0xa1,0xfe,0x99,0xff,0x64,0xff,0xbc,0xff, // 11280
0x79,0x00,0x35,0xfe,0x4a,0x01,0xdf,0xfe, 0x15,0x01,0x42,0x00,0xc2,0x00,0xda,0xff, // 11296
0x16,0xff,0x1b,0xff,0x2e,0x00,0xe3,0x00, 0x86,0xff,0x52,0x00,0x2a,0x00,0xe1,0xff, // 11312
0x02,0x02,0xa3,0xfe,0x76,0x00,0x36,0x01, 0x9d,0x00,0x80,0xff,0xe9,0xff,0x1d,0x00, // 11328
0x77,0x01,0x73,0x02,0x24,0xff,0x07,0x01, 0x33,0x00,0xd7,0x00,0xf9,0x00,0x2d,0x02, // 11344
0xa8,0x00,0x0f,0xff,0xde,0xfe,0x98,0xfd, 0x94,0xff,0x6b,0xff,0xc1,0x00,0x08,0x01, // 11360
0x2b,0xff,0x61,0xff,0x4a,0x01,0xc6,0xff, 0x7b,0xff,0x30,0x00,0xb7,0xff,0x82,0x00, // 11376
0x07,0x01,0xb2,0xff,0x88,0x00,0x28,0xff, 0x97,0xff,0xf1,0xfe,0x32,0xff,0xcb,0x00, // 11392
0x4f,0x00,0xba,0x00,0x33,0x00,0x3d,0x00, 0x40,0xff,0x78,0xff,0xca,0xfe,0xf8,0x00, // 11408
0x7a,0x00,0x0c,0x00,0x79,0x00,0xf1,0xff, 0x7e,0x00,0x1e,0xff,0x7d,0x01,0xb4,0x00, // 11424
0x75,0xff,0x7d,0xff,0x1c,0x03,0x91,0x00, 0xc2,0x00,0x43,0x03,0xbe,0x00,0xe6,0x00, // 11440
0xa5,0xff,0x1a,0x00,0x38,0x01,0x32,0x00, 0xab,0x01,0xda,0xfe,0xb4,0x00,0x39,0x00, // 11456
0x88,0xff,0xe4,0xff,0x7d,0x00,0xf5,0x01, 0x14,0xff,0xe4,0x00,0xf6,0xff,0x2c,0x01, // 11472
0xae,0xff,0x47,0xff,0x4c,0x01,0x28,0x00, 0x9d,0x00,0x09,0x00,0x51,0xff,0x63,0xfd, // 11488
0xae,0x01,0xac,0xff,0xb4,0xfe,0xc2,0x00, 0x8f,0xff,0x32,0xfe,0xba,0x00,0x6d,0x01, // 11504
0x34,0x00,0x1a,0xff,0x24,0x00,0x30,0xff, 0x9f,0xfb,0x8c,0xff,0xad,0xfe,0x13,0x00, // 11520
0x43,0x00,0x11,0x00,0x55,0x01,0x2e,0xfb, 0x21,0xfd,0xc7,0xff,0x18,0xff,0xf8,0x01, // 11536
0xb7,0xfe,0x11,0x02,0x51,0xfd,0x12,0xfe, 0xee,0x00,0xc2,0x00,0x08,0xfc,0x35,0x00, // 11552
0x66,0x01,0xf5,0x01,0xae,0xfd,0xde,0x01, 0x93,0xff,0xd5,0xff,0x1e,0xfd,0x3a,0xfe, // 11568
0xa3,0x01,0xa6,0xff,0xaf,0xfd,0x26,0x00, 0x4f,0x00,0x10,0xff,0x64,0xf8,0x9d,0xff, // 11584
0x1f,0x06,0x52,0xff,0xd2,0xfe,0xa1,0x00, 0x73,0xfd,0x0c,0x09,0xc9,0x01,0x22,0x00, // 11600
0x97,0x01,0x54,0x05,0x1e,0x00,0x76,0xff, 0xc6,0xff,0xee,0x02,0x72,0xfe,0x32,0xfc, // 11616
0x54,0xff,0xcc,0x04,0x42,0x04,0x2a,0x00, 0x7b,0x01,0x2b,0x05,0x78,0x04,0xa5,0x00, // 11632
0xff,0xff,0xc7,0xfa,0x6d,0xff,0x3e,0x02, 0x0f,0x0c,0x57,0x01,0x9d,0x04,0x05,0x00, // 11648
0x68,0xff,0x15,0xff,0x4a,0x00,0x2a,0x01, 0x6b,0x02,0xe9,0xff,0xfa,0x00,0x5c,0x01, // 11664
0x60,0x02,0xf9,0x00,0x1e,0x00,0x2e,0x00, 0xdb,0xff,0xc2,0xfe,0xe4,0x00,0x0f,0xff, // 11680
0x6c,0x03,0xde,0x00,0x81,0xfe,0x97,0x00, 0xc0,0xff,0xcd,0x00,0x1c,0x01,0xf6,0x01, // 11696
0xc2,0xff,0x95,0x00,0x7e,0x01,0x49,0xff, 0x8e,0x01,0x59,0xff,0x59,0xff,0x96,0xf9, // 11712
0x20,0x00,0xf6,0xfe,0x6b,0x04,0xfb,0x06, 0xac,0xfe,0x09,0x02,0x75,0xfc,0x63,0xff, // 11728
0x04,0x04,0xb6,0xfd,0x41,0xfb,0x6c,0x06, 0x76,0x00,0x0b,0xfc,0x55,0xff,0xdc,0xff, // 11744
0x5d,0x01,0x5f,0x02,0xf4,0xfe,0xda,0xfc, 0x75,0xfd,0xec,0x00,0x76,0x02,0x21,0x00, // 11760
0x33,0xfd,0x7e,0x00,0x3b,0xfe,0x8a,0xff, 0x29,0xfd,0xf0,0xff,0x08,0x00,0x5e,0x02, // 11776
0x03,0x00,0xae,0x07,0xa7,0x00,0xbd,0xfd, 0x89,0xfd,0xc3,0xfe,0xed,0xfe,0x68,0x02, // 11792
0x44,0x00,0xdc,0xfd,0x25,0x00,0x94,0x00, 0x9f,0x00,0x29,0x01,0x73,0x00,0x27,0x01, // 11808
0x65,0x00,0x99,0x00,0xac,0xff,0x4d,0xfe, 0xb7,0x00,0xcb,0xff,0x08,0x01,0xba,0x00, // 11824
0xeb,0xfd,0x95,0xff,0x38,0xff,0xba,0x00, 0xaf,0x01,0xab,0xff,0x53,0xff,0x00,0x00, // 11840
0x3d,0x00,0xf2,0x00,0xbe,0xff,0xb1,0xff, 0x8c,0xff,0xdb,0x00,0x44,0x00,0x9b,0xff, // 11856
0xda,0xfe,0x8c,0xfd,0x9a,0x01,0x6c,0x01, 0x26,0xff,0xf2,0xff,0x18,0x00,0x1d,0x00, // 11872
0x0a,0x01,0xee,0xff,0x27,0xff,0xfd,0xff, 0x48,0x00,0x09,0xff,0x0c,0x00,0x15,0x01, // 11888
0x1f,0x01,0x9d,0xff,0x7f,0x01,0xd7,0xff, 0xba,0xff,0x7e,0xfe,0x6f,0x00,0xd1,0xfe, // 11904
0x2d,0xff,0x30,0xff,0xbd,0xff,0xbf,0x00, 0x65,0x00,0x48,0x01,0xd8,0x01,0x9a,0xff, // 11920
0x44,0xff,0xe1,0xff,0x0d,0xff,0xe8,0x00, 0x65,0x01,0x73,0x00,0xec,0xff,0x8b,0xff, // 11936
0x4a,0x00,0x4b,0x02,0xab,0xff,0xbf,0xff, 0xad,0xff,0xd5,0xfe,0x2b,0x00,0x91,0x00, // 11952
0xba,0x00,0x78,0xff,0xfd,0xfe,0x88,0x00, 0xab,0x00,0x0a,0x01,0x1f,0x00,0x24,0xff, // 11968
0xdf,0xff,0x4a,0x01,0x23,0x00,0xaf,0xff, 0x0c,0x00,0xea,0x00,0x7c,0xff,0xb1,0xff, // 11984
0x6c,0xff,0x93,0xfd,0xdf,0xfe,0x4b,0x00, 0xfd,0x00,0xad,0xff,0x75,0xfe,0x0d,0xff, // 12000
0x1b,0x00,0xcd,0xfe,0x09,0x00,0xa4,0x00, 0x3c,0xfe,0x64,0xff,0xb1,0xff,0x36,0xff, // 12016
0x28,0x00,0x7f,0x00,0x17,0xff,0x7c,0xff, 0x1c,0x01,0x29,0x00,0x20,0xff,0x00,0x00, // 12032
0x94,0x00,0xa9,0xfe,0x75,0xff,0x4a,0x04, 0xcb,0x00,0x96,0x00,0xe2,0x00,0xe9,0xfe, // 12048
0x94,0xff,0x04,0xff,0x89,0x00,0x06,0xff, 0xaa,0xfd,0x4d,0xff,0x85,0x02,0x00,0xff, // 12064
0xf1,0x00,0xe3,0x01,0xba,0xfd,0x41,0x00, 0xdc,0xff,0x27,0x01,0x1d,0x00,0x41,0x00, // 12080
0x1b,0x00,0xd8,0xff,0xb2,0xfe,0xbd,0xfe, 0x2e,0x00,0xe7,0xff,0xdd,0x00,0xe2,0x01, // 12096
0x18,0x00,0xa7,0x00,0x2e,0xfe,0x3c,0x00, 0x02,0x00,0x95,0xff,0xab,0x00,0xa5,0xff, // 12112
0xb5,0x00,0xb0,0xff,0xdb,0x00,0x84,0x00, 0xa6,0x00,0xc1,0xff,0x99,0xff,0x6b,0x00, // 12128
0xde,0xfe,0xcc,0xfe,0x1b,0xff,0x8d,0xfe, 0x50,0x00,0x26,0x01,0x85,0xfe,0x19,0xff, // 12144
0x59,0xff,0x45,0x00,0x15,0x00,0x65,0xff, 0x23,0xff,0xa4,0xff,0x87,0x00,0xc5,0xff, // 12160
0x65,0xff,0xe8,0x00,0x80,0xff,0x7b,0xff, 0xbe,0xfe,0x42,0x01,0x50,0x00,0xfe,0xff, // 12176
0xb3,0xfe,0x3c,0x00,0x50,0xff,0x8d,0xff, 0xa0,0x00,0xd3,0xff,0xbf,0xff,0x81,0xff, // 12192
0x1a,0x00,0x94,0xfe,0x58,0xff,0x63,0x00, 0x5c,0x01,0x30,0x01,0x6c,0x00,0xe8,0xfe, // 12208
0x42,0xff,0x6e,0xff,0xa1,0x00,0x43,0x00, 0x49,0xff,0x2a,0x00,0x81,0x00,0xcf,0xff, // 12224
0xb1,0x00,0x49,0x00,0x79,0xff,0x57,0x00, 0x07,0x00,0x8b,0xff,0x76,0xff,0x52,0x00, // 12240
0x54,0x00,0x18,0xff,0xeb,0xfe,0x51,0xff, 0x2d,0x00,0xb8,0xfe,0x09,0x01,0x78,0xff, // 12256
0xbb,0x00,0x93,0x00,0x23,0x00,0xcf,0xff, 0x09,0x00,0xa6,0x00,0xc1,0xff,0xa1,0x00, // 12272
0xff,0xff,0xed,0xff,0x0d,0x00,0xef,0x00, 0x20,0xff,0x58,0x00,0x04,0x00,0xb6,0x00, // 12288
0xe3,0x01,0x9d,0x00,0x14,0x00,0x94,0x00, 0xa2,0xff,0xd4,0xff,0xc9,0xfe,0x05,0x01, // 12304
0x1e,0x00,0xa6,0xff,0xb2,0x00,0x4a,0x00, 0xbf,0xfe,0xd0,0x02,0x12,0x01,0x26,0xfe, // 12320
0xe7,0xfe,0x6c,0xff,0x93,0x00,0xed,0xff, 0x3e,0xff,0x11,0x00,0x02,0x00,0xb4,0xff, // 12336
0x70,0x00,0x9e,0xff,0xac,0xfe,0xfc,0xff, 0xe0,0x00,0x2e,0xff,0xe8,0x01,0xd5,0xff, // 12352
0x57,0xff,0xde,0xff,0xae,0x03,0x6e,0xff, 0xd9,0x00,0x81,0x00,0xdd,0xfd,0x26,0xfc, // 12368
0x41,0x03,0x6c,0x01,0xeb,0x06,0xb6,0x00, 0x5c,0xfe,0xab,0xfe,0xc1,0xfd,0x02,0x02, // 12384
0x4d,0xff,0xa5,0xfd,0x63,0x01,0x41,0x00, 0x85,0x05,0xcd,0xff,0x43,0x04,0xcf,0x01, // 12400
0x11,0x01,0x2f,0x00,0x3e,0xff,0x66,0xfa, 0x1a,0x00,0xf3,0xff,0x90,0xfd,0xcb,0xff, // 12416
0x1f,0xfe,0x47,0xff,0xa1,0x00,0x2c,0x00, 0xc4,0xfe,0x10,0x03,0xe0,0xfb,0x72,0x03, // 12432
0x0a,0xfd,0x7b,0x00,0x69,0xff,0xbd,0xfd, 0xfe,0xff,0x32,0xff,0x74,0xfe,0xdb,0xff, // 12448
0xf7,0xff,0x98,0xf8,0xd0,0x02,0x3a,0xff, 0x3a,0xfd,0xfd,0xfb,0xf3,0xfd,0xe4,0xfd, // 12464
0xa8,0xfd,0x6a,0x00,0x9f,0xff,0x01,0x01, 0xc6,0x00,0x33,0xfd,0xf2,0xff,0x89,0x00, // 12480
0xe3,0xff,0x51,0x03,0x41,0xff,0x61,0xfe, 0xaf,0xfe,0xaa,0xff,0xa9,0x02,0xcb,0xff, // 12496
0x01,0xfd,0x8d,0x00,0x66,0x01,0xba,0xff, 0x3e,0x01,0x74,0xff,0x26,0xff,0x9d,0x00, // 12512
0x95,0xff,0xf4,0xfb,0x9e,0x01,0x15,0x01, 0x3e,0x00,0xe9,0xfe,0x66,0xfd,0x36,0x00, // 12528
0x8f,0xfe,0x0a,0xff,0x7e,0x05,0xc4,0xfe, 0xea,0xff,0x7f,0xfe,0xd2,0xff,0x90,0x02, // 12544
0x3b,0xfe,0x76,0xfe,0xfd,0xfa,0x31,0xff, 0x3c,0x01,0x4e,0xf8,0xa0,0xfc,0xd3,0x01, // 12560
0xc9,0xfe,0xc7,0x00,0x77,0xff,0x03,0x03, 0x23,0xff,0x35,0xfe,0x16,0x00,0xf1,0x00, // 12576
0xa3,0xff,0xc3,0xfe,0x1b,0xfc,0x50,0xfa, 0x2d,0x02,0x3e,0xff,0x3a,0x00,0x18,0x00, // 12592
0x87,0x00,0x3d,0x03,0x3d,0xfd,0x3f,0x01, 0xdd,0xfd,0x54,0x03,0x44,0x00,0xbb,0x05, // 12608
0x33,0xfd,0x8f,0x02,0x0e,0x02,0x54,0x00, 0x2a,0xfd,0x4e,0x00,0x66,0x00,0x5b,0xfd, // 12624
0x7b,0x01,0x0e,0x02,0x55,0xff,0xb9,0xfe, 0xff,0xfb,0xfd,0x00,0xcc,0xfe,0xa2,0xfe, // 12640
0x54,0x00,0x73,0x00,0x30,0x01,0xa3,0x00, 0x09,0xfe,0x20,0x01,0x04,0xfb,0x8f,0x03, // 12656
0xf8,0xfe,0xea,0x02,0x62,0xff,0x7a,0xfd, 0x31,0x01,0x7e,0x00,0xb8,0xfb,0xfc,0xfc, // 12672
0x69,0xfe,0xb6,0xff,0x46,0xfc,0xc4,0xfd, 0x42,0xff,0xd9,0x00,0xcc,0x04,0x16,0x00, // 12688
0xe9,0xff,0x5e,0xff,0x6b,0x05,0xbc,0xff, 0x2f,0xff,0x01,0x01,0x98,0xfd,0x89,0xff, // 12704
0xbe,0x00,0xad,0xfc,0x4f,0x00,0xdd,0x00, 0x8e,0x00,0x22,0xfa,0xff,0x01,0x4e,0x04, // 12720
0x8e,0xfe,0x7a,0xff,0x71,0x00,0xbe,0x00, 0x02,0x00,0x64,0x04,0x4e,0xff,0xc1,0x04, // 12736
0x5e,0x00,0x63,0x03,0x5b,0x05,0x44,0x01, 0x10,0x04,0xb1,0xfc,0x83,0xfe,0xb3,0xff, // 12752
0x21,0x00,0x61,0xfd,0x31,0xff,0xba,0x00, 0x33,0x01,0x41,0xff,0x2b,0x01,0x5d,0xfe, // 12768
0xb0,0xfe,0xb1,0xff,0xf8,0xff,0x5d,0x03, 0xc6,0x01,0x5a,0xfe,0x5a,0x01,0xc4,0xfe, // 12784
0x1c,0x00,0x31,0xff,0xad,0x00,0x4c,0x01, 0x74,0xfe,0x8e,0x00,0xaa,0xff,0x89,0xff, // 12800
0x71,0xfb,0x5f,0xfe,0xcb,0xff,0xd6,0x00, 0x2a,0x00,0xef,0xff,0x66,0xff,0xf0,0x00, // 12816
0x52,0x01,0x17,0xff,0x4a,0x01,0xd4,0xff, 0x8a,0x00,0x7b,0x00,0xaa,0x00,0xe6,0x04, // 12832
0xef,0xff,0xd8,0x01,0xe5,0x01,0x41,0x00, 0xfc,0xfe,0xf6,0xff,0x37,0x00,0x85,0xff, // 12848
0xd1,0x02,0xe3,0x00,0xa2,0x01,0x69,0x01, 0xd5,0xff,0xb9,0xff,0x61,0x01,0xd4,0x01, // 12864
0x2d,0xff,0x28,0x02,0xb0,0x00,0x64,0x02, 0x14,0xfd,0xf4,0x00,0xea,0x01,0xc4,0xfd, // 12880
0x72,0xff,0x01,0xfb,0x01,0xfe,0x05,0xfb, 0x67,0x00,0x20,0xfd,0x36,0xff,0x1f,0x01, // 12896
0x0e,0x01,0x43,0xfd,0xb4,0xfc,0x0d,0x02, 0xdd,0xff,0xe6,0xfa,0xf3,0x00,0xb6,0x01, // 12912
0x49,0xff,0x55,0x00,0x10,0xfe,0x99,0x00, 0xf1,0xfd,0xd3,0x00,0x1e,0x03,0x7e,0x03, // 12928
0x73,0xfd,0x93,0xff,0x58,0xf5,0x45,0xff, 0xb3,0xff,0xd7,0x01,0x47,0x01,0x93,0xfc, // 12944
0xd4,0xff,0x7e,0x01,0x39,0xfb,0xe0,0xfe, 0x97,0xfd,0x24,0xff,0x6c,0xf9,0x7e,0xfc, // 12960
0xd4,0x00,0x69,0xff,0xd9,0x02,0xa2,0x03, 0xd5,0xff,0x52,0x02,0x0c,0x04,0xb5,0x00, // 12976
0x91,0x01,0x63,0xff,0xdd,0xff,0x72,0x00, 0xd0,0x00,0x1a,0xfc,0x12,0x02,0x21,0xff, // 12992
0x57,0x01,0x9e,0xff,0x6c,0x01,0xc8,0x04, 0x44,0xff,0xbe,0x00,0x39,0x01,0xdb,0xff, // 13008
0x1b,0x00,0x85,0x04,0x9f,0xfd,0xd6,0x01, 0x11,0x02,0x4d,0x02,0x1c,0x07,0x6d,0xfe, // 13024
0xab,0x04,0xd9,0xff,0x19,0x01,0xe2,0x01, 0x51,0xff,0xcd,0x01,0xac,0x00,0x52,0x02, // 13040
0xc8,0xff,0x32,0xfe,0xa2,0x00,0xf1,0x01, 0x58,0x01,0x65,0x00,0x3b,0xfd,0x7b,0x02, // 13056
0xaa,0x02,0x92,0xff,0x6e,0xff,0x85,0xfe, 0x0a,0x00,0xab,0xfe,0x16,0x00,0x9b,0x02, // 13072
0xbe,0xff,0xac,0x00,0x78,0xfe,0x56,0x00, 0x68,0xff,0x1d,0x01,0x91,0x00,0x3b,0xff, // 13088
0x65,0x02,0x23,0x01,0xd1,0xfb,0x43,0x00, 0xff,0xfe,0x03,0x02,0xa5,0xfe,0x6f,0xfd, // 13104
0xce,0xff,0x38,0xff,0xbd,0xff,0xe1,0x00, 0x1d,0x00,0x01,0xff,0xcc,0x02,0xb9,0xfe, // 13120
0xd9,0xff,0xe8,0xff,0xc7,0x00,0xea,0xfb, 0x9f,0x02,0xbf,0x00,0xb3,0xff,0xf7,0x00, // 13136
0x05,0x01,0x9c,0x00,0x4b,0xff,0x0d,0xff, 0x63,0x00,0xe0,0x01,0x2d,0x00,0x93,0x01, // 13152
0x31,0xfe,0x63,0xfc,0x3f,0x02,0x2f,0x00, 0x1e,0x00,0xf7,0xfb,0x48,0xfe,0x0a,0xfa, // 13168
0xdf,0x01,0xea,0xfb,0x53,0x03,0x64,0x02, 0xd5,0x01,0x03,0x00,0x81,0x00,0xa6,0x01, // 13184
0xde,0xff,0xdf,0xfb,0x26,0xff,0x1b,0x00, 0x7f,0xff,0x26,0x00,0x9f,0xff,0x0b,0x00, // 13200
0xe2,0xff,0x8f,0x00,0x7b,0xff,0x68,0xff, 0x8d,0x00,0x53,0x00,0xf0,0xff,0xd9,0xff, // 13216
0xdd,0xff,0xc7,0xff,0x21,0x00,0xac,0x00, 0xeb,0xff,0xff,0x00,0xa7,0x00,0xdc,0x00, // 13232
0x42,0x00,0x12,0x00,0x80,0xff,0x2b,0x00, 0xc7,0xfe,0x47,0xff,0x86,0xff,0x05,0x00, // 13248
0x1d,0x00,0xa0,0x00,0x7d,0xff,0x98,0x00, 0x4c,0xff,0x56,0xfe,0x14,0xff,0x3f,0x00, // 13264
0x93,0xff,0xa8,0xff,0xd2,0xff,0xf5,0x00, 0xf5,0xff,0xc1,0x00,0x52,0x00,0x2b,0x00, // 13280
0x2c,0xff,0x48,0x00,0x17,0xff,0x39,0x00, 0x07,0x01,0xf0,0xff,0xd7,0xff,0x75,0xff, // 13296
0x8a,0xfe,0x0e,0x01,0xd3,0xff,0xf8,0xff, 0x2e,0x00,0xa3,0xff,0xa4,0xff,0x8e,0x00, // 13312
0x04,0x00,0x83,0xff,0x5a,0x00,0xc7,0xff, 0x6f,0x00,0x86,0x00,0xdb,0xff,0x2c,0x01, // 13328
0x82,0x00,0xf2,0xff,0x09,0x00,0x72,0xff, 0xc8,0xff,0x26,0xff,0x16,0x00,0xd5,0xff, // 13344
0xb7,0xff,0xde,0xfe,0xa6,0xff,0x8c,0xff, 0xb3,0xff,0x29,0x00,0xc5,0xff,0xfe,0xff, // 13360
0x33,0x00,0x04,0x00,0xc5,0xff,0x38,0x00, 0xca,0xff,0x5d,0x00,0x2e,0x00,0xed,0xff, // 13376
0xee,0xff,0x23,0x00,0xda,0xff,0x68,0xff, 0x85,0xfe,0x75,0xff,0x7b,0x00,0xd8,0xff, // 13392
0x87,0x00,0x32,0x00,0xd6,0xff,0x05,0x00, 0x11,0x00,0x39,0x00,0x7e,0xff,0x81,0x00, // 13408
0x37,0x00,0x85,0xff,0x76,0x00,0x2e,0x00, 0x9b,0x00,0x5e,0xff,0xc4,0xff,0xca,0xff, // 13424
0x2d,0x01,0x24,0x00,0x26,0x00,0x40,0x00, 0x98,0xff,0x94,0x00,0xd1,0xff,0x51,0x00, // 13440
0xa8,0x00,0xdf,0xff,0x88,0x00,0x5d,0xff, 0x16,0x00,0x39,0x00,0xff,0xff,0x4b,0x00, // 13456
0x73,0x00,0xc7,0xff,0x22,0x00,0x31,0x00, 0x28,0x01,0x9a,0x00,0x48,0xff,0x16,0x00, // 13472
0xb8,0xff,0xa2,0x01,0x6a,0x00,0x92,0xff, 0xbf,0xfd,0xcc,0xff,0x3a,0xff,0xea,0x00, // 13488
0xfb,0x00,0xd1,0x01,0x80,0xff,0x61,0x02, 0x94,0x00,0x6c,0x01,0x30,0x00,0x8e,0xfe, // 13504
0xf6,0x00,0x14,0x00,0xb3,0xff,0xef,0xfe, 0x02,0x02,0x73,0xff,0x84,0xff,0xe9,0xfc, // 13520
0x42,0x02,0x17,0x04,0x08,0x01,0x8a,0x00, 0x1c,0x00,0x71,0xfe,0x4c,0x01,0x34,0x00, // 13536
0xc3,0x00,0x0f,0x02,0xec,0xff,0x6e,0x00, 0x61,0xff,0xca,0xfe,0xa5,0xff,0xf2,0xfd, // 13552
0x23,0xfd,0xba,0xfe,0x3a,0x01,0x6b,0x00, 0x97,0xfe,0xb5,0xff,0x54,0x01,0x24,0x00, // 13568
0x15,0xff,0x85,0xff,0xe3,0x01,0xb9,0x01, 0x7e,0xfe,0x9f,0xfe,0x95,0x00,0x92,0xf9, // 13584
0x53,0x02,0xde,0xfe,0x4e,0xff,0x31,0x06, 0x87,0xff,0x58,0xfd,0x56,0xff,0x7d,0x03, // 13600
0xab,0xfe,0xf9,0xff,0xba,0xff,0xb6,0xff, 0xd6,0xff,0x56,0x00,0xeb,0xfe,0xce,0x00, // 13616
0xfe,0xfe,0x71,0xff,0x9a,0x01,0xdf,0xfe, 0xf7,0xff,0x10,0x00,0x37,0x00,0x03,0x01, // 13632
0x56,0x00,0xdf,0xfb,0x58,0xff,0x5e,0x00, 0xf1,0xfe,0xfd,0xff,0x93,0xff,0xa9,0x00, // 13648
0x09,0x05,0xa1,0xff,0xb8,0xfe,0x68,0xff, 0xe1,0xff,0x09,0x00,0x18,0xfb,0x54,0xff, // 13664
0x9f,0x00,0x6a,0x01,0xd4,0xfa,0x3d,0x00, 0x76,0xff,0x02,0xf9,0x3c,0xfe,0x11,0xff, // 13680
0x53,0xff,0xfe,0xfe,0xcb,0xff,0x6a,0x00, 0xf8,0xff,0xa1,0x00,0x91,0x00,0x48,0x00, // 13696
0xb4,0x00,0x69,0xff,0x21,0xfb,0x8c,0xf8, 0x9c,0x02,0xa4,0xff,0x3b,0x01,0xb1,0x00, // 13712
0x6f,0xff,0x68,0x02,0x6b,0x00,0xa6,0xfd, 0x90,0xfe,0xab,0xfe,0x70,0xfe,0x10,0xff, // 13728
0xdf,0xfe,0x03,0xff,0xb7,0x0b,0x78,0x00, 0xa7,0x01,0xe4,0xff,0x93,0xfd,0x76,0xfe, // 13744
0xec,0x00,0x2b,0xfd,0x90,0x01,0xd1,0x01, 0xde,0x00,0x95,0x00,0x5b,0x01,0xf0,0xff, // 13760
0x25,0xff,0x5a,0xff,0x7d,0xff,0xe8,0x00, 0x64,0x00,0x98,0xff,0x73,0x00,0xe7,0xff, // 13776
0x3c,0x00,0x50,0xff,0xf1,0x00,0xe5,0xff, 0x12,0x00,0xb5,0xff,0x35,0x01,0xeb,0x00, // 13792
0x67,0x02,0x4c,0x00,0xa8,0x00,0x59,0x00, 0xcd,0xff,0xb6,0x01,0x41,0xfe,0xc3,0xff, // 13808
0xb2,0xff,0xc6,0xff,0xcc,0xff,0x16,0x00, 0xbf,0x00,0x14,0x01,0xd3,0xff,0x6e,0x00, // 13824
0x3b,0xff,0x14,0xff,0x17,0x00,0xb0,0xff, 0x02,0xfe,0xd5,0x01,0xd8,0xfe,0x2d,0xff, // 13840
0x2c,0x00,0xa1,0xff,0xbb,0x00,0x8d,0xff, 0x88,0xff,0x57,0xfe,0x0a,0x01,0x6c,0xfe, // 13856
0x1b,0xff,0x93,0xfe,0x92,0xff,0x14,0xfe, 0x49,0x00,0x26,0x01,0x98,0x01,0x9b,0x02, // 13872
0xf0,0xff,0xd9,0x00,0x33,0x00,0x47,0xff, 0x4d,0xff,0xaa,0x01,0xbe,0xfe,0x83,0xff, // 13888
0x4b,0x00,0x5d,0xfe,0x21,0xff,0x90,0xfe, 0x4d,0xff,0x47,0x00,0xeb,0xff,0xbf,0x01, // 13904
0x11,0x01,0xf4,0x00,0x7f,0x00,0xe1,0xff, 0x43,0x00,0xe5,0xfe,0x6a,0xff,0x40,0x00, // 13920
0x16,0x01,0xeb,0x00,0x9c,0x00,0x14,0x00, 0x1d,0x00,0xb8,0xff,0xd8,0xff,0xaa,0xff, // 13936
0x55,0x00,0x9c,0x01,0x59,0xff,0x3c,0xff, 0x29,0x00,0xbc,0x00,0x6b,0xfe,0x23,0xfe, // 13952
0x94,0xff,0xc9,0xfd,0x59,0xff,0x08,0xff, 0xa3,0xff,0x52,0x00,0x70,0xff,0x52,0xff, // 13968
0xab,0xfd,0xc1,0x00,0x10,0xff,0x47,0xff, 0x00,0x00,0x6d,0x00,0x71,0xff,0xe5,0xfd, // 13984
0x42,0x01,0xb7,0xfe,0xce,0xfe,0x09,0xfe, 0xfb,0xff,0x5c,0xff,0xce,0xfd,0x0f,0xff, // 14000
0x96,0xff,0x93,0x00,0xf1,0xff,0x40,0x00, 0x24,0xff,0xc3,0xff,0x36,0x00,0x03,0xff, // 14016
0x29,0x00,0xfe,0xff,0x06,0xff,0x6d,0xfd, 0x3f,0xff,0x7f,0x00,0x5a,0x01,0x76,0x01, // 14032
0x4a,0xff,0xc4,0xfc,0x3b,0x00,0x90,0x00, 0x35,0x00,0xe1,0x01,0xcf,0x00,0x66,0xfe, // 14048
0xdf,0xff,0x57,0x01,0x14,0x07,0x4f,0xff, 0x59,0xfe,0xc7,0x00,0x3d,0xff,0xf3,0x02, // 14064
0x70,0xfe,0x71,0xfe,0xf6,0xff,0x95,0x02, 0x56,0x00,0x10,0x01,0x8c,0x01,0xd3,0x02, // 14080
0x37,0xfe,0x01,0x04,0x6c,0xff,0x99,0xfb, 0x03,0x01,0x0e,0x03,0x1f,0xfe,0xf7,0xff, // 14096
0x00,0xfe,0xf6,0xfb,0xc1,0xfe,0x54,0x01, 0xbe,0xff,0xa0,0x02,0xd9,0xfb,0x5c,0x02, // 14112
0x92,0xfc,0xef,0x00,0x5c,0xfe,0x27,0xfe, 0x72,0x02,0xd5,0x00,0x07,0xfe,0x84,0x01, // 14128
0x8f,0x02,0xba,0xff,0xe0,0x02,0x31,0xfe, 0x07,0xfe,0x85,0x00,0xc7,0xfe,0x57,0xfd, // 14144
0x11,0xff,0x1f,0x01,0x33,0x03,0xb8,0x04, 0x41,0x03,0x6b,0xfd,0x12,0x00,0xc8,0x00, // 14160
0xca,0x02,0x18,0x04,0x90,0x00,0x66,0x00, 0x46,0x00,0x3c,0x01,0x4c,0x02,0x52,0xfc, // 14176
0xe7,0xff,0x19,0x02,0xda,0x00,0xfd,0x04, 0x8b,0x02,0xbf,0xfd,0x2e,0x04,0x2d,0x01, // 14192
0xc4,0xfd,0x1a,0xff,0x95,0xff,0xb4,0xfe, 0x9f,0x00,0x21,0x00,0x2d,0xfe,0x98,0x00, // 14208
0x63,0x00,0x03,0x01,0x4d,0x04,0xa0,0x00, 0x6e,0x00,0xa4,0xfe,0x3c,0x01,0xb8,0x02, // 14224
0x27,0xfe,0x04,0xfc,0xe8,0xfe,0xfc,0xfe, 0xe9,0x01,0x4e,0xff,0x49,0xfe,0xfb,0xff, // 14240
0x46,0xfe,0xea,0x01,0xbb,0xf9,0x44,0x03, 0x21,0xfc,0xaa,0xfe,0x21,0xfe,0x4d,0x01, // 14256
0xa2,0xff,0xf6,0x00,0xb9,0xfe,0x10,0x00, 0xaf,0xff,0x14,0x00,0x65,0xfc,0x36,0xfe, // 14272
0xba,0xfe,0x76,0x00,0x98,0xff,0x0b,0x05, 0x33,0xff,0x8e,0x01,0x5f,0x01,0xd7,0x00, // 14288
0xa4,0xf8,0x38,0x00,0xa3,0x00,0x7b,0xfe, 0x7b,0xfb,0x57,0x01,0xcf,0x03,0xc0,0xfb, // 14304
0x3f,0x00,0xbe,0x04,0xb1,0xfb,0x44,0x04, 0x5f,0x02,0xe9,0xfb,0x2d,0x00,0xfa,0x00, // 14320
0xed,0x01,0x27,0x01,0x3a,0x00,0x6d,0xfd, 0x2c,0x00,0x37,0xff,0xb9,0x00,0x35,0xfd, // 14336
0x78,0xfe,0x45,0xff,0x18,0xff,0xc7,0xff, 0x55,0xfe,0x36,0xff,0x34,0xff,0xb7,0x01, // 14352
0xea,0xfd,0x68,0xfd,0x10,0xff,0xff,0x02, 0x88,0xf8,0x06,0xff,0xa4,0x01,0x77,0xff, // 14368
0xa2,0x00,0x6e,0x01,0x27,0xff,0x89,0x02, 0xfa,0xff,0x27,0xff,0x64,0x00,0xf6,0x00, // 14384
0x8e,0xff,0x97,0xff,0xe4,0xff,0x5a,0x00, 0xf0,0xff,0x61,0x02,0x3d,0xff,0xc2,0x02, // 14400
0xd1,0xff,0xee,0x00,0x3c,0x01,0x8d,0x00, 0x13,0x01,0x94,0xff,0x2c,0x01,0x47,0xfd, // 14416
0x44,0xfc,0xc2,0x00,0xc2,0xff,0x48,0x02, 0xb5,0xfe,0x35,0x02,0xba,0x02,0x00,0xfd, // 14432
0x4c,0x01,0x43,0x01,0xa8,0xff,0x04,0xfc, 0x08,0x00,0x66,0x00,0xfb,0x00,0x7d,0x01, // 14448
0xad,0x03,0x65,0x00,0xba,0x00,0x4c,0xfc, 0xf1,0xfe,0x4a,0x00,0xc0,0x00,0x65,0x03, // 14464
0x90,0x02,0xd5,0xfe,0xd8,0x01,0x1d,0xfe, 0x56,0xfb,0xa7,0x02,0x3b,0xff,0xfe,0xfe, // 14480
0x40,0x01,0x28,0x01,0x6d,0xfe,0x55,0xff, 0x4d,0xfd,0x90,0xff,0x89,0x00,0xf9,0xff, // 14496
0x8d,0xff,0x46,0x00,0xa2,0x06,0x86,0xff, 0xeb,0xff,0x9e,0xfd,0xec,0xff,0x68,0xfe, // 14512
0x53,0x02,0x26,0x01,0x4a,0x00,0x26,0x00, 0x49,0xff,0x22,0x04,0x35,0xff,0xe6,0xff, // 14528
0x31,0xff,0xbc,0xff,0x4c,0x00,0xce,0xfb, 0xfa,0x00,0x95,0x03,0x32,0x02,0xc5,0x01, // 14544
0x4b,0xfd,0x6b,0xfd,0x04,0xfd,0x19,0xfd, 0x5e,0xff,0x14,0xff,0x13,0x01,0xfd,0x01, // 14560
0x15,0x05,0x4d,0xfe,0x1a,0x01,0x43,0x01, 0x59,0xff,0x9b,0x00,0x59,0xfb,0x75,0xff, // 14576
0xd4,0xfe,0xef,0xff,0x30,0x01,0xa3,0xff, 0xe2,0xfe,0x01,0x02,0x1f,0xff,0xe1,0xfe, // 14592
0x56,0x01,0x8b,0xfc,0x4c,0x00,0xf8,0xff, 0x0c,0xff,0x7e,0x00,0x52,0x00,0x99,0xff, // 14608
0xdd,0xff,0xce,0x00,0x3b,0x00,0xd5,0xfe, 0xc9,0x00,0x7a,0x00,0xb0,0x00,0x03,0xff, // 14624
0x1c,0xff,0x28,0xff,0x64,0xff,0x21,0x01, 0xda,0x00,0x8f,0xfe,0x7e,0xff,0xc4,0xff, // 14640
0x81,0xfc,0xa8,0x06,0x1d,0x00,0x38,0x00, 0x4d,0xff,0x08,0x00,0xf4,0xff,0x9b,0xff, // 14656
0x88,0x00,0xf3,0xfe,0x46,0xfe,0x8e,0x00, 0x9f,0x00,0x5a,0xff,0xf6,0xff,0x61,0x00, // 14672
0x95,0xfb,0x58,0x00,0x74,0xff,0x57,0x00, 0xd0,0xff,0x7a,0x00,0x60,0x00,0x00,0x00, // 14688
0xce,0xff,0x55,0x00,0x35,0x02,0xe0,0xfe, 0xf0,0xfd,0x58,0x01,0x9c,0x00,0x53,0xf6, // 14704
0xc4,0x00,0xba,0x00,0x87,0x05,0xcf,0x0f, 0x7a,0x01,0xcf,0x00,0x1a,0x00,0xd5,0x00, // 14720
0xdc,0x00,0xe8,0x00,0x6a,0xff,0x7d,0x00, 0x11,0x02,0x45,0x00,0xad,0xff,0x39,0xfe, // 14736
0x25,0xff,0x3c,0x00,0xc3,0x01,0x0f,0x06, 0x7c,0x02,0x28,0x00,0xc1,0x04,0x33,0x01, // 14752
0xd2,0xfd,0xe7,0xfe,0x0b,0xff,0xdd,0xff, 0xcc,0xff,0x69,0x00,0x63,0x00,0x69,0xff, // 14768
0x2e,0x02,0x27,0x01,0x3a,0xff,0x4e,0x00, 0x5d,0x00,0xf1,0x00,0xc8,0x00,0xca,0xff, // 14784
0x50,0x00,0x34,0xff,0x66,0xfc,0xca,0xfe, 0x9d,0x00,0x4c,0xfb,0x30,0x01,0x55,0xff, // 14800
0xaf,0xfe,0x2c,0x01,0xfb,0xf9,0xdb,0xfe, 0x1f,0xfc,0x0f,0x01,0x13,0xff,0xc4,0x00, // 14816
0xeb,0xff,0x1e,0x02,0x62,0xfd,0x57,0xfd, 0x1f,0x01,0x71,0x00,0xfe,0xfa,0x9f,0xfd, // 14832
0x07,0xff,0x3b,0x00,0x3f,0x00,0x21,0x01, 0x34,0x01,0xcd,0xfd,0x55,0x00,0x3f,0x01, // 14848
0xcf,0xfa,0x85,0xff,0x14,0x04,0x3d,0xfe, 0x4f,0x00,0xb6,0x00,0x4e,0x01,0x7a,0xf8, // 14864
0x42,0x00,0x01,0x01,0x5d,0xff,0xc4,0x07, 0x3a,0x02,0xf2,0xff,0x94,0xfc,0x45,0x00, // 14880
0xf0,0xfe,0x42,0xff,0x95,0xff,0x45,0x03, 0x14,0xfd,0xef,0xff,0xf5,0xfe,0x7b,0x00, // 14896
0xa9,0x01,0x6e,0x04,0xb5,0x01,0x88,0x00, 0x4a,0xff,0x54,0x00,0x4b,0x01,0x3f,0x00, // 14912
0x61,0xfd,0x90,0x00,0x51,0xff,0xaa,0xfd, 0xa3,0xff,0x99,0xfe,0x33,0x01,0x12,0x01, // 14928
0x2d,0xfe,0xf9,0xff,0x20,0x02,0x29,0xff, 0x09,0xff,0x10,0x00,0xf6,0xfb,0x6f,0xff, // 14944
0x9c,0x03,0xc8,0xff,0x89,0x00,0x25,0x01, 0x21,0x02,0x6a,0x01,0x17,0xff,0x52,0x02, // 14960
0xc2,0xff,0xc2,0x01,0x81,0xfe,0xc6,0xff, 0xae,0xff,0x65,0x0b,0x6c,0xfe,0xdf,0xff, // 14976
0xc2,0x02,0xe3,0x08,0x2c,0xfe,0xfb,0x01, 0xcc,0x03,0x0b,0x02,0x4d,0x02,0xc6,0xff, // 14992
0x06,0x00,0xec,0x00,0x2b,0x00,0x2f,0x01, 0x59,0x01,0x03,0xff,0x12,0xff,0xeb,0xfe, // 15008
0x3a,0xff,0x9d,0x00,0x34,0x00,0x12,0xfd, 0xc0,0x02,0x18,0xff,0x40,0xff,0x1b,0x01, // 15024
0x96,0xfe,0x07,0xff,0x15,0x02,0x9c,0x00, 0x74,0xff,0x1c,0x01,0xf7,0xfc,0x62,0x00, // 15040
0x4c,0x00,0x7c,0xff,0xc4,0x00,0xce,0xff, 0x81,0x00,0xd6,0xff,0xc5,0xff,0x8f,0xff, // 15056
0xc4,0xff,0xaa,0x00,0x91,0x02,0xb9,0x00, 0x80,0xff,0x86,0x00,0x76,0x03,0x15,0xff, // 15072
0x15,0x00,0xc5,0x03,0x31,0x08,0x9e,0xfe, 0x24,0x00,0x6a,0x00,0x05,0xff,0x54,0x01, // 15088
0xd0,0xff,0x9d,0x03,0x54,0xff,0x8f,0xff, 0x4b,0xff,0x60,0x02,0x19,0x01,0x86,0x04, // 15104
0x3a,0xfe,0xee,0xff,0x25,0xfe,0x9c,0xfe, 0x6b,0xfc,0x3b,0x01,0x8d,0x02,0xbd,0xfc, // 15120
0xb9,0x00,0x9a,0xfc,0x76,0x01,0x96,0xfb, 0x29,0x02,0xd1,0xfc,0x37,0xfc,0xf1,0xfe, // 15136
0xb1,0x01,0x93,0x01,0xc3,0xff,0x5f,0x01, 0x38,0xff,0x5a,0x01,0xdc,0x00,0x1c,0x01, // 15152
0xfc,0x00,0x64,0x01,0xb2,0xfe,0xb9,0xff, 0x3b,0x03,0xaf,0x00,0xe5,0xff,0x29,0xff, // 15168
0x68,0xfe,0x41,0xfd,0xa8,0x02,0x31,0xff, 0x60,0x01,0x6e,0xfd,0xcb,0x01,0xab,0x03, // 15184
0xca,0xff,0x2e,0x01,0x4c,0x04,0xb7,0x02, 0x86,0x01,0x8f,0x02,0x4d,0x02,0x8c,0x04, // 15200
0xb7,0x01,0xf6,0xfb,0x4e,0xf3,0xca,0x00, 0x54,0xff,0x6e,0xff,0x21,0xfa,0x35,0x00, // 15216
0xcc,0x00,0xa6,0x00,0xc5,0x01,0x47,0x00, 0xd9,0x03,0x37,0x01,0x6f,0x01,0xf7,0xfe, // 15232
0x71,0x02,0xb7,0x09,0xe6,0xfd,0x28,0xf9, 0x33,0x01,0xc6,0x01,0x1f,0x00,0x9f,0x00, // 15248
0xc3,0xff,0x02,0xfc,0x1b,0xfc,0x66,0xfa, 0xba,0x04,0xb5,0xfd,0x6b,0xfb,0x06,0x01, // 15264
0x7f,0xfd,0x29,0x05,0xb6,0x01,0x82,0xfe, 0xe3,0xfd,0xf0,0x00,0x78,0x00,0x91,0xfe, // 15280
0x1c,0x02,0xf9,0xfe,0xc8,0xff,0xd9,0x00, 0xd8,0xff,0xe2,0xff,0x72,0xff,0x14,0xfe, // 15296
0xd5,0x00,0x54,0x00,0x3c,0xfc,0x17,0xff, 0x94,0xfd,0x6a,0x00,0xe4,0xfc,0xe6,0xfd, // 15312
0x9e,0x04,0xb1,0xff,0x93,0x00,0xcf,0x00, 0xf6,0x0a,0x71,0x00,0x54,0x02,0xc6,0xff, // 15328
0x24,0xfc,0x18,0x00,0x6a,0xff,0xce,0xff, 0x45,0x00,0xd5,0x00,0x6b,0x00,0x93,0xff, // 15344
0x15,0x00,0xce,0x00,0x2e,0x02,0x6a,0xf7, 0x40,0xff,0xa0,0xfe,0x36,0x01,0xe1,0x00, // 15360
0x62,0x02,0x9f,0xfe,0xef,0x01,0xc1,0xff, 0xb5,0xfe,0xde,0xff,0xf0,0xfb,0x16,0x00, // 15376
0x61,0x00,0x5d,0xfd,0x6a,0xff,0x12,0xff, 0xb7,0x00,0x03,0xff,0x9c,0x01,0x41,0xfb, // 15392
0x02,0x01,0x54,0xfe,0x35,0xfe,0x52,0xff, 0xca,0xfe,0x87,0x05,0x5d,0x01,0xe0,0x02, // 15408
0x68,0x01,0xd6,0x01,0x5c,0xff,0x1f,0x00, 0x23,0x01,0xaa,0x06,0x47,0x00,0xc4,0x00, // 15424
0x32,0xfe,0xae,0x01,0xb4,0x00,0x1c,0xfd, 0x07,0x05,0xae,0xfe,0x4e,0x00,0xce,0xff, // 15440
0x34,0x00,0x35,0x00,0xf0,0xfe,0x50,0x03, 0x56,0x01,0xd4,0x00,0xac,0xff,0xf7,0xfe, // 15456
0xe7,0x01,0xbe,0x00,0xed,0x01,0x7f,0xfe, 0x5f,0xff,0xa1,0xff,0x82,0x00,0x6d,0x00, // 15472
0x58,0xfc,0x38,0xfc,0x56,0xff,0xd1,0xfd, 0x05,0xfc,0x88,0x00,0x3e,0x0a,0x3f,0x02, // 15488
0x40,0xfe,0x6e,0xff,0x37,0x05,0x30,0x00, 0x83,0xff,0x1d,0x01,0x8b,0x00,0x99,0xff, // 15504
0xef,0xff,0x52,0xff,0xf9,0x00,0xfa,0xfe, 0x42,0x00,0x84,0xfc,0x66,0xff,0x6f,0x06, // 15520
0xcc,0xfe,0x06,0xff,0xb8,0xff,0x55,0xff, 0xa6,0xfe,0x86,0x00,0xcb,0x01,0xcc,0x01, // 15536
0x9f,0xfd,0xd1,0x00,0xca,0xfe,0xa7,0x02, 0x46,0x00,0xd3,0xfe,0x15,0x00,0x4b,0xfe, // 15552
0x87,0x01,0x7f,0x04,0x73,0xff,0x0c,0xfc, 0xd4,0xfa,0xab,0xfe,0xeb,0xfd,0x67,0xff, // 15568
0x60,0x01,0xe6,0xff,0xfb,0xfe,0x8b,0xfd, 0x93,0xfd,0x82,0xff,0xb2,0x00,0xb8,0x01, // 15584
0x69,0x00,0x2e,0x00,0x39,0x03,0xeb,0xff, 0xcc,0xfb,0x22,0x04,0xfb,0xfd,0x6f,0x00, // 15600
0x04,0xfe,0x1a,0xff,0xe6,0x00,0xc5,0xff, 0x2b,0x00,0x8a,0xff,0x79,0xfe,0x9e,0xfe, // 15616
0x59,0x00,0x81,0x01,0x79,0x01,0xdd,0xff, 0xf9,0xff,0x9e,0x00,0xea,0x00,0xba,0x02, // 15632
0xa0,0x00,0x5e,0x03,0xf8,0x01,0x9b,0xfb, 0x48,0x00,0x6b,0x00,0x19,0xff,0x7c,0x00, // 15648
0xb8,0xfc,0x98,0x01,0x24,0x02,0x58,0xf7, 0x18,0x01,0xe7,0x07,0xc6,0x03,0x7a,0x03, // 15664
0x69,0xfc,0x1f,0xfd,0x55,0xfe,0x11,0xff, 0x8a,0x00,0x65,0x00,0xf7,0x01,0x97,0xfe, // 15680
0x42,0x07,0xe6,0xfa,0x85,0x00,0x35,0xff, 0x5e,0x01,0xc0,0xfe,0x5d,0xfc,0xef,0xfd, // 15696
0x20,0x02,0x6e,0xfa,0xfd,0xfe,0xbf,0x00, 0x93,0x00,0x0e,0x00,0xda,0x00,0x03,0x01, // 15712
0xbe,0x04,0xef,0xfa,0x49,0xff,0x75,0x00, 0x70,0x01,0x5f,0x00,0xe2,0x00,0x4b,0x02, // 15728
0x8d,0xff,0x19,0xfe,0x30,0xfd,0xc0,0xf9, 0xef,0x01,0x91,0xfe,0x4e,0x03,0x70,0xfe, // 15744
0x9d,0xfe,0x5f,0x00,0xf4,0xff,0x03,0x03, 0x65,0xfe,0x07,0xfd,0x8b,0xfe,0x11,0x01, // 15760
0xfa,0xf8,0x78,0x01,0x26,0x03,0x3d,0x04, 0xb4,0xfe,0xa1,0x00,0x3e,0x00,0x7d,0x01, // 15776
0x94,0x01,0x86,0xfe,0xdf,0x00,0x0d,0x00, 0x75,0x02,0xe3,0xfe,0x96,0x02,0xf4,0xfd, // 15792
0x11,0x01,0x61,0x04,0xe0,0xfc,0xf5,0x01, 0xd1,0xff,0xe8,0xff,0xa2,0x00,0xed,0xff, // 15808
0xd8,0xff,0x6c,0xff,0xf5,0x00,0xa8,0xfc, 0xbc,0xfe,0xbe,0x00,0x3a,0x00,0x2b,0xfe, // 15824
0xcb,0xfd,0x8b,0x02,0x7f,0x07,0xd4,0x02, 0xe1,0x00,0xb5,0x0a,0x40,0x00,0x6e,0xfb, // 15840
0x48,0xfe,0x0d,0xfe,0x86,0xfe,0x08,0x02, 0x8c,0x04,0x2a,0x00,0x7e,0xfd,0x28,0xfa, // 15856
0x13,0x00,0x57,0x00,0xf9,0xfe,0xe8,0x03, 0x4d,0x00,0x31,0x00,0x96,0x04,0xa2,0xfe, // 15872
0x09,0xfc,0xd0,0x03,0x86,0xfc,0xb7,0xff, 0xfb,0x04,0x57,0x01,0x0a,0x02,0x45,0xff, // 15888
0x5b,0xfd,0xf8,0x00,0x55,0xfc,0x45,0x00, 0x35,0xff,0xb2,0x02,0xa1,0xff,0xdd,0xfd, // 15904
0x0b,0x00,0xbb,0xfe,0x77,0xff,0x3c,0xfc, 0xc6,0x00,0x31,0xfe,0x4f,0x03,0x41,0xfb, // 15920
0xf3,0x00,0xb4,0x00,0x08,0xfe,0xbd,0xfc, 0x3b,0xf9,0x28,0x01,0xd9,0xfb,0xe6,0xfa, // 15936
0x43,0x00,0x08,0x07,0x0a,0x02,0xbf,0xfe, 0x8b,0xfe,0x10,0xfd,0x58,0xfb,0x93,0xf6, // 15952
0x76,0xff,0xf2,0xf9,0x10,0x00,0x5f,0x03, 0xa2,0x07,0xdd,0xfc,0x50,0x01,0xa0,0x00, // 15968
0xe9,0x00,0xf7,0xff,0xd0,0x01,0xb4,0xfc, 0xeb,0x00,0x55,0x01,0xe9,0x02,0xa6,0xff, // 15984
0xa2,0xff,0xd5,0x03,0x42,0xff,0x01,0x03, 0x53,0x02,0x33,0xff,0xf0,0x01,0x45,0x00, // 16000
0x4a,0x00,0x40,0xfe,0xce,0xfb,0x00,0x00, 0x6d,0x01,0x79,0x01,0x91,0x08,0x2f,0x00, // 16016
0xc0,0xff,0x48,0x00,0x54,0xff,0x4d,0x03, 0xcd,0xff,0x51,0xfd,0xa5,0x05,0x56,0x02, // 16032
0xdc,0x00,0xb6,0xff,0xf9,0x04,0x07,0x01, 0x71,0xff,0x74,0x01,0x1b,0xff,0xd9,0xfd, // 16048
0xb6,0xfe,0x77,0xff,0x47,0xff,0x2c,0xff, 0xa4,0xfd,0x3c,0x01,0x00,0xff,0xb3,0xfe, // 16064
0x6c,0x01,0x49,0x02,0x09,0xfc,0x7b,0x02, 0xdf,0xfc,0x4e,0x03,0xb3,0xfe,0x90,0xfd, // 16080
0x53,0xff,0x56,0x01,0x58,0xfe,0x53,0xff, 0xcd,0xff,0x64,0xfd,0xb8,0x01,0x8d,0xfc, // 16096
0x2e,0xff,0x48,0xfe,0x00,0xfa,0xc7,0xff, 0xf1,0xfe,0x76,0x02,0xc4,0x05,0x0b,0x01, // 16112
0x2b,0x02,0x45,0xfe,0x2a,0x00,0xac,0xfe, 0xb1,0xff,0x07,0x03,0x9a,0xfc,0xe7,0xfc, // 16128
0xf4,0xfe,0xf1,0xff,0xd1,0x01,0x0c,0xfc, 0xf8,0xfd,0xb6,0xfe,0x9e,0x01,0xa5,0x03, // 16144
0x51,0x01,0xb6,0xff,0xfc,0x02,0x58,0xff, 0xe3,0xff,0x22,0x00,0x36,0xff,0x38,0x01, // 16160
0x22,0x02,0x96,0xff,0x80,0xfe,0xac,0xff, 0x16,0xff,0xd0,0xfd,0x5d,0x03,0x77,0xfd, // 16176
0x52,0xff,0x10,0xfe,0xc7,0x00,0x4e,0x03, 0xdc,0xff,0xfe,0x00,0xb9,0xfe,0x99,0xfd, // 16192
0xb3,0x00,0x55,0xfe,0xe1,0xfe,0xca,0xfc, 0x66,0xfe,0xb4,0x01,0x30,0xfb,0xe8,0x04, // 16208
0x11,0xf8,0xe2,0x02,0x2e,0xfe,0x15,0x00, 0xeb,0xff,0x44,0x01,0x69,0xff,0x86,0xff, // 16224
0x1e,0xff,0xa2,0xfd,0x6e,0xfe,0x9e,0xfc, 0x71,0x00,0x6a,0x03,0x6b,0xfe,0x23,0xff, // 16240
0x67,0x00,0x89,0xff,0x4d,0x02,0xc6,0x01, 0x5f,0xfc,0xb3,0x00,0xd2,0xff,0x1c,0xfc, // 16256
0xa4,0xff,0xbb,0x02,0xad,0xfe,0x26,0xfd, 0x62,0x01,0xd6,0x02,0xb2,0x00,0x18,0x03, // 16272
0x49,0xfe,0x77,0x00,0xc0,0x00,0xe8,0xff, 0xf5,0xfd,0x6f,0x00,0x46,0x02,0x3f,0x01, // 16288
0x11,0x00,0xc5,0x00,0x47,0xfe,0xea,0x00, 0xf6,0xff,0x0e,0x00,0x2d,0x00,0xd5,0xff, // 16304
0x41,0x00,0x52,0x00,0xe1,0xfd,0x45,0xff, 0x1b,0x04,0x38,0x00,0xb9,0xfe,0x63,0xff, // 16320
0x99,0x02,0xb7,0x02,0x5f,0x00,0x6b,0x00, 0x9a,0x00,0x97,0x00,0x75,0x00,0x30,0x00, // 16336
0x19,0x00,0xd8,0xfe,0x48,0x01,0xf4,0xff, 0x85,0xff,0x4b,0xff,0xbc,0x00,0x97,0xff, // 16352
0x3d,0x00,0xc4,0xff,0xae,0x00,0x25,0xff, 0x94,0xff,0xc6,0xfe,0xb6,0x00,0x5c,0x00, // 16368
0x52,0x00,0xb8,0xff,0x91,0x00,0x0e,0x01, 0x6c,0x00,0x52,0xff,0x7c,0x02,0x56,0xf6, // 16384
0x96,0x01,0x00,0xff,0x14,0x00,0x7f,0x07, 0xf3,0xff,0x54,0xff,0x56,0x00,0x40,0x03, // 16400
0xbc,0x00,0x5a,0xff,0x1b,0xff,0x70,0x00, 0xa1,0xff,0x33,0x00,0xb1,0xff,0x61,0x01, // 16416
0xab,0x00,0x8d,0x00,0xb3,0xff,0xf6,0xfe, 0x02,0xff,0xea,0xff,0xb3,0xff,0x4c,0x01, // 16432
0x81,0x01,0xe9,0xfa,0xb3,0xff,0xaf,0xff, 0x60,0x00,0x03,0x00,0xbd,0x00,0x44,0x00, // 16448
0x42,0x02,0xbc,0x00,0xd2,0xfe,0x7d,0x00, 0x40,0x00,0x2f,0x00,0x10,0xf6,0x37,0xff, // 16464
0x13,0x00,0x0a,0xff,0xd2,0xfb,0x04,0x00, 0xce,0xff,0xf0,0xf7,0xa6,0xfd,0xa6,0xfe, // 16480
0x44,0x00,0x98,0xff,0xd1,0x00,0x6f,0xff, 0xcc,0xfe,0xe5,0xff,0x9d,0xfe,0x2c,0x03, // 16496
0x0a,0x00,0x67,0xfe,0xb0,0xf9,0xa3,0xf2, 0x3f,0x05,0x73,0x01,0x72,0x00,0xae,0x00, // 16512
0xa9,0xff,0xc8,0xff,0x49,0xff,0xd3,0x00, 0x61,0xfe,0xf7,0x00,0xa1,0xff,0x30,0xff, // 16528
0x4e,0x00,0xc1,0xff,0xd1,0x14,0x47,0xff, 0xbf,0xff,0x71,0x00,0xcf,0x00,0x2f,0xfe, // 16544
0x2c,0x01,0x11,0xff,0x21,0xff,0x2e,0x02, 0xae,0xfe,0xfe,0xfe,0x42,0x00,0xeb,0x00, // 16560
0x5e,0xff,0x28,0x00,0xe3,0x00,0x07,0x00, 0xfd,0xff,0x0c,0x01,0xe7,0x00,0x58,0x00, // 16576
0x91,0xfe,0xe3,0xff,0x07,0xff,0xf7,0xff, 0xcb,0xff,0x3f,0xff,0x3c,0xff,0x4d,0x00, // 16592
0x6c,0xff,0x11,0x00,0x16,0x00,0x44,0xff, 0x9e,0x00,0xd8,0x01,0x06,0x00,0xcb,0xfe, // 16608
0xad,0x00,0x80,0x00,0x36,0x00,0xa5,0x00, 0xc8,0xfe,0xf5,0xfe,0x7d,0xff,0x3c,0xff, // 16624
0xe7,0xff,0xb8,0xff,0xc3,0xff,0xc9,0x01, 0x6e,0xff,0xe7,0xfe,0xfc,0x00,0xab,0xff, // 16640
0x2c,0x00,0xde,0xff,0x27,0x00,0x7e,0x00, 0x1d,0x00,0x68,0xff,0x41,0x00,0x27,0x00, // 16656
0xa3,0x00,0xeb,0xff,0x01,0x01,0x70,0x00, 0xd5,0xff,0x2d,0x00,0xb0,0xff,0x49,0x00, // 16672
0x8f,0x00,0x01,0xff,0xfb,0xfe,0xbd,0xff, 0xe9,0x00,0xb1,0x00,0x0b,0x00,0xb2,0xfe, // 16688
0xfd,0xff,0x34,0x00,0xbe,0x00,0xcb,0xff, 0x40,0x00,0x12,0xff,0x14,0x00,0x7f,0x01, // 16704
0xb1,0x00,0x93,0xfe,0x06,0x01,0x9f,0x00, 0xda,0x00,0x00,0x00,0x99,0x00,0x57,0xfe, // 16720
0xcc,0xff,0x1b,0x00,0x17,0x00,0x2e,0xff, 0x7e,0x00,0xad,0x00,0xa1,0x00,0x28,0x00, // 16736
0xf2,0xff,0x7b,0xff,0xab,0xff,0x17,0x00, 0xc8,0x00,0x70,0xff,0x3a,0xff,0x0e,0x00, // 16752
0x24,0x00,0x3e,0xff,0x64,0xff,0xe0,0x00, 0xa3,0xff,0x7b,0x00,0xb2,0xff,0xf9,0x00, // 16768
0xf8,0xff,0xbf,0xff,0xeb,0xff,0xc9,0xff, 0xe1,0x00,0x9d,0xff,0x59,0xff,0x6e,0x00, // 16784
0xe1,0x00,0x27,0x00,0x0c,0xff,0x91,0xff, 0x3b,0x00,0x17,0x01,0xf6,0xff,0x96,0x00, // 16800
0xbe,0xfe,0x4b,0x00,0x61,0x00,0xb8,0xff, 0x45,0xfe,0x8a,0xff,0x90,0x00,0xca,0x00, // 16816
0xbf,0xff,0xa3,0xff,0x83,0x00,0x9e,0xfe, 0x2a,0x00,0x9c,0x00,0xe2,0xfe,0x38,0x01, // 16832
0x8b,0xfc,0x1d,0xff,0xdb,0xfd,0xad,0x00, 0x88,0x05,0x3b,0xff,0x8d,0x02,0xdb,0xff, // 16848
0x6c,0xfe,0x78,0xfc,0xc7,0xff,0xbb,0xfe, 0x70,0xff,0x02,0xff,0x87,0xff,0x7c,0x01, // 16864
0x24,0xff,0xce,0x01,0xba,0xff,0xde,0x05, 0xb9,0x00,0xd8,0x02,0x33,0xff,0x67,0x05, // 16880
0x13,0xfe,0x07,0xfe,0x72,0xfa,0x4f,0xfe, 0xe9,0x00,0x18,0x01,0xea,0xfa,0x97,0xfe, // 16896
0x21,0xff,0x48,0xfe,0x8a,0xff,0x4e,0xff, 0x37,0x03,0x3a,0x02,0x3a,0x00,0x9a,0x02, // 16912
0x20,0x02,0x65,0x05,0x7f,0xfd,0x1a,0xfd, 0x51,0x04,0xd9,0x03,0x2d,0xfe,0x2f,0x00, // 16928
0x49,0x00,0x57,0x00,0xc3,0xfe,0xe0,0xfc, 0x15,0x01,0x1c,0x00,0xd5,0xff,0x69,0x01, // 16944
0xbd,0xfe,0xdb,0x06,0x1e,0x01,0xba,0xfe, 0x1f,0xff,0x73,0x01,0xcd,0xff,0x42,0xfd, // 16960
0xbf,0x04,0x0f,0xff,0xd1,0x02,0xfb,0xff, 0xcb,0xfe,0xea,0x00,0x9a,0x02,0x4f,0xff, // 16976
0xa6,0x02,0x13,0xff,0x9f,0xfd,0x6e,0x00, 0xd2,0xff,0x1b,0x00,0x9f,0xfe,0x71,0xfd, // 16992
0x05,0x00,0xd1,0x02,0xda,0xff,0xe7,0xfe, 0x18,0x09,0x9e,0xff,0x09,0x00,0x02,0xff, // 17008
0xd8,0xfa,0x5a,0x00,0x00,0x02,0x9a,0x01, 0x9f,0xff,0xba,0xff,0x25,0x02,0x14,0x00, // 17024
0xf0,0xff,0xc1,0xfe,0x13,0x01,0x31,0xfc, 0x1e,0x00,0x55,0x01,0xff,0x00,0xa3,0x01, // 17040
0x6a,0x00,0x39,0x00,0xcf,0xff,0xd2,0xfe, 0x35,0x00,0x70,0xfe,0xdb,0xfa,0xbe,0x02, // 17056
0x4e,0x00,0x79,0xfc,0xcb,0x00,0xd6,0x03, 0x00,0x00,0xe8,0x00,0xba,0xff,0xb5,0xfd, // 17072
0x97,0xff,0x2b,0xfb,0x3f,0xff,0x9f,0x03, 0x6a,0xfe,0x7a,0x03,0x41,0x02,0x7c,0x00, // 17088
0xa9,0x00,0x64,0x00,0xcc,0xf9,0x40,0x00, 0x5f,0xfe,0x91,0x06,0xb7,0x01,0x76,0x00, // 17104
0xb0,0xfc,0x1b,0x05,0x6a,0xfd,0x4c,0xfe, 0x4e,0xfb,0x02,0x00,0x70,0xff,0x5e,0x00, // 17120
0xa4,0xff,0x6d,0x02,0xac,0x04,0x3b,0xfc, 0xdb,0xfe,0x12,0x00,0xaf,0xf9,0x77,0x01, // 17136
0x46,0xfc,0x2a,0x00,0xc9,0xfc,0x6a,0xfc, 0xa0,0x01,0xf3,0xff,0xa0,0xf8,0x58,0xfd, // 17152
0xa9,0xfe,0x2e,0xff,0xdf,0xfb,0xd4,0xff, 0xfb,0xff,0xb1,0xff,0xe2,0x00,0x6d,0xfe, // 17168
0x48,0x02,0xcd,0x01,0x22,0x00,0xba,0x00, 0x5b,0xff,0x4b,0xfd,0x0c,0xff,0x94,0x00, // 17184
0x5a,0x00,0xbf,0xfe,0xf2,0xfe,0x88,0x00, 0xae,0xff,0x28,0x00,0xdc,0x02,0x62,0x02, // 17200
0xb0,0x00,0x7b,0x00,0x93,0x00,0x18,0x01, 0xe9,0x01,0x5a,0x02,0xb9,0xfd,0x24,0x00, // 17216
0x74,0xfd,0x82,0x02,0x2c,0x06,0xa8,0xfd, 0xf2,0x00,0x0d,0x00,0x95,0x00,0x38,0x01, // 17232
0x23,0x00,0x11,0xfd,0x9c,0xff,0x77,0x01, 0x84,0x02,0x64,0x01,0x68,0x04,0x86,0x00, // 17248
0x61,0xff,0x02,0x01,0x5e,0x01,0x20,0x02, 0x2a,0x02,0x82,0x00,0x29,0x00,0xab,0xff, // 17264
0x48,0x01,0xd7,0xfe,0x33,0xff,0xb8,0x00, 0xe5,0xfe,0x90,0xff,0x63,0x01,0x65,0xfd, // 17280
0x3c,0xff,0xba,0x00,0x1e,0xfd,0xaf,0x00, 0x42,0x01,0x5e,0x02,0xa1,0xff,0xb8,0x02, // 17296
0x21,0x00,0xba,0xfe,0x6f,0xff,0x35,0xff, 0x58,0x00,0x31,0xfe,0x72,0xfe,0x83,0xff, // 17312
0xb9,0xff,0x73,0xfe,0x29,0x02,0x03,0x06, 0xc7,0xfe,0xd3,0xff,0x6f,0xff,0x30,0xfe, // 17328
0xfd,0x06,0xc7,0xfc,0xd4,0x00,0xf8,0x01, 0xd5,0xff,0x94,0xfe,0x95,0xff,0xf6,0xfe, // 17344
0x57,0x00,0x54,0x03,0x22,0x00,0xb1,0x00, 0x85,0xff,0xbe,0xfe,0x56,0x02,0xbc,0x01, // 17360
0x37,0xfe,0xaf,0xfe,0x85,0xfd,0xf7,0xfe, 0x2c,0x00,0x6d,0xff,0x6b,0x01,0x84,0x04, // 17376
0x0b,0xfe,0x56,0xff,0xbf,0x01,0x97,0x00, 0x72,0xff,0xee,0xfc,0x27,0xfe,0x90,0x00, // 17392
0x82,0xff,0x6c,0x00,0xc4,0xff,0xd3,0x00, 0x33,0xff,0x4d,0x01,0x61,0x01,0x6a,0xff, // 17408
0xc6,0xff,0xaa,0x00,0xbb,0xff,0x60,0x00, 0x38,0x00,0xe8,0xff,0x21,0xff,0xb9,0xff, // 17424
0x9e,0x00,0x31,0x00,0x51,0xfd,0x3f,0xff, 0xfb,0xff,0x75,0xff,0xc4,0xff,0x5f,0x00, // 17440
0xb7,0xff,0x4d,0x00,0x38,0x00,0xe6,0xff, 0xd1,0x00,0xc7,0xff,0x27,0x00,0xb9,0x00, // 17456
0x04,0x00,0x1d,0xff,0xff,0xff,0xa8,0xff, 0x3b,0xff,0x97,0x00,0x5e,0xff,0x94,0xff, // 17472
0x61,0x00,0xd5,0xff,0x0c,0x00,0xce,0xff, 0x9e,0x00,0x85,0x00,0xe6,0x00,0xf2,0xff, // 17488
0xf4,0xff,0x3c,0x00,0x21,0xff,0x0a,0x00, 0x2d,0x00,0x17,0xff,0x74,0x01,0x27,0x00, // 17504
0xf3,0xff,0x5a,0x00,0x6f,0x00,0xc9,0x00, 0xf2,0xff,0xea,0x00,0x1e,0x00,0xe4,0x00, // 17520
0x8f,0x00,0x3e,0x00,0x90,0x00,0x23,0x01, 0xe5,0xff,0x33,0xff,0xbd,0xff,0xfe,0x00, // 17536
0xbc,0xff,0xe0,0xff,0x31,0x00,0x9f,0xff, 0x07,0x00,0x23,0x00,0x4e,0x00,0x8f,0x01, // 17552
0xa0,0xff,0x52,0x00,0xd3,0xff,0x96,0xff, 0x3e,0xff,0xf3,0xff,0xb4,0xff,0x5a,0x00, // 17568
0x44,0x01,0x04,0x02,0x61,0xff,0x4f,0x00, 0xd5,0xff,0x23,0x00,0xad,0xff,0x49,0xff, // 17584
0x10,0x00,0x4b,0xff,0x16,0x00,0xdd,0xff, 0x1f,0x00,0xaa,0x00,0xc3,0xff,0x4e,0xff, // 17600
0x5a,0xff,0x5f,0xff,0x2f,0x00,0x1a,0xff, 0xb0,0x00,0x7b,0xff,0x23,0xff,0xd5,0x00, // 17616
0xf3,0xff,0x1b,0x00,0x1e,0x00,0x23,0x00, 0xe1,0xff,0x33,0x00,0x37,0x00,0x5e,0x00, // 17632
0xce,0xff,0xc4,0xff,0xfa,0x00,0xcf,0x00, 0x9f,0xff,0x05,0x00,0xd7,0xfe,0xcd,0x00, // 17648
0xd5,0xff,0x0c,0x01,0x94,0x00,0x3b,0x00, 0x19,0xff,0x60,0x00,0x59,0x00,0x8d,0xfe, // 17664
0xc7,0xff,0x32,0xff,0x7f,0xff,0x7f,0x00, 0x17,0xfd,0xcb,0xff,0x1f,0xff,0x7b,0x00, // 17680
